{"<s>":0,"<pad>":1,"</s>":2,"<unk>":3,"<mask>":4,"!":5,"\"":6,"#":7,"$":8,"%":9,"&":10,"'":11,"(":12,")":13,"*":14,"+":15,",":16,"-":17,".":18,"/":19,"0":20,"1":21,"2":22,"3":23,"4":24,"5":25,"6":26,"7":27,"8":28,"9":29,":":30,";":31,"<":32,"=":33,">":34,"?":35,"@":36,"A":37,"B":38,"C":39,"D":40,"E":41,"F":42,"G":43,"H":44,"I":45,"J":46,"K":47,"L":48,"M":49,"N":50,"O":51,"P":52,"Q":53,"R":54,"S":55,"T":56,"U":57,"V":58,"W":59,"X":60,"Y":61,"Z":62,"[":63,"\\":64,"]":65,"^":66,"_":67,"`":68,"a":69,"b":70,"c":71,"d":72,"e":73,"f":74,"g":75,"h":76,"i":77,"j":78,"k":79,"l":80,"m":81,"n":82,"o":83,"p":84,"q":85,"r":86,"s":87,"t":88,"u":89,"v":90,"w":91,"x":92,"y":93,"z":94,"{":95,"|":96,"}":97,"~":98,"¡":99,"¢":100,"£":101,"¤":102,"¥":103,"¦":104,"§":105,"¨":106,"©":107,"ª":108,"«":109,"¬":110,"®":111,"¯":112,"°":113,"±":114,"²":115,"³":116,"´":117,"µ":118,"¶":119,"·":120,"¸":121,"¹":122,"º":123,"»":124,"¼":125,"½":126,"¾":127,"¿":128,"À":129,"Á":130,"Â":131,"Ã":132,"Ä":133,"Å":134,"Æ":135,"Ç":136,"È":137,"É":138,"Ê":139,"Ë":140,"Ì":141,"Í":142,"Î":143,"Ï":144,"Ð":145,"Ñ":146,"Ò":147,"Ó":148,"Ô":149,"Õ":150,"Ö":151,"×":152,"Ø":153,"Ù":154,"Ú":155,"Û":156,"Ü":157,"Ý":158,"Þ":159,"ß":160,"à":161,"á":162,"â":163,"ã":164,"ä":165,"å":166,"æ":167,"ç":168,"è":169,"é":170,"ê":171,"ë":172,"ì":173,"í":174,"î":175,"ï":176,"ð":177,"ñ":178,"ò":179,"ó":180,"ô":181,"õ":182,"ö":183,"÷":184,"ø":185,"ù":186,"ú":187,"û":188,"ü":189,"ý":190,"þ":191,"ÿ":192,"Ā":193,"ā":194,"Ă":195,"ă":196,"Ą":197,"ą":198,"Ć":199,"ć":200,"Ĉ":201,"ĉ":202,"Ċ":203,"ċ":204,"Č":205,"č":206,"Ď":207,"ď":208,"Đ":209,"đ":210,"Ē":211,"ē":212,"Ĕ":213,"ĕ":214,"Ė":215,"ė":216,"Ę":217,"ę":218,"Ě":219,"ě":220,"Ĝ":221,"ĝ":222,"Ğ":223,"ğ":224,"Ġ":225,"ġ":226,"Ģ":227,"ģ":228,"Ĥ":229,"ĥ":230,"Ħ":231,"ħ":232,"Ĩ":233,"ĩ":234,"Ī":235,"ī":236,"Ĭ":237,"ĭ":238,"Į":239,"į":240,"İ":241,"ı":242,"Ĳ":243,"ĳ":244,"Ĵ":245,"ĵ":246,"Ķ":247,"ķ":248,"ĸ":249,"Ĺ":250,"ĺ":251,"Ļ":252,"ļ":253,"Ľ":254,"ľ":255,"Ŀ":256,"ŀ":257,"Ł":258,"ł":259,"Ń":260,"Ġt":261,"he":262,"Ġa":263,"on":264,"in":265,"Ġo":266,"Ġthe":267,"re":268,"it":269,"Ġof":270,"is":271,"en":272,"at":273,"Ġw":274,"er":275,"Ġc":276,"ion":277,"Ġs":278,"Ġp":279,"al":280,"ic":281,"Ġin":282,"nd":283,"Ġb":284,"es":285,"Ġth":286,"or":287,"Ġto":288,"Ġm":289,"ce":290,"Ġf":291,"ct":292,"ing":293,"an":294,"ed":295,"Ġn":296,"Ġe":297,"se":298,"ou":299,"Ġis":300,"ly":301,"Ġre":302,"le":303,"Ġand":304,"ĠĠ":305,"Ġit":306,"Ġcon":307,"Ġd":308,"Ġbe":309,"st":310,"om":311,"ent":312,"Ġwh":313,"ot":314,"ar":315,"as":316,"ut":317,"ich":318,"Ġh":319,"ect":320,"Ġpr":321,"Ġas":322,"ll":323,"Ġwhich":324,"Ġthat":325,"Ġu":326,"the":327,"iv":328,"im":329,"ition":330,"ation":331,"os":332,"ity":333,"Ġex":334,"Ġan":335,"Ġon":336,"Ġnot":337,"Ġl":338,"ical":339,"ĠĠĠĠ":340,"pt":341,"Ġthis":342,"ject":343,"ow":344,"ess":345,"Ġwe":346,"Ġfor":347,"ith":348,"id":349,"bject":350,"Ġsu":351,"ence":352,"ib":353,"cept":354,"et":355,"ure":356,"ld":357,"ir":358,"Ġg":359,"Ġwith":360,"ur":361,"ci":362,"ĠI":363,"ver":364,"qu":365,"og":366,"res":367,"ive":368,"ason":369,"ist":370,"Ġor":371,"ception":372,"ay":373,"ere":374,"Ġcan":375,"gh":376,"ain":377,"Ġby":378,"ec":379,"and":380,"if":381,"per":382,"sel":383,"th":384,"sib":385,"âĢ":386,"Ġall":387,"rom":388,"Ġpro":389,"Ġint":390,"ul":391,"pp":392,"Ġreason":393,"em":394,"Ġobject":395,"ĠT":396,"Ġare":397,"ve":398,"ate":399,"Ġfrom":400,"ch":401,"con":402,"ust":403,"end":404,"ore":405,"Ġbut":406,"erm":407,"il":408,"ther":409,"ple":410,"Ġal":411,"Ġits":412,"act":413,"hen":414,"ossib":415,"us":416,"Ġha":417,"Ġconception":418,"ill":419,"Ġonly":420,"aw":421,"am":422,"Ġun":423,"pl":424,"ould":425,"nder":426,"ab":427,"dition":428,"ough":429,"self":430,"âĢĶ":431,"Ġ(":432,"Ġat":433,"inci":434,"um":435,"ol":436,"Ġca":437,"ig":438,"ĠĠĠĠĠĠĠĠ":439,"ans":440,"Ġthere":441,"tain":442,"Ġour":443,"Ġlaw":444,"ermin":445,"ies":446,"etermin":447,"od":448,"Ġmust":449,"Ġsp":450,"Ġcom":451,"est":452,"not":453,"cc":454,"ter":455,"Ġpossib":456,"ality":457,"of":458,"Ġprinci":459,"ecess":460,"resent":461,"Ġr":462,"ous":463,"Ġso":464,"Ġem":465,"Ġwor":466,"Ġpure":467,"ience":468,"ad":469,"Ġunder":470,"ide":471,"Ġother":472,"her":473,"Ġexist":474,"Ġhave":475,"perience":476,"tr":477,"Ġsen":478,"stand":479,"Ġdetermin":480,"Ġmere":481,"Ġtr":482,"Ġdo":483,"Ġv":484,"fore":485,"ction":486,"ogn":487,"ĠThe":488,"Ġwill":489,"ime":490,"ĠB":491,"use":492,"very":493,"Ġnecess":494,"ary":495,"Ġcondition":496,"Ġany":497,"ak":498,"Ġitself":499,"ound":500,"Ġhe":501,"Ġthem":502,"Ġnat":503,"Ġmay":504,"omen":505,"ori":506,"ge":507,"Ġim":508,"standing":509,"Ġthey":510,"Ġform":511,"Ġno":512,"henomen":513,"ind":514,"all":515,"Ġthing":516,"ard":517,"Ġab":518,"pr":519,"ud":520,"Ġexperience":521,"ame":522,"pir":523,"Ġsy":524,"uition":525,"ever":526,"Ġk":527,"pos":528,"Ġus":529,"Ġtime":530,"iori":531,"Ġme":532,"Ġreg":533,"able":534,"ility":535,"ose":536,"pirical":537,"hing":538,"su":539,"Ġsh":540,"Ġif":541,"ant":542,"ph":543,"ĠF":544,"Ġcannot":545,"ace":546,"Ġbeing":547,"ff":548,"out":549,"endent":550,"Ġcogn":551,"ations":552,"Ġper":553,"art":554,"actical":555,"Ġone":556,"Ġhas":557,"Ġqu":558,"Ġthese":559,"ex":560,"Ġpossible":561,"ves":562,"Ġst":563,"ĠBut":564,"Ġev":565,"el":566,"Ġide":567,"Ġrel":568,"Ġphenomen":569,"Ġj":570,"present":571,"now":572,"ord":573,"Ġpriori":574,"ght":575,"ance":576,"Ġcons":577,"Ġintuition":578,"ire":579,"Ġnature":580,"wh":581,"Ġgiv":582,"Ġmor":583,"ĠA":584,"Ġacc":585,"ative":586,"our":587,"ac":588,"Ġempirical":589,"Ġman":590,"one":591,"ult":592,"ples":593,"Ġwould":594,"ansc":595,"Ġad":596,"Ġtherefore":597,"Ġunderstanding":598,"Ġapp":599,"Ġtheir":600,"Ġsuch":601,"Ãł":602,"ite":603,"Ġexistence":604,"ca":605,"anscendent":606,"ement":607,"sequ":608,"Ġcognition":609,"ally":610,"Ġconceptions":611,"Ġde":612,"Ġpractical":613,"Ġsubject":614,"ĠFor":615,"nthe":616,"Ġprinciple":617,"pon":618,"Ġregard":619,"ers":620,"for":621,"selves":622,"ute":623,"Ġdis":624,"ĠP":625,"un":626,"),":627,"position":628,"Ġgiven":629,"to":630,"Ġobjects":631,"ĠÃł":632,"Ġknow":633,"ently":634,"Ġind":635,"ment":636,"Ġworld":637,"Ġmerely":638,"so":639,"Ġy":640,"Ġpre":641,"anscendental":642,"ong":643,"ight":644,"tical":645,"which":646,"here":647,"fere":648,"Ġwithout":649,"ĠTh":650,"ions":651,"ict":652,"feren":653,"Ġrepresent":654,"Ġpart":655,"ener":656,"Ġle":657,"str":658,"Ġch":659,"Ġsame":660,"Ġthings":661,"Ġsom":662,"cl":663,"Ġphenomena":664,"ertain":665,"Ġevery":666,"Ġprinciples":667,"ces":668,"te":669,"Ġmeans":670,"udg":671,"Ġmoral":672,"Ġsynthe":673,"nal":674,"ought":675,"sp":676,"ake":677,"Ġwhat":678,"atter":679,"Ġar":680,"ĠĠĠĠĠĠĠĠĠĠĠĠĠĠĠĠ":681,"ise":682,"Ġhow":683,"ie":684,"ys":685,"ĠS":686,"sequently":687,"Ġmy":688,"Ġph":689,"ording":690,"Ġunity":691,"Ġnecessary":692,"Ġeven":693,"ated":694,"Ġwho":695,"sol":696,"led":697,"ays":698,"Ġhis":699,"ress":700,"cause":701,"Ġcase":702,"ppos":703,"int":704,"Ġsub":705,"fin":706,"ness":707,"ced":708,"ens":709,"ĠN":710,"Ġse":711,"that":712,"pre":713,"Ġthan":714,"ag":715,"udgement":716,"though":717,"op":718,"Ġlaws":719,"Ġgener":720,"ĠO":721,"Ġmore":722,"mat":723,"Ġser":724,"sis":725,"oy":726,"possib":727,"Ġidea":728,"Ġrelation":729,"imit":730,"Ġfre":731,"Ġne":732,"Ġbecause":733,"Ġcontain":734,"solute":735,"Ġfar":736,"nect":737,"com":738,"Ġaction":739,"ecul":740,"Ġdif":741,"Ġalso":742,"Ġdoes":743,"condition":744,"ĠIn":745,"ledge":746,"ways":747,"ilos":748,"Ġupon":749,"Ġcertain":750,"Ġnothing":751,"iz":752,"Ġpresent":753,"Ġcomple":754,"Ġpl":755,"Ġtranscendental":756,"Ġcaus":757,"Ġconditions":758,"Ġbel":759,"be":760,"Ġpossibility":761,"Ġnever":762,"ĠIt":763,"ber":764,"Ġuse":765,"ond":766,"du":767,"ĠW":768,"Ġinto":769,"Ġcont":770,"ort":771,"Ġsense":772,"hether":773,"Ġaccording":774,"ogical":775,"Ġthen":776,"oll":777,"Ġend":778,"Ġwhen":779,"ulty":780,"Ġproposition":781,"reat":782,"cious":783,"ollow":784,"Ġcause":785,"ational":786,"ue":787,"Ġjudgement":788,"ffect":789,"ost":790,"Ġgr":791,"thing":792,"ĠG":793,"irst":794,"Ġgeneral":795,"rit":796,"Ġcontr":797,"ĠC":798,"Ġspace":799,"Ġgo":800,"gor":801,"Ġconsequently":802,"ast":803,"ategor":804,"uch":805,"Ġalone":806,"The":807,"ivers":808,"stem":809,"Ġthought":810,"Ġproper":811,"Ġhim":812,"ploy":813,"Ġabsolute":814,"Ġconnect":815,"Ġalways":816,"ign":817,"Ġthemselves":818,"Ġass":819,"ial":820,"Ġrequ":821,"ither":822,"Ġlimit":823,"ism":824,"Ġow":825,"Ġfound":826,"Ġob":827,"Ġcomm":828,"ates":829,"Ġcould":830,"Ġdist":831,"are":832,"Ġknowledge":833,"form":834,"Ġpos":835,"conception":836,"Ġshould":837,"old":838,"Ġown":839,"me":840,"Ġphilos":841,"Ġfac":842,"ari":843,"possible":844,"Ġfollow":845,"Ġsay":846,"Ġwas":847,"Ġobjective":848,"fect":849,"Ġfirst":850,"ething":851,"Ġalthough":852,"Ġseries":853,"Ġquest":854,"Ġcall":855,"aph":856,"Ġbeen":857,"spect":858,"Ġrem":859,"Ġdifferen":860,"Ġrational":861,"edom":862,"pro":863,"Ġrespect":864,"ish":865,"ĠH":866,"ach":867,"ici":868,"Ġemploy":869,"Ġconsid":870,"Ġpur":871,"other":872,"Ġdisc":873,"Ġcomplete":874,"ink":875,"oph":876,"with":877,"ro":878,"Ġsystem":879,"ered":880,"ine":881,"ĠNow":882,"Ġexam":883,"ied":884,"Ġact":885,"Ġinde":886,"Ġdes":887,"ĠThis":888,"Ġord":889,"Ġwhether":890,"Ġthus":891,"Ġbelong":892,"Ġext":893,"Ġmod":894,"Ġhapp":895,"Ġfe":896,"uth":897,"we":898,"âĢľ":899,"âĢĿ":900,"Ġformer":901,"Ġfaculty":902,"ax":903,"ination":904,"Ġval":905,"Ġcategor":906,"Ġvery":907,"Ġreality":908,"Ġsci":909,"Ġorder":910,"ics":911,"ree":912,"Ġsomething":913,"eculative":914,"iness":915,"sess":916,"Ġlatter":917,"Ġsynthesis":918,"Ġunivers":919,"Ġwere":920,"Ġmake":921,"Ġag":922,"Ġhowever":923,"Ġground":924,"suous":925,"uman":926,"over":927,"ciousness":928,"Ġmet":929,"Ġplace":930,"Ġnecessity":931,"stit":932,"Ġfind":933,"under":934,"less":935,"Ġgood":936,"par":937,"Ġen":938,"Ġthose":939,"pose":940,"by":941,"Ġfreedom":942,"axim":943,"Ġcausality":944,"ĠâĢľ":945,"Ġwhole":946,"Ġeffect":947,"ĠR":948,"ternal":949,"adict":950,"ear":951,"Ġthink":952,"ual":953,"Ġyou":954,"ell":955,"Ġpres":956,"Ġsensib":957,"Ġout":958,"Ġquestion":959,"Ġinter":960,"ha":961,"Ġexp":962,"preme":963,"ĠE":964,"Ġsome":965,"wo":966,"object":967,"Ġhuman":968,"ile":969,"ke":970,"ang":971,"ophy":972,"Ġdut":973,"Ġpossess":974,"ty":975,"Ġmaxim":976,"Ġjust":977,"igin":978,"ove":979,"rough":980,"Ġreal":981,"Ġappl":982,"reason":983,"Ġprodu":984,"mit":985,"Ġyet":986,"Ġam":987,"exist":988,"sy":989,"Ġpow":990,"Ġmind":991,"arily":992,"elf":993,"Ġmat":994,"ser":995,"Ġcrit":996,"Ġperfect":997,"oint":998,"av":999,"ĠIf":1000,"Ġanal":1001,"Ġsynthetical":1002,"Ġatt":1003,"ication":1004,"Ġdetermined":1005,"Ġsim":1006,"Ġname":1007,"Ġsubst":1008,"Ġterm":1009,"Ġspeculative":1010,"ural":1011,"this":1012,"Ġdifferent":1013,"Ġrepresentation":1014,"ince":1015,"oun":1016,"Ġvalid":1017,"edu":1018,"sen":1019,"ble":1020,"hemat":1021,"ceed":1022,"Ġgreat":1023,"Ġscience":1024,"iew":1025,"ological":1026,"Ġsphere":1027,"Ġtwo":1028,"Ġbas":1029,").":1030,"ogit":1031,"ived":1032,"erest":1033,"ike":1034,"ishe":1035,"ible":1036,"ĠD":1037,"Ġfact":1038,"Ġideas":1039,"Ġsensuous":1040,"Ġsec":1041,"lect":1042,"uten":1043,"Ġperception":1044,"ory":1045,"ok":1046,"ffici":1047,"Ġmanif":1048,"ident":1049,"Ġduty":1050,"berg":1051,"ule":1052,"Ġimp":1053,"Ġinternal":1054,"utenberg":1055,"edi":1056,"Ġthrough":1057,"Ġshall":1058,"Ġcalled":1059,"Ġdetermination":1060,"ass":1061,"Ġincl":1062,"Ġorigin":1063,"Ġword":1064,"Ġent":1065,"Ġself":1066,"aphys":1067,"Ġconstit":1068,"yond":1069,"ution":1070,"cons":1071,"determin":1072,"Ġsubjective":1073,"cogn":1074,"Ġwork":1075,"ook":1076,"ular":1077,"Ġview":1078,"aract":1079,"princi":1080,"conditioned":1081,"ĠWe":1082,"Ġphilosophy":1083,"ĠPro":1084,"finite":1085,"Ġinv":1086,"Ġfeel":1087,"understanding":1088,"Ġpoint":1089,"ade":1090,"Ġcor":1091,"ful":1092,"aracter":1093,"Ġhere":1094,"usion":1095,"Th":1096,"yp":1097,"ved":1098,"ice":1099,"Ġhig":1100,"Ġnatural":1101,"Ġpurpose":1102,"rib":1103,"Ġrule":1104,"Ġexample":1105,"Ġuniversal":1106,"ogy":1107,"there":1108,"Ġshow":1109,"Ġabsolutely":1110,"Ġconsciousness":1111,"oth":1112,"ark":1113,"eci":1114,"Ġbet":1115,"ern":1116,"ents":1117,"Ġwhile":1118,"Ġnecessarily":1119,"Ġstill":1120,"Ġhimself":1121,"Ġconnection":1122,"Ġimpossible":1123,"necess":1124,"Ġconcept":1125,"Ġinf":1126,"Ġanother":1127,"Ġdetermine":1128,"ange":1129,"Ġappear":1130,"Ġeach":1131,"Ġsens":1132,"Ġquite":1133,"Ġexternal":1134,"ep":1135,"Ġexpl":1136,"ted":1137,"ances":1138,"Ġbeyond":1139,"Ġ_":1140,"Ġphenomenon":1141,"Ġway":1142,"wise":1143,"Ġleast":1144,"Ġadmit":1145,"Ġcogit":1146,"irect":1147,"ires":1148,"dic":1149,"Ġpower":1150,"action":1151,"Ġwell":1152,"Ġgive":1153,"ner":1154,".,":1155,"can":1156,"Ġinterest":1157,"Ġrequire":1158,"Ġmode":1159,"ĠM":1160,"Ġlike":1161,"ĠRe":1162,"Ġest":1163,"atis":1164,"Ġintell":1165,"Ġquant":1166,"Ġintellig":1167,"Ġeither":1168,"Ġactions":1169,"Ġkind":1170,"ating":1171,"sion":1172,"Ġconc":1173,"Ġnor":1174,"Ġcontains":1175,"Ġindeed":1176,"Ġdetermining":1177,"experience":1178,"Ġnamely":1179,"Ġourselves":1180,"Ġhappiness":1181,"Ġhand":1182,"Ġimm":1183,"Ġcategories":1184,"Ġconsider":1185,"Ġwhere":1186,"Ġmanifold":1187,"Ġap":1188,"age":1189,"Ġref":1190,"ediate":1191,"ught":1192,"its":1193,"Ġlimits":1194,"ĠProject":1195,"abl":1196,"Ġstr":1197,"atisf":1198,"Ġcommon":1199,"Ġrest":1200,"Ġproceed":1201,"Ġdem":1202,"irm":1203,"Ġcharacter":1204,"Ġstate":1205,"ccess":1206,"ingu":1207,"gin":1208,"phenomen":1209,"ĠGutenberg":1210,"empt":1211,"Ġdiv":1212,"Ġproof":1213,"Ġcontradict":1214,"othe":1215,"Ġmorality":1216,"Ġnotion":1217,"Ġsee":1218,"tic":1219,"fficient":1220,"Ġmatter":1221,"ished":1222,"Ġadv":1223,"Ġdedu":1224,"Ġassum":1225,"Ġrepresentations":1226,"ference":1227,"Ġcontrary":1228,"Ġsum":1229,"akes":1230,"pposition":1231,"ev":1232,"gum":1233,"ology":1234,"Ġcomp":1235,"ĠThus":1236,"But":1237,"ize":1238,"Ġfollows":1239,"ypothe":1240,"Ġremain":1241,"Ġboth":1242,"Ġtruth":1243,"ring":1244,"Ġhad":1245,"much":1246,"ences":1247,"Ġfree":1248,"Ġfeeling":1249,"Ġconcl":1250,"Ġsecond":1251,"Ġsupreme":1252,"Ġsensibility":1253,"app":1254,"ably":1255,"Ġmost":1256,"ĠReason":1257,"existence":1258,"Ġdec":1259,"Ġtrue":1260,"conceptions":1261,"Ġsince":1262,"Ġdistin":1263,"fter":1264,"reg":1265,"Ġconce":1266,"sible":1267,"Ġought":1268,"ten":1269,"ĠL":1270,"Ġtake":1271,"Ġsubstance":1272,"Ġperm":1273,"Ġpresu":1274,"ert":1275,"icism":1276,"Ġpredic":1277,"Ġparts":1278,"from":1279,"Ġ1":1280,"contr":1281,"Ġregards":1282,"icular":1283,"stru":1284,"ween":1285,"lu":1286,"Ġres":1287,"Ġmight":1288,"fic":1289,"Ġmuch":1290,"Ġmanner":1291,"Ġmathemat":1292,"ER":1293,"ious":1294,"Ġnow":1295,"Ġbeings":1296,"Ġbegin":1297,"Ġconsist":1298,"Ġexpress":1299,"Ġill":1300,"Ġconf":1301,"Ġmade":1302,"Ġlogical":1303,"lear":1304,"Ġbefore":1305,"Ġattain":1306,"Ġsupp":1307,"Ġphys":1308,"de":1309,"ives":1310,"und":1311,"Ġtot":1312,"aid":1313,"Ġbecom":1314,"asmuch":1315,"Ġcontent":1316,"Ġfoundation":1317,"Ġ[":1318,"Ġdirect":1319,"Ġregarded":1320,"ĠU":1321,"intuition":1322,"hest":1323,"ited":1324,"Ġthough":1325,"Ġmetaphys":1326,"Ġdiscover":1327,"ving":1328,"pposed":1329,"Ġaim":1330,"but":1331,"Ġconsidered":1332,"pond":1333,"Ġaff":1334,"Ġproble":1335,"estig":1336,"oid":1337,"onstr":1338,"Ġmot":1339,"osm":1340,"ision":1341,"ĠAnd":1342,"ments":1343,"Ġbetween":1344,"represent":1345,"Ġcl":1346,"Ġargum":1347,"Ġpropositions":1348,"Ġunconditioned":1349,"In":1350,"Ġhypothe":1351,"Ġexists":1352,"oub":1353,"Ġquantity":1354,"Ġsatisf":1355,"Ġothers":1356,"Ġabove":1357,"iqu":1358,"Ġable":1359,"atic":1360,"Ġconditioned":1361,"Ġele":1362,"Ġdep":1363,"ĠCon":1364,"respond":1365,"ĠOn":1366,"Ġjudgements":1367,"know":1368,"Ġdeg":1369,"acc":1370,"ĠOf":1371,"Ġconform":1372,"ogic":1373,"empirical":1374,"son":1375,"ward":1376,"asure":1377,"cise":1378,"ath":1379,"ules":1380,"Ġsour":1381,"pable":1382,"Ġocc":1383,"principle":1384,"Ġsuccess":1385,"Ġclear":1386,"Ġstand":1387,"rel":1388,"Ġdefin":1389,"Ġset":1390,"ĠPure":1391,"ialect":1392,"Ġsimple":1393,"Ġworth":1394,"ique":1395,"OO":1396,"Ġagain":1397,"utes":1398,"nat":1399,"only":1400,"Ġdesire":1401,"Ġconcern":1402,"aken":1403,"Ġbased":1404,"Ġup":1405,"unction":1406,"Ġright":1407,"wor":1408,"ized":1409,"hod":1410,"tm":1411,"Ġhighest":1412,"omy":1413,"oretical":1414,"Ġcognitions":1415,"Ġple":1416,"Ġder":1417,"read":1418,"Ġestabl":1419,"red":1420,"practical":1421,"Ġarr":1422,"Ġmany":1423,"raph":1424,"ife":1425,"being":1426,"Ġextend":1427,"ning":1428,"Ġel":1429,"Ġemployed":1430,"sw":1431,"agraph":1432,"matical":1433,"Ġansw":1434,"Ġimper":1435,"Ġregress":1436,"Ġanything":1437,"Ġobser":1438,"tle":1439,"Ġcauses":1440,"crib":1441,"Ġdistingu":1442,"dis":1443,"them":1444,"Ġafter":1445,"Ġimag":1446,"Ġrules":1447,"perception":1448,"Ġcompletely":1449,"ĠGod":1450,"opher":1451,"che":1452,"Ġconsequ":1453,"Ġseem":1454,"Ġbelongs":1455,",âĢĿ":1456,"law":1457,"ignif":1458,"ental":1459,"theless":1460,"Ġparticular":1461,"Ġleg":1462,"ather":1463,"sub":1464,"Ġneed":1465,"Ġrequires":1466,"ount":1467,"cognition":1468,"EN":1469,"Ġinasmuch":1470,"Ġinfinite":1471,"trib":1472,"Ġchange":1473,"Ġmyself":1474,"Ġpresented":1475,"ude":1476,"Ġac":1477,"Ġfur":1478,"certain":1479,"Ġsole":1480,"odu":1481,"Ġgrounds":1482,"Ġmaxims":1483,"Ġimmediate":1484,"It":1485,"Ġ\"":1486,"Ġentire":1487,"hence":1488,"Ġperson":1489,"Ġeverything":1490,"avour":1491,"Ġnum":1492,"Ġwant":1493,"Ġlife":1494,"Ġvalidity":1495,"Ġconnected":1496,"Ġresult":1497,"ention":1498,"phenomena":1499,"mum":1500,"must":1501,"Ġindep":1502,"Ġapplication":1503,"mon":1504,"Ġemployment":1505,"necessary":1506,"Ġgu":1507,"therefore":1508,"Ġanaly":1509,"err":1510,"Ġconting":1511,"TI":1512,"ection":1513,"irt":1514,"onum":1515,"Ġaccord":1516,"luence":1517,"Ġintuitions":1518,"ON":1519,"Ġattempt":1520,"ĠĠĠĠĠĠĠĠĠĠĠĠĠĠĠĠĠĠĠĠĠĠĠĠ":1521,"Ġends":1522,"Ġsystematic":1523,"OOK":1524,"Ġreally":1525,"Ġinvestig":1526,"ase":1527,"oul":1528,"Ġfin":1529,"Ġneg":1530,"cy":1531,"ourse":1532,"Ġnew":1533,"'s":1534,"Ġpreced":1535,"ually":1536,"This":1537,"oubt":1538,"ides":1539,"Ġbod":1540,"Ġassert":1541,"mere":1542,"Ġthereby":1543,"Ġsenses":1544,"Ġtotality":1545,"BOOK":1546,"Ġread":1547,"possibility":1548,"Ġmain":1549,"Ġmean":1550,"Ġeas":1551,"Ġrather":1552,"Ġremark":1553,"Ġmethod":1554,"Ġintelligible":1555,"Ġdegree":1556,"Ġcontained":1557,"cont":1558,"Ġcorrespond":1559,"subject":1560,"HA":1561,"how":1562,"aim":1563,"pect":1564,"Ġlogic":1565,"Ġside":1566,"Ġexer":1567,"contradict":1568,"eous":1569,"raw":1570,"Ġcommand":1571,"Ġimport":1572,"Ġphysical":1573,"lig":1574,"itself":1575,"Ġdog":1576,"Ġlong":1577,"Ġbonum":1578,"Ġotherwise":1579,"conditions":1580,"duct":1581,"Ġhence":1582,"Ġsol":1583,"Ġmen":1584,"Ġindic":1585,");":1586,"aking":1587,"Ġphilosopher":1588,"man":1589,"Ġcop":1590,"Ġproblem":1591,"Ġvirt":1592,"ready":1593,"If":1594,"isl":1595,"erial":1596,"Ġbelie":1597,"ov":1598,"Ġbound":1599,"ctr":1600,"ension":1601,"without":1602,"ps":1603,"Ġwords":1604,"Ġant":1605,"Ġideal":1606,"Ġhold":1607,"We":1608,"ily":1609,"Ġspeci":1610,"Ġremains":1611,"unity":1612,"Ġperman":1613,"Ġanswer":1614,"do":1615,"Ġequ":1616,"Ġsoul":1617,"ogress":1618,"Ġattrib":1619,"Ġbasis":1620,"Ġindependent":1621,"Ġover":1622,"ises":1623,"go":1624,"Ġdemonstr":1625,"Ġerr":1626,"transcendental":1627,"ĠSu":1628,"arr":1629,"atever":1630,"Ġsignif":1631,"ĠTH":1632,"Ġabstr":1633,"TER":1634,"bec":1635,"Ġnon":1636,"ends":1637,"ĠBe":1638,"ma":1639,"ĠThere":1640,"paragraph":1641,"Ġrelations":1642,"Ġentirely":1643,"Ġneither":1644,"ĠHence":1645,"anation":1646,"Ġformal":1647,"synthe":1648,"ided":1649,"Ġexcept":1650,"Ġless":1651,"Ġthinking":1652,"ĠThat":1653,"ities":1654,"Ġco":1655,"Ġsensible":1656,"Ġaffirm":1657,"Ġpost":1658,"Ġperfectly":1659,"nature":1660,"etr":1661,"Ġ^":1662,"Ġ{":1663,"Ġsummum":1664,"bit":1665,"Ġinqu":1666,"ĠPr":1667,"Ġbecome":1668,"Ġtheoretical":1669,"Ġever":1670,"AL":1671,"Ġexplain":1672,"Ġaccordance":1673,"iar":1674,"Ġcontin":1675,"Ġnumber":1676,"Ġprev":1677,"ause":1678,"Ġmem":1679,"Ġdiffic":1680,"Ġproperly":1681,"PTER":1682,"dom":1683,"mor":1684,"Ġalready":1685,"uthor":1686,"Ġinfluence":1687,"HAPTER":1688,"ency":1689,"ases":1690,"although":1691,"ellect":1692,"Ġgives":1693,"Ġsaid":1694,"ceive":1695,"Ġconduct":1696,"Ġcosm":1697,"Ġdoubt":1698,"Ġinst":1699,"ck":1700,"ranscendental":1701,"Ġsufficient":1702,"rect":1703,"Ġdistinction":1704,"ail":1705,"Ġaccount":1706,"any":1707,"priori":1708,"CHAPTER":1709,"Ġelse":1710,"men":1711,"comple":1712,"Ġexpect":1713,"Ġhop":1714,"Ġdetermines":1715,"ceived":1716,"Ġforms":1717,"Ġdialect":1718,"Ġexercise":1719,"mall":1720,"eculiar":1721,"Ġvirtue":1722,"Ġtaken":1723,"inations":1724,"Ġdeduction":1725,"Ġher":1726,"imate":1727,"ĠII":1728,"ĠOF":1729,"Ġprove":1730,"Ġess":1731,"Ġmis":1732,"Ġpleasure":1733,"will":1734,"Â§":1735,"Ġ2":1736,"Ġpass":1737,"cedure":1738,"Ġconstru":1739,"Ġproduce":1740,"ĠAs":1741,"Ġmaterial":1742,"Ġident":1743,"Ġhar":1744,"hension":1745,"Ġtoo":1746,"Ġlies":1747,"ob":1748,"pure":1749,"Ġcogitated":1750,"Ġden":1751,"Ġmakes":1752,"ĠBeing":1753,"gr":1754,"ellectual":1755,"Ġabout":1756,"Ġaffect":1757,"Ġargument":1758,"Ġrender":1759,"Ġprov":1760,"Ġpredicate":1761,"itive":1762,"eneral":1763,"irc":1764,"Ġvari":1765,"Ġbeginning":1766,"Ġerror":1767,"Ġapply":1768,"Ġcourse":1769,"Ġprogress":1770,"Ġappre":1771,"Ġlook":1772,"up":1773,"Ġoblig":1774,"sensible":1775,"Now":1776,"part":1777,"ulties":1778,"Ġassume":1779,"mis":1780,"ties":1781,"Book":1782,"Ġprom":1783,"Ġconsists":1784,"time":1785,"Ġop":1786,"Ġfall":1787,"uted":1788,"Ġsuper":1789,"antage":1790,"ĠĠĠĠĠĠĠĠĠĠĠĠĠĠĠĠĠĠĠĠĠĠĠĠĠĠĠĠĠĠĠĠĠĠĠĠĠĠĠĠ":1791,"Ġlimited":1792,"Ġallow":1793,"ield":1794,"Ġi":1795,"Ġfal":1796,"consciousness":1797,"ode":1798,"objects":1799,"Ġapplied":1800,"Ġshown":1801,"because":1802,"Ġpeculiar":1803,"ĠĠĠ":1804,"Ġconscious":1805,"Ġreference":1806,"ability":1807,"Ġquestions":1808,"ppose":1809,"Ġwhose":1810,"consequently":1811,"sych":1812,"cannot":1813,"Ġexisting":1814,"Ġchang":1815,"pposite":1816,"regard":1817,"Ġimperative":1818,"Ġcontradiction":1819,"Ġdraw":1820,"Ġnevertheless":1821,"Ġdivision":1822,"Ġexplanation":1823,"these":1824,"oundation":1825,"Ġcognize":1826,"ext":1827,"Ġcapable":1828,"have":1829,"Ġmaintain":1830,"ĠSupreme":1831,"Ġaid":1832,"Ġwhatever":1833,"Ġlegisl":1834,"Ġanalytical":1835,"dist":1836,"they":1837,"Ġillusion":1838,"ĠTHE":1839,"nt":1840,"Ġhigher":1841,"Ġimagination":1842,"ctrine":1843,"Ġpath":1844,"Ġdifference":1845,"ined":1846,"Ġaw":1847,"Ġut":1848,"Ġpurely":1849,"Ġsolely":1850,"Ġunderstand":1851,"Ġinclinations":1852,".âĢĿ":1853,"Ġfollowing":1854,"principles":1855,"merely":1856,"overed":1857,"For":1858,"Ġaddition":1859,"Ġadd":1860,"teness":1861,"Ġcopy":1862,"ave":1863,"Ġdest":1864,"Ġprocedure":1865,"Ġmetaphysics":1866,"chema":1867,"Ġfalse":1868,"Ġcirc":1869,"Ġund":1870,"Ġspe":1871,"Ġwithin":1872,"ritique":1873,"dif":1874,"les":1875,"would":1876,"Ġdone":1877,"connect":1878,"absolute":1879,"poses":1880,"wards":1881,"Ġtermed":1882,"Ġes":1883,"ulative":1884,"Ġharmon":1885,"sim":1886,"Ġsource":1887,"som":1888,"Ġbr":1889,"objective":1890,"io":1891,"their":1892,"ont":1893,"oumen":1894,"Ġende":1895,"Ġhappens":1896,"Ġmathematics":1897,"hib":1898,"orough":1899,"ogism":1900,"Ġeffects":1901,"Ġconcepts":1902,"**":1903,"Ġhypothesis":1904,"Ġhope":1905,"Ġevident":1906,"Ġcertainly":1907,"Ġagainst":1908,"_,":1909,"ack":1910,"Ġwish":1911,"ne":1912,"Ġdid":1913,"quate":1914,"onic":1915,"etaphys":1916,"Ġdefinition":1917,"Ġfurther":1918,"Ġcontingent":1919,"Ġrepresented":1920,"Ġagre":1921,"Ġyour":1922,"Ġinclination":1923,"strict":1924,"ull":1925,"Ġcertainty":1926,"haps":1927,"giv":1928,"onomy":1929,"ential":1930,"every":1931,"ia":1932,"whether":1933,"Ġsmall":1934,"posed":1935,"Ġconj":1936,"what":1937,"Ġcogitate":1938,"Ġseek":1939,"Ġimmediately":1940,"ĠY":1941,"Ġav":1942,"Ġsing":1943,"according":1944,"Ġpermanent":1945,"Ġcategory":1946,"undam":1947,"ting":1948,"ĠeBook":1949,"Ġextension":1950,"Ġdemand":1951,"undamental":1952,"cing":1953,"Ġrelate":1954,"Ġnegative":1955,"Ġperceptions":1956,"ĠTo":1957,"ĠThey":1958,"Ġsensation":1959,"ni":1960,"Ġjustif":1961,"Ġsubstances":1962,"Ġinquir":1963,"Ġempirically":1964,"Ġopposite":1965,"Ġschema":1966,"happ":1967,"determination":1968,"Ġworks":1969,"Ġfut":1970,"ĠTranscendental":1971,"Ġproperties":1972,"Ġdistinct":1973,"usions":1974,"ru":1975,"imes":1976,"Ġintellectual":1977,"Ġserve":1978,"relation":1979,"Ġbring":1980,"proposition":1981,"Ġconformity":1982,"Ġconsequence":1983,"Ġseems":1984,"moral":1985,"RE":1986,"sist":1987,"ply":1988,"own":1989,"Ġperfection":1990,"Ġanalys":1991,"Ġadvantage":1992,"Ġconclusion":1993,"Ġte":1994,"Ġtreat":1995,"ittle":1996,"Ġthorough":1997,"ix":1998,"right":1999,"Ġjudg":2000,"pposes":2001,"Ġclaim":2002,"urn":2003,"Ġvol":2004,"cor":2005,"categor":2006,"lar":2007,"Ġintr":2008,"philos":2009,"ĠAll":2010,"Ġknown":2011,"Ġeasily":2012,"Ġspring":2013,"ignor":2014,"Ġamong":2015,"Ġrests":2016,"knowledge":2017,"Ġfunction":2018,"idence":2019,"Ġbelonging":2020,"Ġoper":2021,"ache":2022,"Ġpret":2023,"Ġcorrect":2024,"Ġconv":2025,"oment":2026,"Ġaccordingly":2027,"lectr":2028,"disc":2029,"ised":2030,"erse":2031,"Ġthree":2032,"Ġlie":2033,"Ġmathematical":2034,"Ġendeavour":2035,"bl":2036,"yn":2037,"complete":2038,"Ġdeterminations":2039,"Ġactual":2040,"ether":2041,"tog":2042,"ogen":2043,"Ġabs":2044,"Ġvalue":2045,"together":2046,"such":2047,"ared":2048,"ead":2049,"Ġproperty":2050,"even":2051,"judgement":2052,"ird":2053,"consid":2054,"representations":2055,"tell":2056,"Ġcriter":2057,"ishes":2058,"call":2059,"hat":2060,"Ġcho":2061,"Ġconceive":2062,"ivid":2063,"Ġrelates":2064,"Ġpossesses":2065,"Ġcritical":2066,"Ġbody":2067,"Ġcases":2068,"ption":2069,"Ġdisposition":2070,"ses":2071,"asion":2072,"imal":2073,"ĠHe":2074,"Ġevent":2075,"Ġdiscovered":2076,"themselves":2077,"things":2078,"Ġobtain":2079,"fer":2080,"ood":2081,"Ġfuture":2082,"no":2083,"Ġproved":2084,"00":2085,"eity":2086,"limit":2087,"lection":2088,"Ġextent":2089,"sensuous":2090,"ĠConsequently":2091,"All":2092,"br":2093,"Ġask":2094,"Ġinfer":2095,"Ġauthor":2096,"Ġcriticism":2097,"Ġinvol":2098,"Ġapprehension":2099,"ĠĠĠĠĠĠĠĠĠĠĠĠĠĠĠĠĠĠĠĠĠĠĠĠĠĠĠĠĠĠĠĠĠĠĠĠĠĠĠĠĠ":2100,"Ġintu":2101,"ĠCritique":2102,"ior":2103,"Ġce":2104,"uded":2105,"Ġpowers":2106,"tellig":2107,"Ġlittle":2108,"Ġchanges":2109,"Ġapperception":2110,"ilar":2111,"Ġinvestigation":2112,"gan":2113,"always":2114,"Ġthereof":2115,"Ġderived":2116,"Ġignor":2117,"Ġfield":2118,"Ġdeterminate":2119,"Ġsolution":2120,"Ġlead":2121,"Ġconstitutes":2122,"peci":2123,"where":2124,"Ġpar":2125,"Ġhaving":2126,"Ġstrict":2127,"Ġagreement":2128,"ĠÂ§":2129,"Ġnoumen":2130,"Ġdoctrine":2131,"Ġdistrib":2132,"Ġcontinu":2133,"hend":2134,"Ġexpression":2135,"bitr":2136,"ynam":2137,"esides":2138,"ended":2139,"ically":2140,"Ġconceived":2141,"given":2142,"exam":2143,"world":2144,".[":2145,"pens":2146,"Ġmoment":2147,"Ġnay":2148,"Ġante":2149,"Ġsupposed":2150,"Ġelements":2151,"ap":2152,"Ġdynam":2153,"ech":2154,"Ġsources":2155,"Ġanteced":2156,"RA":2157,"Ġcompar":2158,"Ġtrans":2159,"EC":2160,"Ġexhib":2161,"Ġcompleteness":2162,"Ġestablished":2163,"Ġanalysis":2164,"lectronic":2165,"hil":2166,"Ġsch":2167,"ower":2168,"Ġcomb":2169,"ĠThese":2170,"Ġregulative":2171,"Ġdifficulty":2172,"Ġmember":2173,"may":2174,"iverse":2175,"ĠIde":2176,"aces":2177,"Ġdistinguish":2178,"does":2179,"atement":2180,"Ġterms":2181,"Ġsuccession":2182,"Ġsingle":2183,"reedom":2184,"ĠFoundation":2185,"Ġarises":2186,"subst":2187,"ividual":2188,"pres":2189,"Ġinfin":2190,"ferent":2191,"Ġrequired":2192,"rational":2193,"Ġins":2194,"sufficient":2195,"ĠEx":2196,"Ġdogmatical":2197,"Ġful":2198,"leg":2199,"Ġtranscendent":2200,"ĠUn":2201,"ontan":2202,"intellig":2203,"Ġonce":2204,"Ġcompre":2205,"Ġvain":2206,"ensive":2207,"Ġappearance":2208,"Ġsupport":2209,"Ġmotive":2210,"Ġarguments":2211,"Ġestablish":2212,"Ġprevious":2213,"sh":2214,"Ġrecogn":2215,"proc":2216,"Ġdiscus":2217,"Ġapart":2218,"Ġcorresponding":2219,"however":2220,"requ":2221,"Ġuniversality":2222,"Ġdirectly":2223,"Ġaims":2224,"Ġobserv":2225,"Ġ3":2226,"llogism":2227,"ety":2228,"Ġenough":2229,"Ġtoge":2230,"Ġexcl":2231,"Ġspontan":2232,"ordin":2233,"Ġrequis":2234,"Ġtogether":2235,"AR":2236,"Ġpain":2237,"Ġprof":2238,"nit":2239,"inomy":2240,"Ġrefer":2241,"just":2242,"Ġperhaps":2243,"Ġdesign":2244,"ĠSuch":2245,"Ġoccup":2246,"Ġgreatest":2247,"Ġlikewise":2248,"arn":2249,"Thus":2250,"Ġmeaning":2251,"inion":2252,"Ġet":2253,"Ġcome":2254,"Ġhel":2255,"Ġregarding":2256,"Ġsatisfaction":2257,"Ġcosmological":2258,"fe":2259,"ole":2260,"Ġtakes":2261,"ask":2262,"Ġsur":2263,"Ġsupposition":2264,"caus":2265,"ophical":2266,"Ġbetter":2267,"Ġabstract":2268,"bel":2269,"never":2270,"pur":2271,"Ġcognized":2272,"ĠĠĠĠĠĠĠĠĠĠĠĠĠĠĠĠĠĠĠĠ":2273,"Ġintelligence":2274,"rem":2275,"iving":2276,"eculation":2277,"Ġconstitution":2278,"Ġdialectical":2279,"Ġdynamical":2280,"IS":2281,"ising":2282,"Ġthird":2283,"endence":2284,"Ġaltogether":2285,"Ġpredicates":2286,"istic":2287,"Ġpresents":2288,"Ġcategorical":2289,"Ġsuccessive":2290,"synthetical":2291,"quest":2292,"atively":2293,"representation":2294,"row":2295,"ingdom":2296,"Ġevil":2297,"Ġfaculties":2298,"Ġsupersensible":2299,"ft":2300,"Ġoften":2301,"Ġke":2302,"Ġpursu":2303,"Ġcritique":2304,"Ġreader":2305,"Ġbounds":2306,"Ġpsych":2307,"Ġade":2308,"elled":2309,"Ġpreceding":2310,"Ġconstruct":2311,"igh":2312,"most":2313,"Ġsuppose":2314,"name":2315,"Ġbl":2316,"Ġactually":2317,"Ġproduced":2318,"general":2319,"Ġdel":2320,"nothing":2321,"Ġfore":2322,"phys":2323,"naly":2324,"Ġobjectively":2325,"ines":2326,"Ġey":2327,"ivity":2328,"Ġarise":2329,"Ġadvance":2330,"TION":2331,"called":2332,"ometr":2333,"ensions":2334,"Ġarrang":2335,"Ġharmony":2336,"Ġlast":2337,"Ġconstitute":2338,"Ġintrodu":2339,"Section":2340,"Ġexact":2341,"ĠAr":2342,"capable":2343,"proper":2344,"sense":2345,"appl":2346,"Ġelement":2347,"dem":2348,"follow":2349,"sum":2350,"incl":2351,"respect":2352,"abour":2353,"Ġhumanity":2354,"Ġapode":2355,"ogeneous":2356,"oc":2357,"Ġrestrict":2358,"Ġappro":2359,"known":2360,"Ġimportance":2361,"Ġessential":2362,"ific":2363,"appear":2364,"Ġattribute":2365,"Ġaffected":2366,"Ġrequisite":2367,"comm":2368,"Ġmanifest":2369,"pecially":2370,"II":2371,"Ġopposition":2372,"itum":2373,"ense":2374,"att":2375,"Ġsort":2376,"Ġunless":2377,"port":2378,"ĠSp":2379,"nihil":2380,"Ġvoid":2381,"Ġkingdom":2382,"Ġprecept":2383,"system":2384,"Ġdecl":2385,"icable":2386,"uting":2387,"Ġsoon":2388,"ictic":2389,"Ġcircum":2390,"Ġcriterion":2391,"Ġ5":2392,"ĠV":2393,"vel":2394,"Ġra":2395,"Ġstates":2396,"ending":2397,"Ġlet":2398,"ctive":2399,"separ":2400,"oriz":2401,"Ġsimply":2402,"Ġdon":2403,"uding":2404,"space":2405,"Ġappears":2406,"contradiction":2407,"Ġsignific":2408,"Ġhelp":2409,"des":2410,"has":2411,"Ġ*":2412,"Ġche":2413,"Ġfull":2414,"thought":2415,"ĠPrinci":2416,"something":2417,"ĠBy":2418,"Ġarbitr":2419,"Ġmoreover":2420,"ison":2421,"Ġline":2422,"Ġleave":2423,"Ġavoid":2424,"ccording":2425,"Ġgreater":2426,"Ġadmitted":2427,"Ġconcre":2428,"Ġadequate":2429,"ĠJ":2430,"idance":2431,"Ġorgan":2432,"Ġcare":2433,"Ġro":2434,"Ġpositive":2435,"Ġpostul":2436,"bers":2437,"Ġfundamental":2438,"anal":2439,"Ġagree":2440,"Ġoriginal":2441,"Ġbelief":2442,"Ġabstraction":2443,"Ġvarious":2444,"Ġaway":2445,"namely":2446,"alone":2447,"utonomy":2448,"Ġge":2449,"produ":2450,"udge":2451,"means":2452,"consist":2453,"determined":2454,"Ġpresuppose":2455,"laws":2456,"Ġtest":2457,"Ġear":2458,"iction":2459,"ures":2460,"Ġgen":2461,"cribe":2462,"Ġfurn":2463,"ĠK":2464,"Ġindividual":2465,"Ġimportant":2466,"latter":2467,"love":2468,"ubl":2469,"atum":2470,"Ġinev":2471,"Ġelectronic":2472,"Ġplaced":2473,"Ġfinite":2474,"Ġinevit":2475,"cre":2476,"then":2477,"Ġsepar":2478,"Ġconjunction":2479,"ying":2480,"reality":2481,"urd":2482,"cience":2483,"ceptions":2484,"Ġuniverse":2485,"univers":2486,"necessity":2487,"Ġdistinguished":2488,"Ġvolition":2489,"Ġetc":2490,"roy":2491,"pty":2492,"Ġfounded":2493,"formation":2494,"icip":2495,"Ġsciences":2496,"consider":2497,"place":2498,"ĠSection":2499,"Ġphilosophers":2500,"Ġbrought":2501,"IN":2502,"ote":2503,"sibility":2504,"olly":2505,"echan":2506,"There":2507,"Ġidentical":2508,"ool":2509,"pe":2510,"Ġtask":2511,"itle":2512,"Ġcreat":2513,"utive":2514,"ciproc":2515,"quant":2516,"ume":2517,"Ġuseful":2518,"inv":2519,"perfect":2520,"employ":2521,"contain":2522,"speculative":2523,"ages":2524,"phenomenon":2525,"distingu":2526,"Ġdeduced":2527,"Ġclearly":2528,"Ġevents":2529,"metaphys":2530,"Ġ4":2531,"Ġwit":2532,"Ġcarr":2533,"pter":2534,"ula":2535,"tern":2536,"Ġacqu":2537,"Ġspeak":2538,"Ġoff":2539,"terly":2540,"Ġdisp":2541,"Ġlearn":2542,"Ġleft":2543,"comp":2544,"Ġexamination":2545,"worth":2546,"ES":2547,"urs":2548,"constit":2549,"freedom":2550,"mathemat":2551,"Ġattention":2552,"Ġmotives":2553,"Ġhypothetical":2554,"Ġindicates":2555,"synthesis":2556,"happiness":2557,"categories":2558,"Ġspeculation":2559,"Ġperceive":2560,"Ġdefinite":2561,"Ġsimilar":2562,"Ġconsideration":2563,"Ġbecomes":2564,"ENT":2565,"ren":2566,"Ġwis":2567,"Ġput":2568,"ffort":2569,"Ġstatement":2570,"ĠAnaly":2571,"Ġconsequences":2572,"Ġbodies":2573,"Ġfa":2574,"Ġaccept":2575,"Ġresults":2576,"Ġclaims":2577,"RAN":2578,"RO":2579,"upon":2580,"hetic":2581,"Ġcre":2582,"Ġsuffici":2583,"phist":2584,"Ġado":2585,"Ġacting":2586,"Ġpresupposes":2587,"iter":2588,"iber":2589,"ĠRE":2590,"Ġstands":2591,"ground":2592,"Ġscept":2593,"Ġunable":2594,"ourselves":2595,"Ġpossession":2596,"Ġeyes":2597,"Ġadopt":2598,"Ġdirected":2599,"Ġdepends":2600,"Ġtheology":2601,"Ġmorals":2602,"Ġposition":2603,"Ġantinomy":2604,"ip":2605,"stood":2606,"Ġwholly":2607,"Ġinterests":2608,"Ġdrawn":2609,"ven":2610,"Ġwhom":2611,"Ġdeterminable":2612,"Ġinsight":2613,"Ġgeometr":2614,"Every":2615,"Ġopp":2616,"ishing":2617,"Ġfig":2618,"Ġdogmat":2619,"Ġespecially":2620,"cogit":2621,"div":2622,"fac":2623,"him":2624,"lict":2625,"Ġgain":2626,"possess":2627,"Ġjudge":2628,"Ġexamples":2629,"Ġoccasion":2630,"connection":2631,"Ġsignificance":2632,"Ġempty":2633,"Ġstep":2634,"Ġmental":2635,"Ġlight":2636,"Ġpurposes":2637,"avoid":2638,"Ġmotion":2639,"Ġcircumst":2640,"his":2641,"arch":2642,"Ġforce":2643,"nderstanding":2644,"Ġcopyright":2645,"TH":2646,"ata":2647,"Ġsure":2648,"Ġproblematical":2649,"osmological":2650,"Ġguidance":2651,"Ġattempts":2652,"Ġlegislation":2653,"Ġconcreto":2654,"gg":2655,"my":2656,"Ġsc":2657,"change":2658,"Ġdeser":2659,"Ġenable":2660,"Ġconcerns":2661,"Ġassertions":2662,"Ġschool":2663,"ublic":2664,"lt":2665,"Ġopposed":2666,"Ġfavour":2667,"conf":2668,"unconditioned":2669,"Ġlimitation":2670,"Ġdesires":2671,"Ġuniversally":2672,"Ġinstead":2673,"absolutely":2674,"Ġapodeictic":2675,"Ġaccom":2676,"Ġgenerally":2677,"Ġindicate":2678,"Ġjustified":2679,"Ġfr":2680,"ĠWhen":2681,"Ġobliged":2682,"arent":2683,"Ġarbitrary":2684,"atives":2685,"Ġwhy":2686,"think":2687,"posite":2688,"Ġindis":2689,"Ġphilosophical":2690,"cribed":2691,"question":2692,"?âĢĿ":2693,"When":2694,"more":2695,"pic":2696,"tot":2697,"val":2698,"ins":2699,"aint":2700,"speci":2701,"series":2702,"Ġcommands":2703,"philosophy":2704,"presu":2705,"CE":2706,"tun":2707,"Ġens":2708,"Ġreach":2709,"Ġsyllogism":2710,"Ġmodes":2711,"Ġhappen":2712,"xi":2713,"inction":2714,"Ġhigh":2715,"ĠSt":2716,"Ġsubjectively":2717,"Ġreflection":2718,"contradictory":2719,"Ġwisdom":2720,"ured":2721,"used":2722,"Ġbelieve":2723,"ached":2724,"satisf":2725,"Ġconver":2726,"Ġcommunity":2727,"Ġextended":2728,"Ġopinion":2729,"Ġchoice":2730,"iment":2731,"Ġfinds":2732,"Ġeasy":2733,"Ġconstruction":2734,"press":2735,"into":2736,"Ġsought":2737,"imm":2738,"emark":2739,"Ġphenomenal":2740,"interest":2741,"Ġderive":2742,"Ġkeep":2743,"ltimate":2744,"Ġed":2745,"Ġsubtle":2746,"Ġdestroy":2747,"Ġinquiry":2748,"Ġnotions":2749,"Ġold":2750,"Ġcol":2751,"Ġmaking":2752,"izing":2753,"ĠHow":2754,"ĠYou":2755,"kind":2756,"Ġtimes":2757,"Ġbesides":2758,"Ġprior":2759,"udes":2760,"pposing":2761,"Ġplan":2762,"Ġrespecting":2763,"Ġwhereby":2764,"Ġidentity":2765,"Ġfunctions":2766,"To":2767,"cipl":2768,"Ġpoints":2769,"Ġappearances":2770,"Ġassumed":2771,"END":2772,"cipline":2773,"either":2774,"oly":2775,"same":2776,"Ġtable":2777,"impossible":2778,"Ġforth":2779,"indep":2780,"Ġindependently":2781,"good":2782,"different":2783,"should":2784,"causality":2785,"belong":2786,"Ġinevitably":2787,"faculty":2788,"Ġeffort":2789,"asing":2790,"ately":2791,"Ġfinally":2792,"free":2793,"Ġcomparison":2794,"rop":2795,"sc":2796,"Ġwise":2797,"Ġmag":2798,"Ġmechan":2799,"Ġlay":2800,"Ġexisted":2801,"anted":2802,"Ġsubordin":2803,"itherto":2804,"Ġproduces":2805,"Ġcompelled":2806,"Ġconclusions":2807,"Ġfully":2808,"intelligible":2809,"Ġcomprehend":2810,"Ġredu":2811,"etermined":2812,"Ġcontradictory":2813,"Ġutterly":2814,"Ġincapable":2815,"Ġprimal":2816,"Ġannihil":2817,"those":2818,"Ġadm":2819,"Ġpractically":2820,"predic":2821,"fully":2822,"Ġmetaphysic":2823,"Ġcontingency":2824,"could":2825,"sens":2826,"ĠÃ":2827,"Ġautonomy":2828,"also":2829,"origin":2830,"Ġdet":2831,"than":2832,"conform":2833,"Ġregion":2834,"whole":2835,"case":2836,"Ġeveryone":2837,"eduction":2838,"Ġconflict":2839,"purpose":2840,"ĠAnalytic":2841,"iterary":2842,"ĠĠĠĠĠĠĠ":2843,"Ġimpl":2844,"Ġcoun":2845,"Ġdom":2846,"Ġdown":2847,"Ġexper":2848,"ively":2849,"Ġattained":2850,"Ġcheck":2851,"itable":2852,"hensible":2853,"Ġheter":2854,"success":2855,"Ġarrive":2856,"Ġsake":2857,"Ġhon":2858,"Ġtransc":2859,"stratum":2860,"ĠWhat":2861,"Ġwhereas":2862,"struction":2863,"substance":2864,"Ġsufficiently":2865,"like":2866,"Ġtheory":2867,"enetr":2868,"usory":2869,"Ġuncondition":2870,"Ġcosmical":2871,"Ġinfinity":2872,"dep":2873,"path":2874,"internal":2875,"real":2876,"eriori":2877,"Ġpe":2878,"Ġmark":2879,"Ġlabour":2880,"character":2881,"idea":2882,"anger":2883,"Ġduties":2884,"sensibility":2885,"contrary":2886,"content":2887,"Ġspecial":2888,"Ġmembers":2889,"demonstr":2890,"ENTAL":2891,"How":2892,"IC":2893,"Pro":2894,"imin":2895,"chive":2896,"Ġclass":2897,"aight":2898,"icense":2899,"Ġfill":2900,"lying":2901,"Ġdire":2902,"omogeneous":2903,"arge":2904,"ists":2905,"Ġdef":2906,"ferences":2907,"ĠWith":2908,"ounce":2909,"Ġdirection":2910,"ene":2911,"iding":2912,"ibility":2913,"Ġprob":2914,"Ġgiving":2915,"acy":2916,"Ġanalogy":2917,"Ġpermit":2918,"Gutenberg":2919,"iang":2920,"science":2921,"Ġtowards":2922,"ings":2923,"ars":2924,"Ġtherein":2925,"Ġmeet":2926,"Ġaccident":2927,"Ġkinds":2928,"ckon":2929,"ĠIII":2930,"cess":2931,"greg":2932,"matter":2933,"erit":2934,"ĠAN":2935,"Ġart":2936,"Ġtotal":2937,"Ġmetaphysical":2938,"Ġequal":2939,"Ġdialectic":2940,"Ġpretensions":2941,"Ġarrangement":2942,"far":2943,"gu":2944,"Ġbor":2945,"Ġma":2946,"Ġnone":2947,"Ġcanon":2948,"actions":2949,"piricism":2950,"Ġmorally":2951,"been":2952,"former":2953,"Ġsecure":2954,"necessarily":2955,"Ġpresupposed":2956,"Ġdependent":2957,"Ġoperations":2958,"pensable":2959,"IT":2960,"SC":2961,"Ġexposition":2962,"ification":2963,"Ġproduct":2964,"ĠPractical":2965,"Ġcarry":2966,"Ġperceived":2967,"ief":2968,"Ġplain":2969,"Ġstraight":2970,"ĠTherefore":2971,"Ġprevent":2972,"Ġignorance":2973,"Ġpsychology":2974,"ĠPrinciples":2975,"Ġtal":2976,"Ġfan":2977,"ash":2978,"Ġlos":2979,"usiness":2980,"Ġunknown":2981,"compre":2982,"larg":2983,"uous":2984,"Ġsever":2985,"Ġpriv":2986,"urally":2987,"Ġrise":2988,"Ġsequ":2989,"Ġfear":2990,"Project":2991,"first":2992,"great":2993,"hig":2994,"ww":2995,"ret":2996,"isible":2997,"Ġreciproc":2998,"Ġprud":2999,"conce":3000,"Ġcomposite":3001,"Ġevidence":3002,"Ġpurity":3003,"Ġdeny":3004,"Ġobligation":3005,"limited":3006,"avoidable":3007,"UT":3008,"crit":3009,"when":3010,"Ġultimate":3011,"oretic":3012,"abstr":3013,"expl":3014,"external":3015,"determining":3016,"correspond":3017,"discover":3018,"Ġspontaneity":3019,"Ġdonations":3020,"universal":3021,"immediate":3022,"Ġmaj":3023,"light":3024,"non":3025,"side":3026,"Ġfour":3027,"Ġfail":3028,"Ġcontaining":3029,"ian":3030,"xiom":3031,"Ġhitherto":3032,"Ġunited":3033,"prov":3034,"ĠUnderstanding":3035,"Ġassertion":3036,"ixed":3037,"Re":3038,"What":3039,"Ġ9":3040,"Ġlove":3041,"Ġsophist":3042,"adv":3043,"ĠAccording":3044,"Ġaccess":3045,"Ġsubstratum":3046,"ĠLiterary":3047,"Ġobserve":3048,"Ġopen":3049,"oin":3050,"point":3051,"vious":3052,"Ġtitle":3053,"itude":3054,"ifice":3055,"ortality":3056,"Ġanalog":3057,"That":3058,"subsist":3059,"Ġattributes":3060,"Ġsignification":3061,"Ġthoroughly":3062,"Ġseveral":3063,"cceed":3064,"eem":3065,"effect":3066,"since":3067,"Ġshe":3068,"Ġdivers":3069,"Ġreasoning":3070,"ante":3071,"sphere":3072,"existent":3073,"Ġfeelings":3074,"ĠConceptions":3075,"Ġstandard":3076,"Ġimperatives":3077,"Ġspecies":3078,"Ġabsurd":3079,"Ġnoumena":3080,"Ġnoumenon":3081,"investig":3082,"iangle":3083,"den":3084,"Ġsk":3085,"Ġused":3086,"soci":3087,"Ġcontem":3088,"Ġprovided":3089,"ĠeBooks":3090,"ĠSpace":3091,"Ġoppon":3092,"hand":3093,"ĠGeneral":3094,"Ġpreviously":3095,"Ġcircumstances":3096,"ites":3097,"Ġback":3098,"Ġreceived":3099,"Ġdefect":3100,"ization":3101,"withstanding":3102,"angu":3103,"Ġconcerned":3104,"Ġlonger":3105,"ater":3106,"amed":3107,"ounded":3108,"ĠFrom":3109,"Ġquality":3110,"Ġassign":3111,"Ġpresence":3112,"Ġdemonstrate":3113,"Ġundetermined":3114,"Ġobservation":3115,"OR":3116,"eib":3117,"ild":3118,"Ġir":3119,"ator":3120,"ĠIm":3121,"Ġvent":3122,"Ġrelatively":3123,"Ġpartly":3124,"opular":3125,"Ġinstance":3126,"Ġlegislative":3127,"reng":3128,"iberty":3129,"Ġschools":3130,"power":3131,"Ġrec":3132,"sthetic":3133,"asant":3134,"uty":3135,"ired":3136,"Ġafford":3137,"certainty":3138,"obser":3139,"propositions":3140,"Ġcease":3141,"nitz":3142,"ĠArchive":3143,"eibnitz":3144,"missible":3145,"aches":3146,"iting":3147,"Ġsight":3148,"Ġconfin":3149,"Ġasc":3150,"Ġassoci":3151,"Ġstud":3152,"ĠAt":3153,"Ġproceeds":3154,"Ġdemands":3155,"Ġdiscuss":3156,"velop":3157,"AS":3158,"apt":3159,"Ġturn":3160,"Ġpast":3161,"Ġpublic":3162,"olution":3163,"Ġformula":3164,"Ġindu":3165,"Ġchain":3166,"Ġobsc":3167,"Ġminds":3168,"Ġsa":3169,"Ġmention":3170,"Ġnaturally":3171,"Ġdecide":3172,"struct":3173,"Ġworthy":3174,"Ġproblems":3175,"Ġpermanence":3176,"Ġfurnish":3177,"Su":3178,"occ":3179,"Ġwrit":3180,"org":3181,"Ġmedi":3182,"Ġhum":3183,"ĠSy":3184,"uthoriz":3185,"Ġjustice":3186,")âĢĶ":3187,"ially":3188,"attain":3189,"aneous":3190,"Ġpract":3191,"Ġsucceed":3192,"Ġprocess":3193,"pri":3194,"Ġsubsum":3195,"ignity":3196,"hapter":3197,"Ġsatisfied":3198,"Ġdefined":3199,"Ġholds":3200,"Ġintuited":3201,"valid":3202,",\"":3203,"Ġinformation":3204,"through":3205,"Ġunderstood":3206,"particular":3207,"Ġantecedent":3208,"Ġborrow":3209,"eness":3210,"Ġbusiness":3211,"Ġmist":3212,"Ġrece":3213,"Ġweight":3214,"Ġviz":3215,"claim":3216,"ĠSo":3217,"ĠHume":3218,"cribes":3219,"Ġdenied":3220,"lat":3221,"Ġheld":3222,"Ġparagraph":3223,"Ġexactly":3224,"ND":3225,"Ġ=":3226,"Ġinsepar":3227,"Ġbene":3228,"Ġfirm":3229,"uring":3230,"seless":3231,"throp":3232,"Ġpossibly":3233,"Ġapparent":3234,"izes":3235,"Ġcontrib":3236,"Ġdepend":3237,"Ġwants":3238,"Ġvariety":3239,"Ġdiscussion":3240,"Ġforeign":3241,"mot":3242,"rees":3243,"Ġdata":3244,"theoretical":3245,"ĠOur":3246,"Ġobst":3247,"Ġdiscern":3248,"adequate":3249,"Ġadmitting":3250,"Ġdemonstration":3251,"Ġauthority":3252,"Ġignorant":3253,"quantity":3254,".\"":3255,"Wh":3256,"air":3257,"tion":3258,"issim":3259,"Ġdanger":3260,"ustr":3261,"Ġcomposition":3262,"truth":3263,"ĠOR":3264,"proceed":3265,"well":3266,"âĢĿ;":3267,"Ġquantities":3268,"Ġelev":3269,"relate":3270,"natural":3271,"manif":3272,"everything":3273,"Ġsprings":3274,"example":3275,"Ġscepticism":3276,"Ġmajor":3277,"OU":3278,"Ġsent":3279,"ĠPh":3280,"Ġequally":3281,"Ġexpected":3282,"Ġprovide":3283,"Ġadmits":3284,"Ġexhibit":3285,"As":3286,"turn":3287,"Ġaxiom":3288,"Ġlost":3289,"Ġgl":3290,"ified":3291,"Ġindif":3292,"Ġproduction":3293,"Ġafterwards":3294,"Ġantit":3295,"Ġabsence":3296,"Ġdomain":3297,"look":3298,"atio":3299,"als":3300,"stant":3301,"entific":3302,"ademark":3303,"Ġqual":3304,"Ġseen":3305,"Ġscientific":3306,"Ġconstitutive":3307,"Ġpresupposition":3308,"Ġadded":3309,"Ġspeaking":3310,"Ġinquiries":3311,"ĠUnited":3312,"ks":3313,"ople":3314,"say":3315,"itled":3316,"ome":3317,"inde":3318,"ĠHere":3319,"Ġpreser":3320,"Ġapplies":3321,"Ġimmortality":3322,"Ġillusory":3323,"oubted":3324,"ialectic":3325,"Ġlearned":3326,"RANSC":3327,"ENDENTAL":3328,"RANSCENDENTAL":3329,"By":3330,"maxim":3331,"nex":3332,"inf":3333,"rest":3334,"Ġpun":3335,"Ġmo":3336,"least":3337,"Ġlower":3338,"ceptivity":3339,"etimes":3340,"oliness":3341,"ĠĠĠĠĠĠĠĠĠ":3342,"Ġperform":3343,"Ġimpul":3344,"accord":3345,"connected":3346,"***":3347,"Ġearth":3348,"distinguish":3349,"Ġefforts":3350,"issimum":3351,"ms":3352,"ug":3353,"Ġimage":3354,"aged":3355,"before":3356,"Ġsecondly":3357,"TIC":3358,"contin":3359,"Ġ200":3360,"Pr":3361,"post":3362,"utation":3363,"urity":3364,"Ġproves":3365,"Ġintention":3366,"actory":3367,"physical":3368,"Ġrev":3369,"Ġang":3370,"Ġexamine":3371,"Ġdivided":3372,"Ġconclude":3373,"Ġrenders":3374,"On":3375,"after":3376,"Ġinference":3377,"Ġreckon":3378,"Ġnecessit":3379,"ĠNay":3380,"ĠCosmological":3381,"Ġdeduce":3382,"Ġdemonstrated":3383,"Ġsmallest":3384,"Ġconviction":3385,"worthy":3386,"anguage":3387,"cern":3388,"Ġproport":3389,"Ġcap":3390,"igion":3391,"Ġspir":3392,"Ġtry":3393,"Ġstreng":3394,"Ġindirect":3395,"mitted":3396,"Ġoriginate":3397,"Ġsatisfy":3398,"Ġfigure":3399,"draw":3400,"ium":3401,"joy":3402,"psych":3403,"ico":3404,"edience":3405,"Ġeth":3406,"Ġdignity":3407,"cies":3408,"play":3409,"Ġtriangle":3410,"Ġrepresents":3411,"arer":3412,"Ġremo":3413,"Ġdegrees":3414,"beings":3415,"conting":3416,"Ġposteriori":3417,"Ġendeavours":3418,"completely":3419,"attempt":3420,"Ġraised":3421,"mathematics":3422,"Ġdiversity":3423,"Ġspirit":3424,"overy":3425,"Ġapplicable":3426,"Ġreflect":3427,"Ġproofs":3428,"Ġinvestigations":3429,"Ġinferred":3430,"ĠIdeas":3431,"ggest":3432,"Ġindispensable":3433,"term":3434,"vice":3435,"Ġfit":3436,"Ġanci":3437,"Ġconfirm":3438,"cisely":3439,"Ġspontaneous":3440,"gress":3441,"Ġcr":3442,"Ġbest":3443,"ĠAn":3444,"oney":3445,"Ġbegins":3446,"Ġidealism":3447,"going":3448,"Ġjudgments":3449,"Ġgeometry":3450,"Ġpay":3451,"orious":3452,"expect":3453,"Ġdevelop":3454,"Ġserves":3455,"Ġdifferences":3456,"icians":3457,"Ġestim":3458,"Ġproceeding":3459,"Ġexpressions":3460,"Ġesca":3461,"Ġprofess":3462,"Ġpostulate":3463,".)":3464,"Transcendental":3465,"eal":3466,"lies":3467,"take":3468,"Ġauthoriz":3469,"Ġincre":3470,"Ġmerit":3471,"Ġreceive":3472,"thus":3473,"indic":3474,"Ġshort":3475,"ĠNo":3476,"Ġaggreg":3477,"Ġshows":3478,"Ġhypotheses":3479,"Ġanalytic":3480,"Ġprecedes":3481,"some":3482,"Ġinvolves":3483,"nitude":3484,"analy":3485,"Ġproportion":3486,"ED":3487,"_.":3488,"inasmuch":3489,"Ġpopular":3490,"another":3491,"Ġforces":3492,"consequ":3493,"Ġempiricism":3494,"express":3495,"ĠPU":3496,"ĠĠĠĠĠĠĠĠĠĠĠĠĠĠĠĠĠĠ":3497,"Ġsubl":3498,"imitive":3499,"subjective":3500,"Ġerrors":3501,"neg":3502,"himself":3503,"independent":3504,"Ġloss":3505,"Ġprivate":3506,"subsistent":3507,"manifold":3508,"aff":3509,"jun":3510,"oined":3511,"anent":3512,"Ġexc":3513,"again":3514,"Ġoccur":3515,"Ġinquire":3516,"ased":3517,"Ġhabit":3518,"Ġthinks":3519,"Ġleads":3520,"Hence":3521,"JEC":3522,"Ġom":3523,"Ġmoney":3524,"Ġnotwithstanding":3525,"ulate":3526,"ĠTime":3527,"Ġcomes":3528,"ĠPRO":3529,"Ġactivity":3530,"Ġextensive":3531,"Ġfew":3532,"Ġenter":3533,"Ġcommonly":3534,"Ġguard":3535,"Ġremarks":3536,"Ġinvolved":3537,"ares":3538,"sely":3539,"ouble":3540,"Ġascribe":3541,"Ġones":3542,"Ġobjections":3543,"Ġformed":3544,"Ġdisappear":3545,"Ġplaces":3546,"Ġexpresses":3547,"Ġobserved":3548,"Ġcoexistence":3549,"Ġpromise":3550,"Ġallowed":3551,"gutenberg":3552,"ission":3553,"step":3554,"ains":3555,"Ġunavoidable":3556,"while":3557,"Ġsubjects":3558,"Ġfollowed":3559,"Ġrespects":3560,"Ġeng":3561,"Ġrequirement":3562,"Ġnegation":3563,"Reason":3564,"two":3565,"Ġtheoretic":3566,"Ġwishes":3567,"Ġbold":3568,"entially":3569,"Ġholiness":3570,"Ġanimal":3571,"Ġont":3572,"Ġliberty":3573,"ify":3574,"notion":3575,"ideas":3576,"Ġforming":3577,"super":3578,"Ġpersu":3579,"preced":3580,"proof":3581,"Ġrealissimum":3582,"determine":3583,"appre":3584,"regress":3585,"Ġconsistent":3586,"Ġprecede":3587,"Ġcontinue":3588,"legisl":3589,"feel":3590,"Ġgenu":3591,"employment":3592,"cogitate":3593,"Ġaccomp":3594,"ĠÃ¦":3595,"Ġpeople":3596,"Ġextr":3597,"plic":3598,"Ġdiscovery":3599,"Ġincluded":3600,"Ġimmanent":3601,"Ġconsiderations":3602,"ficial":3603,"ik":3604,"til":3605,"you":3606,"Ġ7":3607,"Ġways":3608,"Ġbad":3609,"Ġmult":3610,"Ġhomogeneous":3611,"Ġpros":3612,"andon":3613,"ĠEm":3614,"Ġconstructed":3615,"Ġseparate":3616,"ĠStates":3617,"Be":3618,"BER":3619,"Ġsays":3620,"Ġreturn":3621,"Ġbeh":3622,"Ġexec":3623,"umer":3624,"Ġdev":3625,"Ġblind":3626,"Ġadvanced":3627,"Ġstatements":3628,"BERG":3629,"hesis":3630,"inary":3631,"itimate":3632,"Ġexception":3633,"ained":3634,"Ġanyone":3635,"evertheless":3636,"Ġsearch":3637,"Ġendless":3638,"ĠDiv":3639,"Ġstrong":3640,"Ġassumption":3641,"Ġguide":3642,"Ġchoose":3643,"Ġcontinuous":3644,"ST":3645,"ele":3646,"mind":3647,"oper":3648,"Ġren":3649,"Ġconstant":3650,"asser":3651,"Ġhist":3652,"imp":3653,"istance":3654,"ember":3655,"cond":3656,"Ġdiscipline":3657,"finitum":3658,"Ġcausal":3659,"Ġentitled":3660,"Ġremarkable":3661,"Ġavail":3662,"Ġteach":3663,"Ġfulf":3664,"Ġintroduce":3665,"Ġunconditional":3666,"Ġsophistical":3667,"Ġopponent":3668,"From":3669,"bid":3670,"human":3671,"hypothe":3672,"ank":3673,"argum":3674,"âĢĻ":3675,"Ġaccur":3676,"Ġknows":3677,"ĠNat":3678,"igns":3679,"Ġobedience":3680,"ishment":3681,"Ġattend":3682,"ĠDo":3683,"conscious":3684,"determines":3685,"ĠMetaphys":3686,"ĠLeibnitz":3687,"Ġpersons":3688,"Ġcoexistent":3689,"morality":3690,"Ġpromot":3691,"regards":3692,"ĠYOU":3693,"Ġinfinitum":3694,"inclination":3695,"Ġprecepts":3696,"consistent":3697,"Ġcreature":3698,"Ġschemat":3699,"conceit":3700,"por":3701,"Ġtw":3702,"Ġcal":3703,"Ġbu":3704,"lease":3705,"Ġsuggest":3706,"Ġreasons":3707,"Ġimpossibility":3708,"ĠCh":3709,"Ġfalls":3710,"Ġstudy":3711,"Ġsafe":3712,"plicity":3713,"Ġcult":3714,"Ġgoes":3715,"Ġcircle":3716,"ursive":3717,"Ġimplies":3718,"Con":3719,"ref":3720,"Ġwond":3721,"ival":3722,"ustom":3723,"nthetical":3724,"solution":3725,"Ġplay":3726,"ĠGUT":3727,"Ġenlarg":3728,"Ġimagine":3729,"ENBERG":3730,"metaphysics":3731,"JECT":3732,"ĠGUTENBERG":3733,"aves":3734,"ors":3735,"Ġlanguage":3736,"fortun":3737,"Ġconstituted":3738,"Ġpermission":3739,"Ġconfess":3740,"Ġcorresponds":3741,"Ġmaterials":3742,"Ġexperiment":3743,"Ġantithesis":3744,"Ġangles":3745,"Ġ6":3746,"Ġmediate":3747,"Ġprim":3748,"imag":3749,"ethod":3750,"Ġreligion":3751,"ĠInt":3752,"ician":3753,"Ġattack":3754,"ĠMor":3755,"Ġstru":3756,"Ġassuming":3757,"defin":3758,"Ġderiv":3759,"Ġspecif":3760,"Ġcombination":3761,"Ġmagnitude":3762,"ae":3763,"found":3764,"foundation":3765,"gl":3766,"vere":3767,"were":3768,"inct":3769,"infinite":3770,"itect":3771,"Ġinferences":3772,"Ġreceptivity":3773,"leological":3774,"Ġholy":3775,"Ġlist":3776,"owed":3777,"concern":3778,"pleasure":3779,"Ġheav":3780,"exer":3781,"order":3782,"Ġdisplay":3783,"Ġparty":3784,"straint":3785,"Ġarising":3786,"ĠSolution":3787,"ĠNot":3788,"Ġenjoy":3789,"ĠEpic":3790,"exists":3791,"Ġcommonest":3792,"Ġattainment":3793,"Ġdefine":3794,"cognitions":3795,"Ġcopies":3796,"Ġdifficult":3797,"oblig":3798,"regarded":3799,"Ġutility":3800,"diffic":3801,"judgements":3802,"Ġreferred":3803,"nevertheless":3804,"application":3805,"follows":3806,"totality":3807,"Ġmechanism":3808,"Ġhonest":3809,"corresponding":3810,"investigation":3811,"influence":3812,"accordance":3813,"contingent":3814,"line":3815,"Ġproposed":3816,"Ġstart":3817,"Ġfee":3818,"Ġrefund":3819,"Ġillustr":3820,"ruit":3821,"ART":3822,"Ġoccupied":3823,"Ġsyllogisms":3824,"Ġventure":3825,"junctive":3826,"Ġcost":3827,"alogism":3828,"ndered":3829,"Ġuntil":3830,"Ġsubsist":3831,"Ġcomplex":3832,"Ġgrad":3833,"ĠEvery":3834,"ables":3835,"Ġphysics":3836,"Ġassociated":3837,"Ġontological":3838,"set":3839,"Ġrep":3840,"Ġforward":3841,"Ġhead":3842,"ĠEven":3843,"Ġdesired":3844,"Ġtransgress":3845,"Ġsubordinate":3846,"Ġaxioms":3847,"jud":3848,"Ġaside":3849,"imer":3850,"etent":3851,"concept":3852,"Ġleaves":3853,"Ġsaying":3854,"Ġconcluded":3855,"Ġfinal":3856,"ITY":3857,"Ġrecourse":3858,"OG":3859,"iol":3860,"inions":3861,"lebr":3862,"Ġweak":3863,"Ġreasonable":3864,"conci":3865,"Ġdoctr":3866,"intellectual":3867,"These":3868,"Ġlimitations":3869,"Ġacts":3870,"Ġattached":3871,"Ġsecret":3872,"Ġaffirmed":3873,"Ġexplained":3874,"Ġaware":3875,"considered":3876,"Ġschol":3877,"ĠKant":3878,"Ġmedium":3879,"Ġinseparably":3880,"Ġengaged":3881,"lebrated":3882,"IR":3883,"PR":3884,"SE":3885,"dog":3886,"find":3887,"logical":3888,"nor":3889,"pass":3890,"scept":3891,"signif":3892,"vation":3893,"inor":3894,"inqu":3895,"ream":3896,"Ġsound":3897,"Ġpaid":3898,"second":3899,"oured":3900,"ĠĠĠĠĠĠĠĠĠĠĠĠ":3901,"addition":3902,"Ġmeasure":3903,"presented":3904,"Ġaddu":3905,"Ġadapt":3906,"Ġsometimes":3907,"pret":3908,"Ġfrequ":3909,"beyond":3910,"proble":3911,"Ġhappy":3912,"ĠDeduction":3913,"Ġesteem":3914,"Ġessentially":3915,"Ġpromote":3916,"Ġconvin":3917,"substances":3918,"Ġpsychological":3919,"systematic":3920,"division":3921,"satisfaction":3922,"comprehensible":3923,"highest":3924,"immediately":3925,"anteced":3926,"Ġgenuine":3927,"ĠÃ¦sthetic":3928,"Ġtax":3929,"alt":3930,"ĠTO":3931,"Ġusing":3932,"unte":3933,"ĠWh":3934,"ĠLicense":3935,"Ġwanting":3936,"Ġcarefully":3937,"Ġcontempl":3938,"PL":3939,"Ġmoder":3940,"mission":3941,"Ġobtained":3942,"Of":3943,"ling":3944,"itas":3945,"ened":3946,"Ġlines":3947,"Ġfortun":3948,"urious":3949,"mention":3950,"Ġprescribes":3951,"Ġconcerning":3952,"bod":3953,"yet":3954,"Ġsac":3955,"ingly":3956,"Ġhind":3957,"Ġsuitable":3958,"Ġcompl":3959,"Ġvan":3960,"Ġheart":3961,"Ġcharge":3962,"ĠWhether":3963,"Ġgoal":3964,"Ġacute":3965,"Ġanticip":3966,"Ġ20":3967,"Ġfalla":3968,"Ġjustify":3969,"Ġdistribution":3970,"Ġprofound":3971,"properly":3972,"Ġdeclared":3973,"ivalent":3974,"equ":3975,"give":3976,"pot":3977,"inity":3978,"Ġwr":3979,"erted":3980,"aries":3981,"Ġprot":3982,"Ġascribed":3983,"Ġsuff":3984,"ilst":3985,"Ġunlimited":3986,"olog":3987,"Ġperi":3988,"ĠNO":3989,"ĠIts":3990,"Ġwhence":3991,"Ġgranted":3992,"Ġobvious":3993,"ĠHis":3994,"Ġemploying":3995,"Ġsubstant":3996,"ĠDis":3997,"determinations":3998,"Ġcharacteristic":3999,"Ġ15":4000,"Ġinvestigate":4001,"Ġaffirmative":4002,"Ġdefinitions":4003,"examination":4004,"ĠIdea":4005,"orizon":4006,"Ġorganized":4007,"Ġroot":4008,"Ġcreation":4009,"Ġconversely":4010,"Ġreciprocal":4011,"lato":4012,"indeed":4013,"dedu":4014,"duty":4015,"fact":4016,"fundamental":4017,"rule":4018,"show":4019,"tal":4020,"inst":4021,"Ġobe":4022,"Ġsigns":4023,"Ġinsufficient":4024,"ceasing":4025,"Ġprimitive":4026,"ĠIV":4027,"conv":4028,"ili":4029,"establ":4030,"Ġimit":4031,"Ġimposes":4032,"positive":4033,"supp":4034,"acity":4035,"ĠSEC":4036,"Ġgenera":4037,"common":4038,"ĠMat":4039,"Ġdeclar":4040,"deg":4041,"Ġdiscovering":4042,"OOF":4043,"distinction":4044,"Ġpathological":4045,"philosopher":4046,"Ġantecedes":4047,"require":4048,"requires":4049,"applied":4050,"total":4051,"Ġprudence":4052,"Ġskill":4053,"Ġpractice":4054,"apprehension":4055,"PROOF":4056,"And":4057,"Ġwar":4058,"Ġwide":4059,"Ġfruit":4060,"vers":4061,"suffici":4062,"Ġprep":4063,"Ġservice":4064,"Ġgover":4065,"ĠDI":4066,"Ġexpressed":4067,"Ġdifficulties":4068,"Ġadditional":4069,"ASON":4070,"Ġ-":4071,"Ġtre":4072,"Ġattr":4073,"Ġtrademark":4074,"Ġabandon":4075,"Ġdeserves":4076,"Ġaccompl":4077,"ĠWithout":4078,"EM":4079,"Ġta":4080,"Ġtill":4081,"itious":4082,"Ġreject":4083,"trodu":4084,"ants":4085,"who":4086,"Ġconnects":4087,"Ġsensations":4088,"Ġattributed":4089,"Ġcombined":4090,"Ġpermitted":4091,"Ġdefective":4092,"ĠSynthetical":4093,"ĠPROJECT":4094,"uel":4095,"Ġinj":4096,"Ġinstruction":4097,"Ġbook":4098,"vey":4099,"Ġtrouble":4100,"ĠBesides":4101,"Ġsym":4102,"Ġcha":4103,"Ġthence":4104,"Ġremove":4105,"ĠEgo":4106,"Ġconfidence":4107,"Ġconfused":4108,"Ġclose":4109,"Ġdestination":4110,"Ġoperation":4111,"ARK":4112,"Ġreduce":4113,"advantage":4114,"Ġomni":4115,"According":4116,"fall":4117,"iences":4118,"made":4119,"Ġsection":4120,"orical":4121,"Ġefficient":4122,"Ġdur":4123,"Ġwhilst":4124,"Ġspaces":4125,"antages":4126,"Ġevid":4127,"Ġrelated":4128,"acing":4129,"Ġdeep":4130,"ĠPhenomen":4131,"Ġdesc":4132,"ĠDialectic":4133,"Ġimpress":4134,"Ġincluding":4135,"Ġdivine":4136,"Ġcontradictions":4137,"Ġdoubts":4138,"Ġherself":4139,"objectively":4140,"ixt":4141,"Ġcelebrated":4142,"Ġraise":4143,"Everything":4144,"Ġsequence":4145,"Ġaggregate":4146,"analytical":4147,"Ġperiod":4148,"direct":4149,"doubt":4150,"labour":4151,"main":4152,"mode":4153,"oys":4154,"opposition":4155,"really":4156,"reme":4157,"restrict":4158,"attrib":4159,"ery":4160,"Ġminor":4161,"Ġfive":4162,"Ġdr":4163,"entire":4164,"Ġhyp":4165,"theology":4166,"imper":4167,"iments":4168,"import":4169,"Ġforbid":4170,"Ġget":4171,"Ġobjection":4172,"chitect":4173,"among":4174,"Ġunion":4175,"transcendent":4176,"except":4177,"soever":4178,"ĠĠĠĠĠĠĠĠĠĠĠĠĠĠĠĠĠĠĠ":4179,"Ġcompletion":4180,"begin":4181,"astic":4182,"Ġcommence":4183,"Ġcommun":4184,"otherwise":4185,"Ġoutside":4186,"existing":4187,"cognize":4188,"intuitions":4189,"ĠOnly":4190,"Ġindependence":4191,"Ġaffirmation":4192,"parts":4193,"Ġsmaller":4194,"rupt":4195,"Ġteleological":4196,"Ġjudgment":4197,"Ġcriteria":4198,"Ġoccupies":4199,"following":4200,"ĠJudgement":4201,"Ġgenus":4202,"perfectly":4203,"changeable":4204,"species":4205,"Ġsubordinated":4206,"Ġadmir":4207,"conformity":4208,"Ġheteronomy":4209,"abstraction":4210,"Ġimpulses":4211,"Ġescape":4212,"Ġoneself":4213,"Ġschemata":4214,"unteers":4215,"ACE":4216,"PRE":4217,"Ġair":4218,"lead":4219,"Ġsusp":4220,"econd":4221,"Ġrank":4222,"Ġmeant":4223,"ĠCom":4224,"ĠCON":4225,"Ġinclude":4226,"ĠREM":4227,"ĠREASON":4228,"au":4229,"face":4230,"Ġrendered":4231,"Ġhy":4232,"Ġled":4233,"urality":4234,"Ġprop":4235,"Ġdisjunctive":4236,"Ġprecisely":4237,"Ġcompare":4238,"Ġ10":4239,"Ġsatisfactory":4240,"Ġsignifies":4241,"Ġundoubted":4242,"Ġconjoined":4243,"Ġborrowed":4244,"ox":4245,"Ġlying":4246,"Ġtast":4247,"Ġcle":4248,"ictical":4249,"Ġwel":4250,"Ġpropose":4251,"Ġrid":4252,"Ġextending":4253,"ĠIdeal":4254,"Ġadopted":4255,"IL":4256,"IM":4257,"aps":4258,"ient":4259,"isable":4260,"Ġsides":4261,"Ġslight":4262,"ouse":4263,"Ġisol":4264,"Ġexposed":4265,"Ġalter":4266,"acher":4267,"Ġadmissible":4268,"Ġprejud":4269,"Ġchimer":4270,"Ġimpart":4271,"Ġrequirements":4272,"work":4273,"Ġlegitimate":4274,"Ġequivalent":4275,"similar":4276,"Ġexcluded":4277,"Ġpursue":4278,"Ġforegoing":4279,"ĠPrinciple":4280,"ĠAccordingly":4281,"Ġcultiv":4282,"Qu":4283,"With":4284,"both":4285,"cul":4286,"dec":4287,"each":4288,"Ġ0":4289,"isibility":4290,"Ġcur":4291,"Ġdict":4292,"utions":4293,"ected":4294,"Ġlose":4295,"ift":4296,"Ġintended":4297,"umber":4298,"umption":4299,"posing":4300,"Ġstated":4301,"ĠPlato":4302,"ĠSince":4303,"ĠNevertheless":4304,"Ġseat":4305,"ĠObject":4306,"oyal":4307,"Ġgrant":4308,"Ġthoughts":4309,"Ġasserted":4310,"ounces":4311,"Ġadvantages":4312,"Ġrightly":4313,"Ġtreats":4314,"Ġstrictly":4315,"Ġexhibits":4316,"Ġblame":4317,"Ġapprox":4318,"Ġannihilated":4319,"Ġcounter":4320,"Ġsequel":4321,"Ġconfine":4322,"Ġobstac":4323,"ugment":4324,"Ġbehind":4325,"Ġduration":4326,"ixture":4327,"//":4328,"://":4329,"aen":4330,"big":4331,"make":4332,"tt":4333,"vol":4334,"Ġtaking":4335,"itio":4336,"ick":4337,"statement":4338,"Ġhard":4339,"theological":4340,"quite":4341,"person":4342,"perman":4343,"pleasant":4344,"Ġalong":4345,"Ġunceasing":4346,"above":4347,"Ġspect":4348,"trans":4349,"true":4350,"Ġtrib":4351,"supposition":4352,"Ġrelating":4353,"Ġmortal":4354,"unal":4355,"Ġparties":4356,"Ġpresenting":4357,"ortion":4358,"ĠCategor":4359,"Ġmodality":4360,"Ġgoodness":4361,"Ġpossessed":4362,"Ġillusions":4363,"relations":4364,"ialectical":4365,"certainly":4366,"Ġattempted":4367,"completeness":4368,"Ġutmost":4369,"Ġharmonize":4370,"simple":4371,"Ġteaches":4372,"Ġdelusion":4373,"summum":4374,"ĠSpeculative":4375,"consideration":4376,"contains":4377,"contained":4378,"grounds":4379,"thinking":4380,"Ġedifice":4381,"belonging":4382,"predicates":4383,"sensation":4384,"succession":4385,"abstract":4386,"explanation":4387,"Ġstrength":4388,"affirm":4389,"hypothesis":4390,"exercise":4391,"Ġwrong":4392,"degree":4393,"maintain":4394,"aenomen":4395,"ier":4396,"Ġtend":4397,"Ġtyp":4398,"inter":4399,"state":4400,"Ġundert":4401,"Ġimposed":4402,"ĠNe":4403,"ĠMy":4404,"Ġpreserve":4405,"Ġgovern":4406,"ATION":4407,"Here":4408,"ger":4409,"nce":4410,"Ġpenetr":4411,"Ġbear":4412,"Ġhid":4413,"itions":4414,"ĠIN":4415,"Ġdepr":4416,"Ġoriginated":4417,"Ġrecognized":4418,"Ġhyper":4419,"AM":4420,"fit":4421,"Ġthesis":4422,"Ġfict":4423,"Ġrecomm":4424,"Ġdream":4425,"Ġvis":4426,"els":4427,"Ġcompared":4428,"ĠLogic":4429,"Ġdepart":4430,"Ġdependence":4431,"Ġdistinguishing":4432,"Ġexpectation":4433,"Ġdistribute":4434,"Ġrecognize":4435,"Ġdogmatic":4436,"ĠNature":4437,"CT":4438,"Ex":4439,"oot":4440,"viz":4441,"eng":4442,"atus":4443,"orm":4444,"orph":4445,"ott":4446,"utable":4447,"Ġpra":4448,"ibly":4449,"Ġstop":4450,"Ġsubjected":4451,"Ġprefer":4452,"ope":4453,"Ġbeforehand":4454,"Ġattaining":4455,"Ġsets":4456,"Ġpersonal":4457,"manuel":4458,"Ġapprehend":4459,"Ġseeking":4460,"Ġbringing":4461,"ogeneity":4462,"Ġheterogeneous":4463,"Ġtranscend":4464,"expected":4465,"ĠPURE":4466,"body":4467,"Ġchapter":4468,"Ġtaste":4469,"Let":4470,"Sect":4471,"ee":4472,"gain":4473,"iance":4474,"icion":4475,"Ġbre":4476,"anations":4477,"Ġdim":4478,"Ġexert":4479,"Ġlaid":4480,"Ġloc":4481,"iform":4482,"Ġthereto":4483,"ofold":4484,"Ġability":4485,"oneous":4486,"aching":4487,"Ġenables":4488,"serve":4489,"ailed":4490,"Ġopinions":4491,"Ġmaintained":4492,"correct":4493,"Ġcorrectness":4494,"Ġasked":4495,"Ġroom":4496,"Ġprobably":4497,"ashion":4498,"Ġanalogies":4499,"Ġindirectly":4500,"assert":4501,"Ġdoctrines":4502,"Ġsuspicion":4503,"Chapter":4504,"God":4505,"author":4506,"clear":4507,"deduction":4508,"dialectical":4509,"mo":4510,"might":4511,"nay":4512,"sour":4513,"tled":4514,"Ġtell":4515,"reference":4516,"itate":4517,"Ġinward":4518,"anthrop":4519,"Ġresol":4520,"Ġconstraint":4521,"imity":4522,"Ġann":4523,"iring":4524,"ĠTr":4525,"ĠTRANSCENDENTAL":4526,"concl":4527,"conceived":4528,"construction":4529,"usive":4530,"illusion":4531,"Ġunworthy":4532,"ploys":4533,"Ġwills":4534,"Ġanywhere":4535,"pright":4536,"progress":4537,"ĠAuthor":4538,"uncondition":4539,"Ġpremis":4540,"Ġarchitect":4541,"ĠSto":4542,"Ġnearer":4543,"ĠChapter":4544,"Ġconsiders":4545,"Ġambig":4546,"avoured":4547,"ĠDe":4548,"Ġcogitating":4549,"evident":4550,"ĠConception":4551,"empirically":4552,"Ġpleasant":4553,"manner":4554,"Ġvirtuous":4555,"anything":4556,"Ġpromises":4557,"Ġallowable":4558,"regarding":4559,"extension":4560,"difference":4561,"limits":4562,"ĠExperience":4563,"ĠĠĠĠĠĠĠĠĠĠĠĠĠĠĠĠĠĠĠĠĠĠĠ":4564,"including":4565,"command":4566,"ĠJust":4567,"analys":4568,"distinguished":4569,"ternally":4570,"mathematical":4571,"insic":4572,"presupposes":4573,"Ġannihilate":4574,"predicate":4575,"Ġhonour":4576,"depends":4577,"ĠImmanuel":4578,"Ġmentioned":4579,"occup":4580,"aneously":4581,"validity":4582,"drawn":4583,"Ġethics":4584,"Ġremoved":4585,"Ġfulfil":4586,"inquir":4587,"Ġadapted":4588,"ĠJudgements":4589,"80":4590,"af":4591,"Ġinc":4592,"Ġreve":4593,"Ġconject":4594,"sole":4595,"Ġwhatsoever":4596,"ĠEBOOK":4597,"appro":4598,"Ġdecided":4599,"Ġanswered":4600,"Ġnumer":4601,"Ġdistributing":4602,"Ġreceiving":4603,"against":4604,"Ġhistory":4605,"ttp":4606,"ius":4607,"Ġcent":4608,"Ġspite":4609,"orily":4610,"Ġrelative":4611,"Ġappeal":4612,"Ġdeath":4613,"unless":4614,"Ġdiscursive":4615,"understood":4616,"Ġsynthetically":4617,"ĠLet":4618,"Ġseeks":4619,"Ġobscurity":4620,"Ġtreated":4621,"RI":4622,"VE":4623,"fare":4624,"Ġreplace":4625,"ivable":4626,"Ġlarge":4627,"Ġalmost":4628,"admissible":4629,"Ġideality":4630,"Ġclearness":4631,"Ġextends":4632,"Ġready":4633,"Ġexerc":4634,"Ġcomprehensible":4635,"Ġreduced":4636,"Ġwonder":4637,"mentioned":4638,"Ġwelfare":4639,"iable":4640,"Ġver":4641,"inc":4642,"Ġtheological":4643,"atal":4644,"erable":4645,"alth":4646,"Ġetern":4647,"sec":4648,"see":4649,"Ġreached":4650,"Ġdimin":4651,"Ġanthrop":4652,"Ġlink":4653,"Ġforced":4654,"istics":4655,"Ġproving":4656,"illed":4657,"add":4658,"ĠBoth":4659,"Ġshap":4660,"ĠFirst":4661,"ĠFreedom":4662,"Ġdisclaim":4663,"Ġchance":4664,"clos":4665,"Ġassured":4666,"ĠProble":4667,"Ġrights":4668,"ched":4669,"Ġpreceded":4670,"Ġholding":4671,"Ġdoubtful":4672,"Ġpeculiarity":4673,"Ġdrawing":4674,"Ġanalytically":4675,"Ġdestru":4676,"Ġteacher":4677,"ARRAN":4678,"Ġhighly":4679,"Ġaccidental":4680,"Ġfirmly":4681,"Ġindifference":4682,"Ġeternity":4683,"?\"":4684,"RIN":4685,"fers":4686,"lied":4687,"mod":4688,"rist":4689,"uity":4690,"hed":4691,"Ġaugment":4692,"render":4693,"Ġinhere":4694,"Ġinadequate":4695,"Ġfashion":4696,"Ġhorizon":4697,"ilis":4698,"Ġratio":4699,"Ġjoin":4700,"ĠAnt":4701,"Ġindetermin":4702,"Ġindefinite":4703,"Ġoutward":4704,"Ġsomewhat":4705,"Ġproducing":4706,"Ġpowerful":4707,"Ġestimate":4708,"Ġoverstep":4709,"Ġerroneous":4710,"Ġpasses":4711,"Ġparalogism":4712,"causes":4713,"Ġdeclares":4714,"Ġdispute":4715,"Ġfaith":4716,"Ġgained":4717,"Ġdeserve":4718,"ĠHowever":4719,"higher":4720,"Ġindifferent":4721,"Ġavailable":4722,"Ġbuild":4723,"Ġfortune":4724,"Ġwarning":4725,"Accordingly":4726,"ĠPhenomena":4727,"FACE":4728,"cosmological":4729,"gener":4730,"iology":4731,"long":4732,"member":4733,"opposite":4734,"was":4735,"reciproc":4736,"atur":4737,"aticism":4738,"Ġmon":4739,"Ġrepro":4740,"arbitr":4741,"eter":4742,"urther":4743,"urus":4744,"result":4745,"oreover":4746,"Ġalleg":4747,"Ġuncertain":4748,"abs":4749,"answ":4750,"esty":4751,"Ġembr":4752,"Ġemploys":4753,"Ġdoll":4754,"Ġformat":4755,"prop":4756,"else":4757,"Ġsynthetic":4758,"intu":4759,"ĠOr":4760,"comb":4761,"come":4762,"compar":4763,"ĠHim":4764,"Ġactive":4765,"Ġextreme":4766,"Ġenounce":4767,"Ġcorrelate":4768,"Ġcomply":4769,"cribing":4770,"Ġreadily":4771,"Ġcommanded":4772,"obtain":4773,"purely":4774,"Ġprogression":4775,"need":4776,"neither":4777,"categorical":4778,"discovered":4779,"Ġmomenta":4780,"Ġestablishment":4781,"ĠĠĠĠĠĠĠĠĠĠĠĠĠĠĠĠĠĠĠĠĠ":4782,"ĠĠĠĠĠĠĠĠĠĠĠĠĠĠĠĠĠĠĠĠĠĠ":4783,"ĠVII":4784,"Ġorganon":4785,"metaphysic":4786,"Ġdisputes":4787,"constitute":4788,"constitutive":4789,"Ġsceptical":4790,"myself":4791,"special":4792,"Ġcolour":4793,"independence":4794,"Ġmagn":4795,"senses":4796,"Ġunconditionally":4797,"Ġtalent":4798,"critical":4799,"Ġanalogous":4800,"observation":4801,"Supreme":4802,"nexion":4803,"psychology":4804,"negative":4805,"Ġdisappears":4806,"legislation":4807,"Ġaccompan":4808,"definition":4809,"Ġenjoyment":4810,"imperative":4811,"important":4812,"PREFACE":4813,"ĠREMARK":4814,"Ġslightest":4815,"Ġtribunal":4816,"aenomenon":4817,"col":4818,"method":4819,"number":4820,"ri":4821,"Ġfl":4822,"Ġpropri":4823,"ĠPossib":4824,"Ġincludes":4825,"Ġviewed":4826,"Ġconsidering":4827,"Ġconfusion":4828,"undred":4829,"ĠUse":4830,"ches":4831,"Ġessence":4832,"Ġgeometrical":4833,"Ġchecks":4834,"sufficiency":4835,"QU":4836,"prom":4837,"inally":4838,"Ġdays":4839,"Ġuseless":4840,"Ġprincip":4841,"Ġoriginally":4842,"Ġmatters":4843,"Ġsupply":4844,"Ġexhibited":4845,"Ġobservations":4846,"Ġsurface":4847,"Ġcreated":4848,"Ġaccidents":4849,"ĠPhys":4850,"ged":4851,"noumen":4852,"Ġcred":4853,"Ġpat":4854,"Ġfile":4855,"Ġdam":4856,"abled":4857,"Ġusual":4858,"ĠAl":4859,"Ġyear":4860,"material":4861,"Ġplurality":4862,"Ġenabled":4863,"Ġcontinued":4864,"Ġprospect":4865,"\";":4866,"78":4867,"CI":4868,"flu":4869,"pore":4870,"isions":4871,"Ġinstruct":4872,"Ġbase":4873,"Ġexpose":4874,"ilities":4875,"Ġarche":4876,"ortunity":4877,"Ġadvisable":4878,"Ġdecision":4879,"Ġseemed":4880,"ĠTHIS":4881,"Ġchanged":4882,"distrib":4883,"Ġarranged":4884,"ĠANY":4885,"Ġassigned":4886,"Ġancient":4887,"Ġancients":4888,"Ġgradually":4889,"econdly":4890,"Ġisolated":4891,"poreal":4892,"Ġarchety":4893,"TRANSCENDENTAL":4894,"],":4895,"electronic":4896,"iality":4897,"ned":4898,"oice":4899,"way":4900,"alf":4901,"Ġthreat":4902,"Ġmut":4903,"Ġfoot":4904,"Ġerect":4905,"search":4906,"Ġday":4907,"omorph":4908,"Ġgift":4909,"ainted":4910,"Ġunb":4911,"Ġunnecessary":4912,"Ġuniform":4913,"abor":4914,"Ġration":4915,"Ġrange":4916,"Ġviol":4917,"anticip":4918,"Ġquar":4919,"Ġdeal":4920,"lective":4921,"Ġentered":4922,"Ġshowing":4923,"Ġexplanations":4924,"Ġdivisible":4925,"Ġconceal":4926,"Ġpresupposing":4927,"Ġaffinity":4928,"Ġsetting":4929,"Ġelaps":4930,"Ġimperfect":4931,"Ġregressive":4932,"Ġmisunderstanding":4933,"Ġsuperior":4934,"Ġsingular":4935,"Ġjudging":4936,"Ġdesignate":4937,"Ġsorts":4938,"Ġacquainted":4939,"Ġmechanical":4940,"Ġdirections":4941,"ĠPhilos":4942,"Ġmultitude":4943,"ĠDivision":4944,"Ġtwofold":4945,"ĠIntuition":4946,"Ġsacr":4947,"Ġvanity":4948,"Ġelapsed":4949,"AB":4950,"AN":4951,"OM":4952,"affect":4953,"co":4954,"coun":4955,"cases":4956,"dest":4957,"homogeneous":4958,"small":4959,"vari":4960,"view":4961,"enlarg":4962,"Ġwid":4963,"Ġwater":4964,"Ġinstit":4965,"Ġthy":4966,"Ġmund":4967,"cell":4968,"Ġnull":4969,"Ġrepe":4970,"still":4971,"entia":4972,"arante":4973,"asis":4974,"Ġpride":4975,"Ġupright":4976,"imental":4977,"Ġsuscept":4978,"etween":4979,"ciation":4980,"Ġpropens":4981,"Ġintensive":4982,"ĠTot":4983,"chang":4984,"conduct":4985,"construct":4986,"esteem":4987,"Ġexistences":4988,"Ġhear":4989,"Ġimprov":4990,"Ġusually":4991,"supreme":4992,"nowledge":4993,"ĠApp":4994,"ung":4995,"ĠSelf":4996,"Ġsubmit":4997,"agree":4998,"ĠON":4999,"Ġendowed":5000,"ostat":5001,"Ġremote":5002,"proved":5003,"procedure":5004,"Ġsystems":5005,"Ġexamined":5006,"understand":5007,"Ġyouth":5008,"aving":5009,"cognized":5010,"ĠProof":5011,"Ġquantum":5012,"Ġremaining":5013,"Ġdecom":5014,"ertitude":5015,"luences":5016,"Ġbecoming":5017,"Ġconforms":5018,"Ġsettled":5019,"Ġchangeable":5020,"Ġpersonality":5021,"irtue":5022,"doctrine":5023,"Ġconducted":5024,"grad":5025,"Ġfallacy":5026,"happens":5027,"Ġbrings":5028,"Ġtreatise":5029,"limitation":5030,"Ġintuitive":5031,"apperception":5032,"ĠExposition":5033,"ĠUnity":5034,"intelligence":5035,"ordinated":5036,"synthetically":5037,"questions":5038,"demand":5039,"Ġroad":5040,"Ġpostulates":5041,"ĠKnowledge":5042,"cogitated":5043,"Ġcollection":5044,"ĠÃĨ":5045,"successive":5046,"pathological":5047,"Ġpeace":5048,"demonstration":5049,"Ġproducts":5050,"Ġprudent":5051,"Ġcontempor":5052,"Ġhumili":5053,"Ġobstin":5054,"Ġpunishment":5055,"Ġcapacity":5056,"Ġdevelopment":5057,"consequences":5058,"Ġsublime":5059,"supersensible":5060,"feeling":5061,"arguments":5062,"imagination":5063,"vereign":5064,"Ġheaven":5065,"ĠEpicurus":5066,"obligation":5067,"IRST":5068,"ĠĠĠĠĠĠĠĠĠĠĠĠĠ":5069,"problematical":5070,"ĠDiscipline":5071,"entirely":5072,"Ġhypostat":5073,"Ġadmiration":5074,"Ġdollars":5075,"PH":5076,"SI":5077,"UC":5078,"oad":5079,"word":5080,"Ġhundred":5081,"Ġrad":5082,"individual":5083,"Ġfarther":5084,"Ġcontrast":5085,"lected":5086,"Ġoccurs":5087,"Ġplease":5088,"Ġindicating":5089,"pecial":5090,"Ġ50":5091,"Ġobscure":5092,"ĠMathemat":5093,"opy":5094,"Ġdesp":5095,"Ġoffice":5096,"Ġhappened":5097,"www":5098,"Ġsket":5099,"Ġaffords":5100,"ĠEmpirical":5101,"Ġhidden":5102,"Our":5103,"Ġpo":5104,"Ġfiction":5105,"otle":5106,"istinction":5107,"ĠFOR":5108,"fered":5109,"solu":5110,"Ġcompleted":5111,"Ġposited":5112,"Ġ12":5113,"large":5114,"Ġwitness":5115,"enetrability":5116,"ĠSystem":5117,"Ġdangerous":5118,"Ġincrease":5119,"ustomed":5120,"limin":5121,"oast":5122,"po":5123,"uality":5124,"Ġage":5125,"Ġbott":5126,"Ġflatter":5127,"omogeneity":5128,"verse":5129,"ulg":5130,"adistinction":5131,"Ġchar":5132,"Ġgrow":5133,"Ġgrounded":5134,"Ġenumer":5135,"Ġpossessing":5136,"Ġproceeded":5137,"Ġclos":5138,"Ġarrange":5139,"Ġanswers":5140,"Ġbelieves":5141,"Ġboundaries":5142,"Ġoverlook":5143,"Ġexplaining":5144,"Ġlooking":5145,"new":5146,"Ġdistributed":5147,"Ġtransition":5148,"Ġpositively":5149,"Ġaccepted":5150,"Ġdogmatism":5151,"Ġtalents":5152,"Ġsubsumed":5153,"Ġexecution":5154,"Ġaccurately":5155,"Ġscholastic":5156,"Ġcompliance":5157,"Ġfallacious":5158,"Ġshape":5159,"fluous":5160,"Ġbottom":5161,"cid":5162,"get":5163,"Ġtech":5164,"inal":5165,"ativ":5166,"Ġinner":5167,"ories":5168,"Ġmov":5169,"Ġfix":5170,"sem":5171,"Ġreconci":5172,"Ġdue":5173,"omp":5174,"Ġhouse":5175,"Ġur":5176,"osen":5177,"Ġsun":5178,"Ġsupposing":5179,"ury":5180,"istence":5181,"aining":5182,"plex":5183,"Ġtherewith":5184,"Ġrash":5185,"ements":5186,"Ġchosen":5187,"arest":5188,"Ġamount":5189,"Ġsimplicity":5190,"Ġimply":5191,"Ġinfall":5192,"Ġwherein":5193,"Ġseeing":5194,"Ġfreely":5195,"Ġsupplied":5196,"Ġsettle":5197,"Ġimaginary":5198,"perceptions":5199,"Ġparticularly":5200,"Ġmethods":5201,"Ġindicated":5202,"Ġapplying":5203,"Ġlooked":5204,"Ġmaintains":5205,"Ġfalsely":5206,"Ġvolunteers":5207,"Ġ30":5208,"Ġpursuit":5209,"Ġappropri":5210,"Ġfault":5211,"Ġconflicting":5212,"Ġascending":5213,"Ġstrugg":5214,"Ġomnipot":5215,"Ġevidently":5216,"Ġimpressions":5217,"Ġundoubtedly":5218,"Ġbreak":5219,"closed":5220,"Ġindeterminate":5221,"Ġtechn":5222,",[":5223,";_":5224,"An":5225,"barr":5226,"based":5227,"basis":5228,"cour":5229,"der":5230,"fig":5231,"gives":5232,"junction":5233,"ores":5234,"opp":5235,"pet":5236,"virtue":5237,"wish":5238,"ĠQu":5239,"Ġaf":5240,"alid":5241,"icated":5242,"Ġinconsistent":5243,"espect":5244,"Ġmid":5245,"Ġdatur":5246,"Ġbea":5247,"armon":5248,"owers":5249,"ifies":5250,"perhaps":5251,"ende":5252,"Ġunchangeable":5253,"âĢĶâĢľ":5254,"Ġ(Â§":5255,"ĠĠĠĠĠĠĠĠĠĠĠ":5256,"ĠĠĠĠĠĠĠĠĠĠĠĠĠĠĠ":5257,"Ġsovereign":5258,"admit":5259,"Ġwilling":5260,"Ġnoble":5261,"indis":5262,"prof":5263,"Ġadmission":5264,"Ġworlds":5265,"sophist":5266,"speculation":5267,"ĠĠĠĠĠĠĠĠĠĠĠĠĠĠĠĠĠĠĠĠĠĠĠĠĠĠĠĠĠĠĠĠ":5268,"Ġgrand":5269,"ĠGree":5270,"Ġrequiring":5271,"formal":5272,"Ġagent":5273,"Ġproductive":5274,"syllogism":5275,"Ġattended":5276,"Ġselfish":5277,"Ġfeels":5278,"thereby":5279,"Ġcogitable":5280,"ĠMan":5281,"evol":5282,"Ġcomput":5283,"Ġcompens":5284,"regulative":5285,"Ġphysico":5286,"Ġdirects":5287,"account":5288,"Ġarriving":5289,"Ġguarante":5290,"OND":5291,"contradictions":5292,"Ġtheoretically":5293,"philosophical":5294,"Ġdispositions":5295,"brought":5296,"apode":5297,"Ġrecognizes":5298,"Ġexclude":5299,"remark":5300,"remains":5301,"Ġpursues":5302,"Ġadvancement":5303,"applicable":5304,"Ġapodeictical":5305,"Ġrestricted":5306,"desire":5307,"Ġpostulated":5308,"produce":5309,"produced":5310,"universality":5311,"perfection":5312,"possesses":5313,"Ġcircumstance":5314,"confidence":5315,"Ġkeeping":5316,"pathy":5317,"Ġlabours":5318,"Ġfanaticism":5319,"Ġreciprocally":5320,"points":5321,"effects":5322,"motive":5323,"Ġelevated":5324,"Ġethical":5325,"Ġsublimity":5326,"independently":5327,"Ġpersuasion":5328,"Being":5329,"ĠChrist":5330,"Consequently":5331,"difficulties":5332,"OGY":5333,"Ġfrequent":5334,"Ġconvinced":5335,"antecedent":5336,"Ġcommencement":5337,"Ġspectator":5338,"ĠCategories":5339,"Ġpremisses":5340,"Ġreproach":5341,"Ġquarter":5342,"ĠTotality":5343,"Ġcontemporaneously":5344,"barrass":5345,"hood":5346,"inom":5347,"Ġmach":5348,"ĠIs":5349,"Ġshar":5350,"Ġshare":5351,"Ġsubstit":5352,"ĠHart":5353,"Ġmaximum":5354,"disposition":5355,"Ġadditions":5356,"000":5357,"ING":5358,"Ġmarked":5359,"While":5360,"ĠNew":5361,"CL":5362,"TY":5363,"UL":5364,"ael":5365,"uly":5366,"Ġ8":5367,"Ġz":5368,"atory":5369,"ichael":5370,"Ġprint":5371,"Ġascertain":5372,"Ġunf":5373,"try":5374,"Ġeverywhere":5375,"ĠWARRAN":5376,"Ġcontact":5377,"Ġformerly":5378,"ĠEX":5379,"Ġjustly":5380,"avid":5381,"Ġ19":5382,"Ġantinom":5383,"Ġelsewhere":5384,"Ġobtaining":5385,"Ġelementary":5386,"Ġacquired":5387,"Ġspontaneously":5388,"Ġflow":5389,"68":5390,"AG":5391,"sch":5392,"Ġwa":5393,"Ġincomp":5394,"Ġonline":5395,"Ġsuit":5396,"irth":5397,"resist":5398,"Ġroyal":5399,"Ġtried":5400,"Ġbelow":5401,"Ġcontempt":5402,"Ġassent":5403,"Ġphilosoph":5404,"Ġmodern":5405,"Ġfees":5406,"Ġentertain":5407,"Ġconformably":5408,"Ġarrived":5409,"Ġelabor":5410,"Ġreaders":5411,"Ġequip":5412,"Ġposted":5413,"Ġprovince":5414,"ITED":5415,"Ġconfirmation":5416,"ikes":5417,"Ġmulti":5418,"ĠNothing":5419,"Ġmoderate":5420,"Ġtaught":5421,"ILITY":5422,"IMITED":5423,"AMAG":5424,"soluble":5425,"mist":5426,"rog":5427,"Ġsite":5428,"icability":5429,"Ġboast":5430,"Ġtouch":5431,"Ġnext":5432,"Ġego":5433,"Ġdetr":5434,"tains":5435,"ters":5436,"Ġrun":5437,"aded":5438,"Ġvice":5439,"Ġmankind":5440,"ĠPer":5441,"Ġindication":5442,"Ġsees":5443,"Ġgenerated":5444,"works":5445,"Ġneeds":5446,"Ġinfinitely":5447,"Ġsolve":5448,"arrow":5449,"Ġcoinc":5450,"Ġpassing":5451,"Ġpaths":5452,"Ġtreatment":5453,"Ġjudged":5454,"Ġcombat":5455,"Ġexcludes":5456,"Ġavoided":5457,"Ġearly":5458,"Ġinevitable":5459,"Ġopportunity":5460,"Ġfourth":5461,"Ġconfined":5462,"Ġconstantly":5463,"liminary":5464,"Whether":5465,"eared":5466,"rust":5467,"rance":5468,"sus":5469,"itles":5470,"isen":5471,"Ġpress":5472,"Ġmed":5473,"Ġmixed":5474,"ancing":5475,"Ġnamed":5476,"Ġeternal":5477,"seen":5478,"lex":5479,"oted":5480,"Ġliving":5481,"Ġlater":5482,"ogicians":5483,"ulates":5484,"Ġaltern":5485,"acting":5486,"usively":5487,"olf":5488,"taining":5489,"Ġvac":5490,"Ġsubjecting":5491,"ĠPart":5492,"ĠPRIN":5493,"Ġknowing":5494,"ieve":5495,"formed":5496,"Ġindefinitum":5497,"Ġextinction":5498,"Ġgroundless":5499,"Ġeffected":5500,"Ġpresumption":5501,"ĠEither":5502,"Ġrealization":5503,"Ġdivide":5504,"Ġcompetent":5505,"Ġresulting":5506,"Ġsolved":5507,"Ġspecific":5508,"Ġdenom":5509,"upil":5510,"Ġadds":5511,"Ġamongst":5512,"Ġpretended":5513,"Ġcorrectly":5514,"Ġconven":5515,"Ġexclusively":5516,"Ġkey":5517,"Ġdogmatist":5518,"ĠStill":5519,"Ġexperiences":5520,"Ġreceives":5521,"motion":5522,"Ġreview":5523,"Ġreckoned":5524,"Ġauthorize":5525,"indicate":5526,"ĠDivine":5527,"elements":5528,"Ġaccurate":5529,"Ġenlargement":5530,"Ġmediately":5531,"Ġprimary":5532,"Ġsubstantial":5533,"Ġinjurious":5534,"veyed":5535,"Ġprejudic":5536,"ength":5537,"assertions":5538,"ĠPhilosophy":5539,"Ġsacrifice":5540,"Metaphys":5541,"No":5542,"OD":5543,"OL":5544,"SIS":5545,"Understanding":5546,"ault":5547,"apon":5548,"bound":5549,"circ":5550,"critique":5551,"furn":5552,"hope":5553,"ii":5554,"ihil":5555,"mong":5556,"mechan":5557,"pperception":5558,"powers":5559,"rather":5560,"want":5561,"insepar":5562,"rept":5563,"itation":5564,"itative":5565,"Ġcour":5566,"anim":5567,"Ġconnexion":5568,"ston":5569,"stead":5570,"impress":5571,"Ġexempt":5572,"Ġexceptions":5573,"Ġexcell":5574,"Ġannex":5575,"Ġlic":5576,"Ġlur":5577,"ĠĠĠĠĠĠ":5578,"throw":5579,"ulation":5580,"empl":5581,"emonstr":5582,"embr":5583,"ament":5584,"about":5585,"Ġours":5586,"notions":5587,"Ġsoph":5588,"ideal":5589,"Ġformation":5590,"pract":5591,"suppose":5592,"Ġcognizing":5593,"Ġqua":5594,"exper":5595,"cap":5596,"unt":5597,"unavoidable":5598,"ĠĠĠĠĠĠĠĠĠĠĠĠĠĠĠĠĠ":5599,"yss":5600,"Ġphaenomenon":5601,"ĠNor":5602,"aggreg":5603,"Ġpresently":5604,"Ġassure":5605,"Ġlimiting":5606,"forms":5607,"formula":5608,"others":5609,"within":5610,"Ġmodel":5611,"âĢĿâĢĶ":5612,"Ġenounces":5613,"assum":5614,"Ġoriginating":5615,"Ġentitle":5616,"determinate":5617,"Ġinvalid":5618,"fulness":5619,"Ġinfluences":5620,"Ġcogitates":5621,"ĠMoreover":5622,"ableness":5623,"phenomenal":5624,"Ġdivisibility":5625,"apply":5626,"Ġpredicated":5627,"accident":5628,"Ġconformed":5629,"Ġregressus":5630,"TITH":5631,"Ġsolid":5632,"become":5633,"ALEC":5634,"Ġinstinct":5635,"Ġharm":5636,"extent":5637,"ĠTHESIS":5638,"Ġconjoin":5639,"Ġtreating":5640,"category":5641,"Ġintrinsic":5642,"Ġoperating":5643,"Ġintuite":5644,"Ġcontinuity":5645,"Ġmomentum":5646,"Ġcomparative":5647,"Ġsupported":5648,"required":5649,"justice":5650,"olem":5651,"physico":5652,"inclinations":5653,"appears":5654,"appearance":5655,"consistency":5656,"Ġseparated":5657,"employed":5658,"ESIS":5659,"Ġfigures":5660,"confirm":5661,"presupposed":5662,"satisfactory":5663,"Ġimplied":5664,"Ġmarks":5665,"Ġdefend":5666,"ĠANAL":5667,"greater":5668,"criticism":5669,"Ġassociation":5670,"Ġdiscussions":5671,"Ġformulae":5672,"attainable":5673,"Ġsubsumption":5674,"Ġqualities":5675,"maxims":5676,"rests":5677,"Ġmoon":5678,"Ġmoving":5679,"Ġimpulse":5680,"continu":5681,"posteriori":5682,"psychological":5683,"Ġspiritual":5684,"Ġauthorized":5685,"preceding":5686,"Ġaccompany":5687,"argument":5688,"ĠMorality":5689,"concerned":5690,"dogmat":5691,"signification":5692,"ologia":5693,"deduced":5694,"ĠSECTION":5695,"philosophers":5696,"ĠDIALEC":5697,"beginning":5698,"Ġtype":5699,"source":5700,"analysis":5701,"Ġconjecture":5702,"solely":5703,"Ġwonderful":5704,"Ġrationis":5705,"Ġdecomposition":5706,"ĠÃĨsthetic":5707,"Ġheavenly":5708,"ĠGreek":5709,"Ġapodeictically":5710,"ĠChristian":5711,"apons":5712,"Ġsophism":5713,"TITHESIS":5714,"ĠDIALECTIC":5715,"ORE":5716,"aper":5717,"don":5718,"ra":5719,"rent":5720,"Ġoffer":5721,"Ġwww":5722,"erci":5723,"Ġincomplete":5724,"ctible":5725,"Ġconced":5726,"Ġdate":5727,"Ġnotice":5728,"Ġchild":5729,"haust":5730,"educ":5731,"Ġmaintaining":5732,"Ġprobability":5733,"Ġcalcul":5734,"Ġcosts":5735,"opyright":5736,"AC":5737,"ony":5738,"onically":5739,"Ġpaper":5740,"uses":5741,"Ġdisse":5742,"ĠST":5743,"Ġmyst":5744,"enses":5745,"ounced":5746,"ĠDavid":5747,"Ġshowed":5748,"HAT":5749,"Ġsolic":5750,"Ġeye":5751,"Ġfair":5752,"Ġ90":5753,"Ġopponents":5754,"Ġwriting":5755,"Ġprepare":5756,"LI":5757,"Such":5758,"ry":5759,"Ġofficial":5760,"Ġinadmissible":5761,"Ġinsoluble":5762,"Ġbirth":5763,"Ġlab":5764,"ecessity":5765,"hering":5766,"Ġtrust":5767,"Ġaccustomed":5768,"Ġrepresenting":5769,"Ġenlarge":5770,"Ġconstituting":5771,"ĠWeb":5772,"Ġconformable":5773,"Ġholder":5774,"Ġfancy":5775,"Ġirresist":5776,"Ġascend":5777,"ĠMetaphysics":5778,"Ġderivative":5779,"Ġlocated":5780,"Ġreplacement":5781,"Ġlinks":5782,"Ġyears":5783,"Ġsketch":5784,"Ġequipment":5785,"Secondly":5786,"aseless":5787,"judg":5788,"rase":5789,"sing":5790,"heres":5791,"Ġomit":5792,"Ġoppose":5793,"Ġsil":5794,"especially":5795,"Ġfixed":5796,"ancy":5797,"Ġnarrow":5798,"Ġhomogeneity":5799,"ets":5800,"cil":5801,"istotle":5802,"adox":5803,"Ġhes":5804,"Ġdece":5805,"Ġdissimilar":5806,"Ġpreliminary":5807,"ĠInformation":5808,"Ġassistance":5809,"Ġdistance":5810,"Ġowner":5811,"prove":5812,"Ġmodific":5813,"Ġthinker":5814,"Ġthinkers":5815,"Ġgreatly":5816,"Ġstrange":5817,"Ġcharacteristics":5818,"Ġcompass":5819,"Ġattains":5820,"Ġ25":5821,"Ġpassed":5822,"Ġagrees":5823,"ĠYet":5824,"Ġabstracted":5825,"ĠAristotle":5826,"Ġdeclare":5827,"Ġtranscends":5828,"Ġclasses":5829,"Ġnecessitated":5830,"Ġdeveloped":5831,"Ġrenounce":5832,"Ġadduced":5833,"Ġattraction":5834,"Ġclosely":5835,"Ġridic":5836,"Ġcultivation":5837,"Ġmodifications":5838,"Analy":5839,"Pure":5840,"Sp":5841,"bles":5842,"cent":5843,"came":5844,"iate":5845,"Ġve":5846,"Ġten":5847,"Ġtitles":5848,"itates":5849,"Ġpupil":5850,"Ġinability":5851,"Ġband":5852,"Ġreaction":5853,"Ġbetr":5854,"Ġbears":5855,"Ġbecame":5856,"stone":5857,"utic":5858,"imation":5859,"oses":5860,"Ġlength":5861,"Ġgave":5862,"qual":5863,"Ġproposes":5864,"ĠTake":5865,"Ġspurious":5866,"Ġround":5867,"adly":5868,"Ġtrack":5869,"Ġtrying":5870,"Ġvoice":5871,"sual":5872,"Ġperplex":5873,"Ġstead":5874,"Ġparticip":5875,"Ġarisen":5876,"Ġgoing":5877,"aster":5878,"Ġassist":5879,"ĠHuman":5880,"inev":5881,"Ġfell":5882,"lessness":5883,"Ġenclosed":5884,"Ġimped":5885,"Ġviews":5886,"Ġintelligent":5887,"Ġrefers":5888,"Ġadvancing":5889,"Ġcontentment":5890,"Ġdistinguishes":5891,"Ġnumbers":5892,"Ġrendering":5893,"Ġchanging":5894,"Ġintuiting":5895,"Ġstrictest":5896,"Ġpursued":5897,"Ġdeserving":5898,"Ġframe":5899,"Ġcomprehends":5900,"Ġadmixture":5901,"However":5902,"Ġirre":5903,"Ġindubit":5904,"Ġwritten":5905,"Ġinseparable":5906,"Ġbenefit":5907,"Ġcontribute":5908,"Whatever":5909,"iking":5910,"Ġexecuted":5911,"fortunately":5912,"PLES":5913,"Ġsuffer":5914,"Ġdestruction":5915,"CIPLES":5916,"Ġradical":5917,"Ġcloser":5918,"Ġmovements":5919,"Ġtechnical":5920,"Ġbetray":5921,"!\"":5922,"DUC":5923,"Leibnitz":5924,"PART":5925,"SEC":5926,"TRO":5927,"cult":5928,"dev":5929,"further":5930,"ges":5931,"harmon":5932,"logic":5933,"life":5934,"makes":5935,"nally":5936,"pute":5937,"soul":5938,"schema":5939,"treat":5940,"Ã¦":5941,"Ġtext":5942,"hes":5943,"infin":5944,"rection":5945,"reement":5946,"enevol":5947,"Ġsalt":5948,"Ġportion":5949,"Ġinex":5950,"Ġincomprehensible":5951,"Ġbind":5952,"Ġtopic":5953,"aning":5954,"annihil":5955,"utility":5956,"utterly":5957,"Ġhalf":5958,"Ġprime":5959,"theoretic":5960,"impossibility":5961,"Ġexposing":5962,"Ġexternally":5963,"essential":5964,"Ġweal":5965,"urean":5966,"ura":5967,"ogue":5968,"ifferent":5969,"ifying":5970,"three":5971,"emper":5972,"ender":5973,"igination":5974,"Ġtherefrom":5975,"adm":5976,"admitted":5977,"Ġheight":5978,"Ġimpose":5979,"ĠFIRST":5980,"exposition":5981,"excl":5982,"whose":5983,"ultaneous":5984,"universe":5985,"class":5986,"finally":5987,"previous":5988,"Ġserved":5989,"composition":5990,"Ġdiffer":5991,"Ġconnecting":5992,"Ġlimitative":5993,"mell":5994,"meaning":5995,"Ġrationalis":5996,"Ġprescribed":5997,"Ġinternally":5998,"Ġrealized":5999,"ĠDeity":6000,"Ġinvisible":6001,"thereof":6002,"ĠMOR":6003,"Ġintelligences":6004,"Ġconsiderable":6005,"Ġdeducing":6006,"evil":6007,"Ġreside":6008,"Ġphysiology":6009,"definite":6010,"Ġdirecting":6011,"ĠConcl":6012,"accomp":6013,"Ġestablishes":6014,"Ġdemonstrations":6015,"Ġlegislating":6016,"Ġawaken":6017,"simply":6018,"Ġbran":6019,"Ġinferring":6020,"examples":6021,"Ġantecedently":6022,"Ġcomparing":6023,"ĠExistence":6024,"Ġobservance":6025,"belief":6026,"pursu":6027,"Ġdeliber":6028,"Ġintroduction":6029,"Ġintroducing":6030,"Ġrestriction":6031,"commun":6032,"ĠVI":6033,"deser":6034,"production":6035,"Ġfurnished":6036,"considerations":6037,"invol":6038,"metaphysical":6039,"Ġoffers":6040,"Ġsufficiency":6041,"Ġsteps":6042,"Ġfavourable":6043,"Ġframed":6044,"presupposition":6045,"interests":6046,"belongs":6047,"original":6048,"likewise":6049,"comprehend":6050,"explain":6051,"corresponds":6052,"powerful":6053,"observed":6054,"Ġmediating":6055,"Ġcontributes":6056,"Ġqualitative":6057,"distinguishable":6058,"Ġ2002":6059,"termed":6060,"expression":6061,"ĠDoctrine":6062,"Ġtransgression":6063,"dogmatical":6064,"pretensions":6065,"Ġfrequently":6066,"shown":6067,"instead":6068,"Ġobey":6069,"convin":6070,"established":6071,"ĠSECOND":6072,"Ġsympathy":6073,"Ġforbids":6074,"leads":6075,"Ġapproximate":6076,"Ġobstacle":6077,"permanent":6078,"Ġdreams":6079,"Ġarchitectonic":6080,"ĠStoics":6081,"secure":6082,"Ġbuilding":6083,"Ġalleged":6084,"Ġembrace":6085,"Ġpropriety":6086,"Ġpatient":6087,"Ġgifts":6088,"Ġpropensity":6089,"Ġimprovement":6090,"Ġhumiliation":6091,"ativum":6092,"figure":6093,"oresaid":6094,"apodeictic":6095,"animous":6096,"DUCTION":6097,"TRODUCTION":6098,"ĠMORAL":6099,"41":6100,"EAS":6101,"Please":6102,"UND":6103,"cision":6104,"public":6105,"pgl":6106,"rules":6107,"ym":6108,"Ġmine":6109,"Ġlot":6110,"Ġabide":6111,"ĠAb":6112,"Ġchief":6113,"iece":6114,"ressed":6115,"defect":6116,"property":6117,"Ġrestrictions":6118,"ICT":6119,"Ġparagraphs":6120,"Ġcontemplation":6121,"ATIONS":6122,"Ġreveal":6123,"ription":6124,"pglaf":6125,"St":6126,"iability":6127,"Ġ***":6128,"receive":6129,"Ġelectr":6130,"let":6131,"Ġdark":6132,"Ġbegan":6133,"trademark":6134,"Ġvag":6135,"herence":6136,"ĠScience":6137,"Ġnear":6138,"ĠWhere":6139,"ĠRemark":6140,"ĠDAMAG":6141,"ĠMichael":6142,"Ġlegal":6143,"Ġneglect":6144,"Ġreadable":6145,"Ġproviding":6146,"Ġoccupation":6147,"Ġdefinitely":6148,"freely":6149,"Ġcountry":6150,"Ġmistaken":6151,"Ġpaying":6152,"Ġattacks":6153,"Ġdeeply":6154,"Ġtendency":6155,"ĠAntinomy":6156,"Ġprincipal":6157,"Ġelectronically":6158,"ĠDAMAGES":6159,"Since":6160,"bol":6161,"Ġwished":6162,"Ġrestr":6163,"Ġlicense":6164,"using":6165,"ames":6166,"Ġcompr":6167,"Ġtrace":6168,"Ġconditional":6169,"Ġstatus":6170,"Ġdeceived":6171,"Ġyield":6172,"Ġarose":6173,"Ġseven":6174,"agger":6175,"Ġcalling":6176,"icious":6177,"Ġcritic":6178,"Ġattach":6179,"ĠDIS":6180,"Ġremained":6181,"Ġtotally":6182,"Ġbelieved":6183,"Ġequality":6184,"Ġconvince":6185,"Ġsurpr":6186,"ocke":6187,"Ġadequately":6188,"Ġcreatures":6189,"ĠAnalytical":6190,"Ġsucceeded":6191,"Ġderivation":6192,"Ġserviceable":6193,"Ġfictitious":6194,"Ġantinomies":6195,"Ġmultiplicity":6196,"..":6197,"Not":6198,"So":6199,"bits":6200,"uge":6201,"Ġid":6202,"Ġinsist":6203,"Ġfate":6204,"Ġease":6205,"Ġlate":6206,"Ġsust":6207,"uries":6208,"Ġunexpected":6209,"Ġcast":6210,"Ġdoing":6211,"Ġperce":6212,"Ġste":6213,"Ġsubter":6214,"ĠGerm":6215,"Ġcontrover":6216,"Ġrequest":6217,"Ġcalls":6218,"Ġmodest":6219,"Ġprescribe":6220,"Ġcorporeal":6221,"Ġrefuse":6222,"Ġconceiving":6223,"Ġconceivable":6224,"Ġ178":6225,"Ġattempting":6226,"Ġaffects":6227,"Ġsuperfluous":6228,"Ġinquiring":6229,"Ġinvolving":6230,"Ġapproach":6231,"Therefore":6232,"Ġacquaint":6233,"Ġfri":6234,"Ġultimately":6235,"Ġestimated":6236,"Ġescap":6237,"Ġpromotion":6238,"Ġdisplaying":6239,"concepts":6240,"Ġanticipate":6241,"Ġfruitful":6242,"ĠAlthough":6243,"Ġcomputer":6244,"Ġirresistible":6245,"Ġdeceit":6246,"bal":6247,"gulative":6248,"moment":6249,"sight":6250,"ero":6251,"alle":6252,"already":6253,"Ġthou":6254,"Ġtook":6255,"Ġfatal":6256,"Ġretain":6257,"oments":6258,"Ġhttp":6259,"Ġexagger":6260,"Ġlest":6261,"ogr":6262,"ĠThen":6263,"ermediate":6264,"antly":6265,"exhib":6266,"elt":6267,"whatever":6268,"ĠAfter":6269,"Ġleaving":6270,"ĠIntrodu":6271,"ĠWill":6272,"ĠGr":6273,"Ġdistant":6274,"Ġdescribe":6275,"ĠDes":6276,"ĠMethod":6277,"ĠRegulative":6278,"Ġstrike":6279,"Ġcontradicts":6280,"Ġadvances":6281,"Ġcompels":6282,"lucid":6283,"Ġsatisfies":6284,"Ġobserving":6285,"Ġseemingly":6286,"ENCE":6287,"Ġacknowledge":6288,"Ġcontinually":6289,"Ġessay":6290,"Ġmiss":6291,"Ġthoroughness":6292,"Ġpretend":6293,"Ġobtains":6294,"ferred":6295,"Ġabstracto":6296,"Ġmanifestations":6297,"Ġconcrete":6298,"Ġorganization":6299,"Ġacquire":6300,"constitution":6301,"grounded":6302,"Ġedition":6303,"Ġdetected":6304,"Ġprobable":6305,"Ġtalk":6306,"Ġfailed":6307,"Ġinduce":6308,"Ġmistakes":6309,"Ġbeneficial":6310,"Ġperforms":6311,"Ġstrengthen":6312,"Ġfitness":6313,"Before":6314,"Ġdevoted":6315,"impenetrability":6316,"Ġfulfilled":6317,"fortune":6318,"OGIC":6319,"Ġhinder":6320,"Ġhindrance":6321,"Ġaccomplish":6322,"Ġaccomplished":6323,"rupted":6324,"Without":6325,"ĠObjects":6326,"Ġobstacles":6327,"Ġundertaking":6328,"Ġdeprive":6329,"Ġpraise":6330,"Ġdimensions":6331,"Ġexertions":6332,"added":6333,"Ġurged":6334,"Ġincompetent":6335,"ĠPRINCIPLES":6336,"Ġdenomin":6337,"15":6338,"16":6339,"ETH":6340,"Gr":6341,"METH":6342,"Tr":6343,"UD":6344,"You":6345,"autonomy":6346,"bonum":6347,"cosm":6348,"course":6349,"did":6350,"det":6351,"day":6352,"del":6353,"done":6354,"dialectic":6355,"eed":6356,"eBook":6357,"hon":6358,"hab":6359,"ians":6360,"liberty":6361,"merit":6362,"mixed":6363,"na":6364,"peculiar":6365,"spon":6366,"said":6367,"text":6368,"uit":6369,"yllogism":6370,"ĉĉ":6371,"heter":6372,"Ġaston":6373,"infinitum":6374,"introdu":6375,"Ġtheories":6376,"reckon":6377,"ening":6378,"encies":6379,"erity":6380,"Ġsize":6381,"Ġpolem":6382,"ale":6383,"icate":6384,"Ġincor":6385,"Ġinconsistency":6386,"ndeed":6387,"Ġbon":6388,"Ġburd":6389,"organ":6390,"ctory":6391,"aneity":6392,"Ġnihil":6393,"Ġelective":6394,"seem":6395,"arise":6396,"Ġprag":6397,"ivil":6398,"oss":6399,"Ġanim":6400,"jected":6401,"Ġsupposes":6402,"cient":6403,"ciated":6404,"ĠIll":6405,"ogant":6406,"ifference":6407,"perceive":6408,"thorough":6409,"uler":6410,"empiricism":6411,"Ġarena":6412,"chain":6413,"conceive":6414,"conjunction":6415,"iles":6416,"actual":6417,"ush":6418,"illion":6419,"away":6420,"Ġunit":6421,"umb":6422,"Ġcomposed":6423,"oft":6424,"Ġru":6425,"Ġrace":6426,"Ġruler":6427,"Ġsoever":6428,"Ġembarrass":6429,"transc":6430,"Ġdeterminative":6431,"Ġvit":6432,"Ġvict":6433,"arying":6434,"Ġconditionally":6435,"Ġhealth":6436,"geometr":6437,"Ġabyss":6438,"posit":6439,"ĠFundamental":6440,"exc":6441,"exception":6442,"presentation":6443,"ĠApperception":6444,"poned":6445,"ponent":6446,"Ġdispens":6447,"Ġdisgu":6448,"unable":6449,"unknown":6450,"unciation":6451,"Ġprepar":6452,"spe":6453,"Ġaround":6454,"Ġsevere":6455,"prev":6456,"agreement":6457,"oping":6458,"opinion":6459,"composite":6460,"Ġplacing":6461,"ortions":6462,"Ġgrat":6463,"ĠGood":6464,"ritical":6465,"Ġdistress":6466,"arium":6467,"prob":6468,"Ġencour":6469,"ĠRational":6470,"Ġsensibly":6471,"ĠEnd":6472,"Ġrealize":6473,"serves":6474,"Ġsensuously":6475,"Ġquanta":6476,"Ġstrives":6477,"Ġdiverse":6478,"Ġconcluding":6479,"Ġdecides":6480,"ĠLogical":6481,"ĠLOGIC":6482,"Ġresistance":6483,"Ġconsistency":6484,"Ġlogically":6485,"deutic":6486,"Ġdiscoverable":6487,"Ġclue":6488,"knows":6489,"Ġworthiness":6490,"error":6491,"Ġaccords":6492,"ĠĠĠĠĠĠĠĠĠĠĠĠĠĠĠĠĠĠĠĠĠĠĠĠĠĠ":6493,"ĠĠĠĠĠĠĠĠĠĠĠĠĠĠĠĠĠĠĠĠĠĠĠĠĠĠĠĠĠĠĠ":6494,"contempl":6495,"subjectively":6496,"aims":6497,"many":6498,"Ġideals":6499,"Ġspecially":6500,"arrang":6501,"becom":6502,"ĠPrint":6503,"Ġinstances":6504,"Ġexpectations":6505,"Ġpassive":6506,"Ġdenies":6507,"Ġallows":6508,"extensive":6509,"Ġutter":6510,"Ġespecial":6511,"Ġendeavoured":6512,"Ġyourself":6513,"giving":6514,"accordingly":6515,"Ġjustifies":6516,"Ġanalysing":6517,"discus":6518,"Ġinvolve":6519,"pensably":6520,"shall":6521,"Ġrecognise":6522,"process":6523,"justified":6524,"purposes":6525,"Ġconstructing":6526,"Ġdelusive":6527,"ocr":6528,"ocation":6529,"attention":6530,"Ġdecline":6531,"Ġletter":6532,"separate":6533,"design":6534,"productive":6535,"consists":6536,"Ġcreator":6537,"compelled":6538,"Ġsimilarity":6539,"Ġfigur":6540,"Ġproblematically":6541,"moreover":6542,"insight":6543,"specif":6544,"Ġdetailed":6545,"Ġcounsel":6546,"realization":6547,"Ġfilling":6548,"Ġfilled":6549,"Ġdefence":6550,"Ġdefici":6551,"Ġmeets":6552,"guidance":6553,"Ġsecurely":6554,"Ġfancies":6555,"greatest":6556,"advance":6557,"ators":6558,"ĠImpossibility":6559,"Ġascent":6560,"Suppose":6561,"Ġwritings":6562,"attained":6563,"Ġsentiment":6564,"Ġsentiments":6565,"Ġpunct":6566,"Ġestimating":6567,"Ġmeritorious":6568,"consequence":6569,"precedes":6570,"element":6571,"operation":6572,"Ġhistorical":6573,"ĠMetaphysic":6574,"reflection":6575,"Ġprimarily":6576,"Ġheavy":6577,"difficulty":6578,"Ġsubsists":6579,"Ġweakness":6580,"Ġesteemed":6581,"Ġconvincing":6582,"Ġfallacies":6583,"Ġobeying":6584,"establish":6585,"Ġimitated":6586,"supply":6587,"support":6588,"Ġwidely":6589,"attribute":6590,"ausible":6591,"Ġimpartial":6592,"declar":6593,"icked":6594,"statements":6595,"transition":6596,"Ġgovernment":6597,"Ġfictions":6598,"authority":6599,"unconditional":6600,"unconditionally":6601,"Ġambiguity":6602,"occupied":6603,"inquiry":6604,"inquiries":6605,"generally":6606,"absurd":6607,"answer":6608,"proportion":6609,"Ġaccompanied":6610,"destroy":6611,"Ġmundus":6612,"Ġrepeated":6613,"Ġuprightness":6614,"Ġsusceptible":6615,"PHY":6616,"Ġaforesaid":6617,"endeavour":6618,"indispensable":6619,"ĠĠĠĠĠĠĠĠĠĠĠĠĠĠĠĠĠĠĠĠĠĠĠĠĠĠĠĠĠĠĠĠĠĠĠĠĠĠĠĠĠĠĠĠĠĠĠĠĠĠ":6620,"rogative":6621,"Metaphysic":6622,"ODOL":6623,"mechanism":6624,"inseparably":6625,"Ġexcellent":6626,"embracing":6627,"experiences":6628,"aggregate":6629,"Ġsophisms":6630,"Analytic":6631,"Ã¦deutic":6632,"infinity":6633,"enevolence":6634,"accompan":6635,"METHODOL":6636,"spont":6637,"Ġpolemic":6638,"METHODOLOGY":6639,"Ar":6640,"CTIC":6641,"effort":6642,"ipp":6643,"ton":6644,"Ġastr":6645,"incre":6646,"itted":6647,"isive":6648,"Ġsl":6649,"anci":6650,"Ġaspect":6651,"active":6652,"Ġsynon":6653,"forth":6654,"ĠPRA":6655,"Ġprecision":6656,"ĠCRI":6657,"Ġdecisive":6658,"accur":6659,"practically":6660,"TIQU":6661,"arrant":6662,"Ġfalsehood":6663,"Ġoccupy":6664,"remain":6665,"THE":6666,"CEP":6667,"Ġ2001":6668,"Produ":6669,"Ġdisplayed":6670,"EMENT":6671,"Ġalteration":6672,"Ġwidest":6673,"CTICAL":6674,"ĠPRACTICAL":6675,"ĠCRITIQU":6676,"ĠCRITIQUE":6677,"access":6678,"dated":6679,"http":6680,"met":6681,"onations":6682,"inently":6683,"Ġsave":6684,"etary":6685,"actorily":6686,"Ġspecul":6687,"Ġemail":6688,"Ġtruly":6689,"Ġheat":6690,"Ġregular":6691,"artes":6692,"ĠASC":6693,"ĠCogn":6694,"Ġvalu":6695,"ĠRel":6696,"Ġentity":6697,"Ġinvent":6698,"Ġnowhere":6699,"Ġconsequent":6700,"TIES":6701,"Ġmisconception":6702,"Ġmisunderstood":6703,"Ġcopying":6704,"*****":6705,"Ġcreating":6706,"Ġpromoting":6707,"Ġsafely":6708,"Ġspecified":6709,"Ġadduce":6710,"ĠNOT":6711,"ĠPossible":6712,"ABILITY":6713,"ĠMathematics":6714,"ĠWARRANTY":6715,"ĠASCII":6716,"GRE":6717,"sur":6718,"ining":6719,"Ġtheore":6720,"Ġweb":6721,"istrib":6722,"iled":6723,"Ġunavoid":6724,"Ġspo":6725,"Ġuser":6726,"ĠAGRE":6727,"ĠPsych":6728,"attern":6729,"Ġphrase":6730,"Ġgeneration":6731,"Ġpresentation":6732,"ĠCan":6733,"avag":6734,"Ġthroughout":6735,"Ġcomplying":6736,"ĠLaw":6737,"ĠLIMITED":6738,"Ġmathematicians":6739,"Ġsignify":6740,"Ġmission":6741,"Ġlasting":6742,"Ġlastly":6743,"Ġdonate":6744,"Ġeditions":6745,"Ġfills":6746,"Ġlosing":6747,"Ġpayments":6748,"Ġstruct":6749,"Ġfruitless":6750,"Ġpenetrate":6751,"Ġhyperphysical":6752,"noumena":6753,"Ġchildren":6754,"Ġunavoidably":6755,"Em":6756,"Un":6757,"bation":6758,"fuge":6759,"uent":6760,"itus":6761,"Ġcens":6762,"Ġsaw":6763,"Ġmass":6764,"oud":6765,"Ġissu":6766,"asions":6767,"ptions":6768,"eth":6769,"irable":6770,"que":6771,"resh":6772,"ulated":6773,"Ġunite":6774,"Ġunits":6775,"Ġunsuccess":6776,"ested":6777,"Ġrig":6778,"udence":6779,"Ġcognitive":6780,"Ġconsult":6781,"Ġdead":6782,"Ġcontradistinction":6783,"Ġordinary":6784,"Ġfinding":6785,"elling":6786,"ilege":6787,"aved":6788,"ĠDetermin":6789,"Ġconceit":6790,"Ġdegr":6791,"miss":6792,"Ġnegatively":6793,"Ġjustification":6794,"Ġjudges":6795,"Ġceasing":6796,"Ġleading":6797,"Ġparadox":6798,"Ġ35":6799,"Ġarbitrarily":6800,"Ġfurnishes":6801,"Ġfacil":6802,"satisfied":6803,"Ġdiscussed":6804,"Ġincreased":6805,"Ġexcite":6806,"ĠNatural":6807,"Ġspecifically":6808,"ĠIdealism":6809,"Ġrecommend":6810,"Ġcenturies":6811,"ĠProblem":6812,"Ġarchetype":6813,"Ġoverlooked":6814,"Ġconcede":6815,"Ġsubterfuge":6816,"Ġacquaintance":6817,"General":6818,"He":6819,"Ide":6820,"Nevertheless":6821,"SIC":6822,"Some":6823,"aught":6824,"cr":6825,"founded":6826,"ken":6827,"lable":6828,"ng":6829,"nis":6830,"numer":6831,"recogn":6832,"Ġpubl":6833,"Ġparent":6834,"Ġmar":6835,"Ġfelt":6836,"Ġred":6837,"Ġlays":6838,"Ġlogicians":6839,"ulous":6840,"concre":6841,"ading":6842,"Ġundertake":6843,"Ġdeterminability":6844,"Ġvision":6845,"phib":6846,"Ġstake":6847,"Ġstage":6848,"ĠAgain":6849,"Ġappell":6850,"Ġdisapp":6851,"Ġpartial":6852,"ĠSe":6853,"Ġselect":6854,"ĠWolf":6855,"iversal":6856,"roken":6857,"Ġactuality":6858,"Ġfeet":6859,"Ġyoung":6860,"Ġrealities":6861,"Ġsimpl":6862,"Ġsecuring":6863,"Ġoriginates":6864,"Ġhereafter":6865,"Ġ13":6866,"Ġrespon":6867,"Ġsupplies":6868,"Ġsatisfying":6869,"Ġsuccessful":6870,"Ġpleases":6871,"Ġestablishing":6872,"contest":6873,"Ġdemonstrating":6874,"ĠSubject":6875,"Ġexplains":6876,"Ġhopes":6877,"Ġoblige":6878,"Ġfallen":6879,"Ġdemanding":6880,"Ġdemanded":6881,"Ġthoroughgoing":6882,"bling":6883,"telligence":6884,"Ġstrictness":6885,"Ġdistinguishable":6886,"Ġpursuing":6887,"physics":6888,"Ġintroduces":6889,"appearances":6890,"Ġmanifests":6891,"III":6892,"Ġsooner":6893,"Ġ45":6894,"Ġdispense":6895,"Ġaccepting":6896,"ipse":6897,"Ġconflicts":6898,"Ġprevented":6899,"conceivable":6900,"Ġdiscussing":6901,"occur":6902,"Ġapparently":6903,"Ġgladly":6904,"Ġrevolution":6905,"Ġcrude":6906,"ĠMoral":6907,"Ġspecification":6908,"Ġmoderation":6909,"Ġsacred":6910,"Ġprepared":6911,"Ġprejudice":6912,"Ġdepartment":6913,"Ġexercises":6914,"Ġexercised":6915,"Ġanthropomorph":6916,"Ġteachers":6917,"ĠPossibility":6918,"Ġunbounded":6919,"Ġinfallibly":6920,"Ġstruggle":6921,"Ġzero":6922,"Ġ199":6923,"hausted":6924,"Ġcontroversy":6925,"allel":6926,"ogram":6927,"Ġunsuccessful":6928,"22":6929,"?âĢĶ":6930,"At":6931,"APHY":6932,"Both":6933,"ET":6934,"FL":6935,"ION":6936,"Ph":6937,"Per":6938,"Respect":6939,"Small":6940,"See":6941,"VIS":6942,"_âĢĶ":6943,"acious":6944,"bed":6945,"bar":6946,"bring":6947,"between":6948,"cin":6949,"certitude":6950,"dle":6951,"dut":6952,"ean":6953,"ego":6954,"favour":6955,"field":6956,"had":6957,"hip":6958,"judge":6959,"joined":6960,"last":6961,"little":6962,"lines":6963,"mag":6964,"making":6965,"net":6966,"oe":6967,"oved":6968,"popular":6969,"ries":6970,"rown":6971,"spr":6972,"sort":6973,"tent":6974,"times":6975,"ux":6976,"uct":6977,"uum":6978,"void":6979,"varying":6980,"ware":6981,"xis":6982,"yield":6983,"Ġaut":6984,"Ġaxis":6985,"intr":6986,"insufficient":6987,"receptivity":6988,"itiz":6989,"itory":6990,"isk":6991,"iss":6992,"enough":6993,"enable":6994,"encing":6995,"atir":6996,"Ġwarn":6997,"Ġwicked":6998,"Ġcatal":6999,"Ġcertitude":7000,"Ġpol":7001,"altogether":7002,"Ġinsp":7003,"Ġbenevolence":7004,"Ġtol":7005,"Ġmal":7006,"anc":7007,"Ġrefin":7008,"Ġreply":7009,"Ġrevel":7010,"Ġrelease":7011,"Ġreserve":7012,"Ġdas":7013,"Ġdatum":7014,"osing":7015,"Ġanxi":7016,"Ġlow":7017,"Ġlime":7018,"ows":7019,"Ġweaken":7020,"Ġweapons":7021,"ibilis":7022,"ldom":7023,"Ġgot":7024,"Ġwithdraw":7025,"ĠID":7026,"ĠIndeed":7027,"version":7028,"Ġorigination":7029,"iful":7030,"third":7031,"Ġprolong":7032,"ulsion":7033,"pping":7034,"actually":7035,"amp":7036,"amples":7037,"Ġuncertainty":7038,"Ġunpleasant":7039,"Ġunattainable":7040,"Ġunfortunately":7041,"ansition":7042,"Ġric":7043,"Ġrare":7044,"triangle":7045,"Ġvisible":7046,"primitive":7047,"piric":7048,"suasion":7049,"antinomy":7050,"Ġperpet":7051,"Ġquoad":7052,"Ġreluct":7053,"presents":7054,"ĠAmong":7055,"acities":7056,"Ġsubjection":7057,"Ġdissatisfaction":7058,"),âĢĿ":7059,"soon":7060,"Ġprecise":7061,"Ġprerogative":7062,"Ġlevel":7063,"close":7064,"teaches":7065,"Ġarms":7066,"Ġsubdiv":7067,"Ġsubdivision":7068,"ĠNeither":7069,"Ġseldom":7070,"precept":7071,"precisely":7072,"agon":7073,"agogic":7074,"matic":7075,"ĠInstead":7076,"duc":7077,"Ġgroping":7078,"Ġcontrol":7079,"Ġposit":7080,"ishments":7081,"Ġdesert":7082,"Ġmodi":7083,"Ġcategorically":7084,"Ġprescribing":7085,"ĠEach":7086,"objections":7087,"Ġrealizing":7088,"reasons":7089,"sym":7090,"avity":7091,"Ġsimultaneous":7092,"Ġsecurity":7093,"assign":7094,"therein":7095,"ĠMon":7096,"ĠMET":7097,"Ġapagogic":7098,"Ġrefuted":7099,"Ġstrikes":7100,"evidence":7101,"Ġcompares":7102,"Ġdeciding":7103,"tenance":7104,"Ġmathematician":7105,"undetermined":7106,"ĠUltimate":7107,"Ġdepending":7108,"relatively":7109,"Ġdefines":7110,"Ġderives":7111,"Ġarrives":7112,"Ġseeming":7113,"Ġlegality":7114,"Ġanalyse":7115,"Ġcontingently":7116,"Ġfinality":7117,"Ġremarked":7118,"Ġcorrespondence":7119,"Ġsouls":7120,"maj":7121,"Ġaffirmations":7122,"Ġpostponed":7123,"Ġconducts":7124,"completed":7125,"granted":7126,"Ġprogressus":7127,"party":7128,"misunderstanding":7129,"ĠĠĠĠĠĠĠĠĠĠĠĠĠĠĠĠĠĠĠĠĠĠĠĠĠĠĠĠĠĠĠĠĠĠĠĠĠĠĠĠĠĠ":7130,"extend":7131,"Ġharmonious":7132,"giver":7133,"happy":7134,"Ġpretension":7135,"discursive":7136,"Ġabsent":7137,"irdly":7138,"Ġchooses":7139,"whereas":7140,"Ġtransitory":7141,"legitimate":7142,"Ġobservable":7143,"Ġrequisites":7144,"Ġdesignation":7145,"Ġhelps":7146,"Ġsuppositions":7147,"Ġintroduced":7148,"Ġexactness":7149,"properties":7150,"Ġrestricting":7151,"Ġrestrictive":7152,"ifices":7153,"attack":7154,"desires":7155,"Ġchem":7156,"produces":7157,"quantities":7158,"Ġoffender":7159,"compared":7160,"constitutes":7161,"rence":7162,"Ġputting":7163,"picion":7164,"presuppose":7165,"interested":7166,"Ġdominion":7167,"dependent":7168,"dependence":7169,"demonstrated":7170,"ouncement":7171,"Ġarrangements":7172,"guard":7173,"discoverable":7174,"provided":7175,"Ġaccession":7176,"investigations":7177,"Ġirrational":7178,"observ":7179,"occasion":7180,"Ġhumbles":7181,"claims":7182,"Ġbenefic":7183,"motives":7184,"theoretically":7185,"Ġdiscerned":7186,"Why":7187,"proceeds":7188,"proceeding":7189,"Ġelevation":7190,"Ġantithetic":7191,"Ġearths":7192,"Princi":7193,"Practical":7194,"postulates":7195,"Ġnecessitation":7196,"Ġcapacities":7197,"Ġremoving":7198,"attempts":7199,"Ġconfirms":7200,"Ġconfirmed":7201,"Ġcrime":7202,"Ġestimation":7203,"Ġprofessed":7204,"indicates":7205,"Ġomnis":7206,"legislative":7207,"feelings":7208,"assertion":7209,"Ġteaching":7210,"hypothetical":7211,"Ġpromotive":7212,"Ġenlarged":7213,"Ġ60":7214,"ĠEpicurean":7215,"obliged":7216,"Ġgradual":7217,"IRD":7218,"passing":7219,"problems":7220,"Ġprotected":7221,"Ġobviously":7222,"conviction":7223,"Ġdeclaring":7224,"Ġdeclaration":7225,"Ġdeclarations":7226,"requirements":7227,"ĠDIVIS":7228,"Ġtaut":7229,"Ġdescending":7230,"Ġimpression":7231,"Ġforbidden":7232,"Ġchimera":7233,"ĠObjective":7234,"volition":7235,"Ġhardly":7236,"permanence":7237,"Ġunceasingly":7238,"Ġpenetration":7239,"anthropomorph":7240,"ĠStoic":7241,"Ġreveals":7242,"Ġdiminish":7243,"Ġdiminished":7244,"Ġratiocin":7245,"reciprocal":7246,"arbitrary":7247,"combination":7248,"combined":7249,"Ġextremely":7250,"obtained":7251,"ĠVIII":7252,"Ġaccompanies":7253,"noumenon":7254,"Ġarchetyp":7255,"Ġmutually":7256,"ANTITHESIS":7257,"affected":7258,"counter":7259,"changes":7260,"demanded":7261,"ulgence":7262,"semble":7263,"Ġreconciled":7264,"Ġrashly":7265,"Ġomnipotent":7266,"derived":7267,"Ġbeauty":7268,"profess":7269,"sophistical":7270,"Ġwaver":7271,"suspicion":7272,"Ġprejudicial":7273,"impressions":7274,"Ġannexed":7275,"emonstrable":7276,"OREM":7277,"ercium":7278,"harmony":7279,"Ġsaltus":7280,"Ġbinding":7281,"convinced":7282,"ĠMORALS":7283,"Ġburden":7284,"Ġdispensed":7285,"prevent":7286,"becomes":7287,"discussion":7288,"concreto":7289,"phiboly":7290,"APHYSIC":7291,"duties":7292,"ĠMETAPHYSIC":7293,"ĠDIVISION":7294,"50":7295,"71":7296,"IES":7297,"OS":7298,"PRO":7299,"creat":7300,"load":7301,"oose":7302,"slet":7303,"Ġeduc":7304,"Ġsw":7305,"Ġpiece":7306,"Ġinsufficiency":7307,"entity":7308,"arm":7309,"Ġliability":7310,"ĠIF":7311,"permitted":7312,"Ġprohib":7313,"erms":7314,"fects":7315,"Ġmodification":7316,"Ġexpense":7317,"ĠEND":7318,"Ġviewing":7319,"Ġinfring":7320,"Ġ11":7321,"ĠUSE":7322,"TIVE":7323,"Ġinvestigated":7324,"Ġprofit":7325,"THER":7326,"Ġdestroyed":7327,"Ġdetach":7328,"Ġdownload":7329,"Ġcontributions":7330,"Ġsentence":7331,"Ġcurrent":7332,"Ġnumerous":7333,"methods":7334,"Ġcredit":7335,"Ġmachine":7336,"donate":7337,"ymous":7338,"OSE":7339,"TRA":7340,"TRI":7341,"ees":7342,"fund":7343,"lain":7344,"rain":7345,"your":7346,"orn":7347,"anill":7348,"Ġreferences":7349,"Ġredistrib":7350,"ĠIND":7351,"istered":7352,"ĠBE":7353,"ĠBRE":7354,"Ġregistered":7355,"Ġship":7356,"Ġquit":7357,"ĠAct":7358,"ĠCa":7359,"Ġowns":7360,"Ġago":7361,"ĠRoyal":7362,"Ġexpenses":7363,"keep":7364,"ĠDonations":7365,"Ġsatisfactorily":7366,"ĠSub":7367,"mail":7368,"Ġadding":7369,"Ġaddress":7370,"RECT":7371,"Ġdogmatically":7372,"Ġperforming":7373,"Ġpersuade":7374,"Ġillustrate":7375,"Ġcomplaint":7376,"Ġdry":7377,"Ġinherent":7378,"Ġdamages":7379,"Ġprinted":7380,"ACH":7381,"Ġsolicit":7382,"States":7383,"TRIB":7384,"anilla":7385,"ĠBREACH":7386,"17":7387,"dict":7388,"fety":7389,"ock":7390,"Ġsedu":7391,"Ġpattern":7392,"iver":7393,"vert":7394,"ilt":7395,"Ġtroub":7396,"Ġshad":7397,"ĠFinally":7398,"Ġpersist":7399,"Ġartic":7400,"ĠSen":7401,"Ġpossessions":7402,"Ġhands":7403,"Ġresting":7404,"ĠLocke":7405,"Ġimages":7406,"Ġinvestigating":7407,"Ġspecious":7408,"Ġcareful":7409,"Ġadopting":7410,"Ġcollected":7411,"Ġsafety":7412,"Ġmistake":7413,"Ġextravag":7414,"ĠMetaphysical":7415,"Ġbooks":7416,"Ġundertaken":7417,"Ġelaboration":7418,"ĠRelation":7419,"Ġstructure":7420,"):":7421,"40":7422,"Critique":7423,"Hume":7424,"bered":7425,"rs":7426,"Ġtone":7427,"Ġomitted":7428,"Ġsaved":7429,"Ġinhering":7430,"Ġdoubted":7431,"Ġbeg":7432,"arce":7433,"Ġhit":7434,"verted":7435,"ogies":7436,"usality":7437,"Ġhast":7438,"aments":7439,"Ġunites":7440,"Ġuniting":7441,"Ġspr":7442,"stands":7443,"elve":7444,"Ġjur":7445,"Ġjud":7446,"Ġconsent":7447,"acle":7448,"Ġdeceive":7449,"ĠSc":7450,"ĠSee":7451,"izable":7452,"ĠCause":7453,"Ġowing":7454,"Ġdesirable":7455,"Ġoutset":7456,"Ġlikely":7457,"Ġdivisions":7458,"Ġassumptions":7459,"Ġsupplying":7460,"Ġcontented":7461,"knowled":7462,"Ġattributing":7463,"Ġprevents":7464,"Ġdistinctions":7465,"ails":7466,"Ġfalling":7467,"Ġadvantageous":7468,"Ġtransfer":7469,"Ġcomprehension":7470,"Ġ40":7471,"Ġscarce":7472,"Ġplainly":7473,"lightened":7474,"Ġperformed":7475,"Ġpopularity":7476,"Ġpersuaded":7477,"Ġtwelve":7478,"Ġbuilt":7479,"Ġculture":7480,"Ġconfession":7481,"Ġsuffic":7482,"Ġchimeras":7483,"Ġcredential":7484,"ĠQuant":7485,"Ġcoincide":7486,"Ġbranches":7487,"Ġfriends":7488,"Ġdeceitful":7489,"Empirical":7490,"Ġissue":7491,"42":7492,"Al":7493,"Ca":7494,"Finally":7495,"IV":7496,"Is":7497,"Necessity":7498,"PEND":7499,"aordin":7500,"fits":7501,"iant":7502,"lated":7503,"lier":7504,"pone":7505,"ub":7506,"uary":7507,"hel":7508,"Ġost":7509,"Ġcut":7510,"Ġincontest":7511,"Ġbaseless":7512,"orous":7513,"Ġmaster":7514,"Ġmoments":7515,"Ġfire":7516,"Ġflu":7517,"anuary":7518,"Ġell":7519,"Ġelucid":7520,"ouch":7521,"Ġresolution":7522,"Ġdrop":7523,"Ġduring":7524,"iven":7525,"Ġnote":7526,"Ġlar":7527,"Ġwealth":7528,"ibus":7529,"ciences":7530,"ogmat":7531,"ander":7532,"Ġintend":7533,"Ġalike":7534,"hens":7535,"Ġrises":7536,"Ġsensual":7537,"omena":7538,"prudence":7539,"Ġstopp":7540,"Ġadhere":7541,"Ġappeared":7542,"Ġdeed":7543,"Ġindivid":7544,"Ġprem":7545,"Ġparte":7546,"strained":7547,"intention":7548,"Ġserving":7549,"Ġbelonged":7550,"Ġpresum":7551,"ĠEn":7552,"ĠEle":7553,"angles":7554,"Ġapplicability":7555,"Ġattaching":7556,"ouncing":7557,"ĠDogmat":7558,"Ġimpelled":7559,"ĠProleg":7560,"Ġhereby":7561,"ĠMot":7562,"Ġtruths":7563,"Ġconsisting":7564,"Ġconfound":7565,"Ġstandpoint":7566,"Ġneeded":7567,"Ġasserts":7568,"Ġasserting":7569,"Ġboundary":7570,"Ġantiqu":7571,"ĠSuppose":7572,"Ġpassages":7573,"Ġmaterialism":7574,"Ġaffection":7575,"Ġvariance":7576,"Ġfals":7577,"Ġbrain":7578,"Ġauthors":7579,"Ġparallel":7580,"Ġinscr":7581,"Ġsurvey":7582,"ighb":7583,"Ġblamed":7584,"ĠJanuary":7585,"Ġearlier":7586,"Ġseparation":7587,"Ġcreations":7588,"Ġsubtlety":7589,"Ġplane":7590,"Ġplanets":7591,"Ġlaying":7592,"Ġimplanted":7593,"xioms":7594,"subsisting":7595,"Ġabsurdity":7596,"Ġinduction":7597,"Ġsubsume":7598,"Ġextraordin":7599,"Ġprosper":7600,"Ġdevi":7601,"Ġcalm":7602,"Ġsuggested":7603,"defined":7604,"Ġillustration":7605,"Ġsubsistence":7606,"ĠWho":7607,"Ġattract":7608,"Ġgranting":7609,"Ġrecommended":7610,"Ġanthropology":7611,"Ġdestructive":7612,"Ġparalogisms":7613,"Ġmutual":7614,"Ġfooting":7615,"ĠMathematical":7616,"Ġenumeration":7617,"Ġappropriate":7618,"Ġomnipotence":7619,"Ġdissection":7620,"Ġfairly":7621,"Ġlaborious":7622,"Ġridiculous":7623,"Ġparticipation":7624,"Ġindubitable":7625,"Ġrestrain":7626,"Ġsurprising":7627,"ĠPsychology":7628,"Ideal":7629,"Ġappellation":7630,"Ġscarcely":7631,"Ġinscrutable":7632,"Ġextraordinary":7633,"'t":7634,".âĢĶ":7635,"18":7636,"Act":7637,"Author":7638,"Again":7639,"BL":7640,"BS":7641,"Besides":7642,"Happ":7643,"ITION":7644,"Mat":7645,"NAL":7646,"NOM":7647,"OF":7648,"OBS":7649,"Sy":7650,"Time":7651,"UM":7652,"VATIONS":7653,"YTIC":7654,"authoriz":7655,"bet":7656,"bene":7657,"cest":7658,"coin":7659,"divers":7660,"danger":7661,"ey":7662,"fl":7663,"fr":7664,"fal":7665,"fut":7666,"fill":7667,"fold":7668,"function":7669,"fixed":7670,"gue":7671,"holy":7672,"horizon":7673,"ips":7674,"iatus":7675,"king":7676,"lest":7677,"lie":7678,"lication":7679,"losing":7680,"mem":7681,"medi":7682,"pel":7683,"pun":7684,"pared":7685,"parent":7686,"ration":7687,"sk":7688,"sent":7689,"sciousness":7690,"smell":7691,"ta":7692,"tow":7693,"test":7694,"tempt":7695,"takes":7696,"taken":7697,"uating":7698,"van":7699,"vention":7700,"wit":7701,"xious":7702,"Ġrom":7703,"Ġign":7704,"Ġtemper":7705,"held":7706,"hetical":7707,"Ġaught":7708,"once":7709,"onical":7710,"inent":7711,"inner":7712,"incapable":7713,"inferences":7714,"inconsistent":7715,"incomprehensible":7716,"reconci":7717,"revol":7718,"referred":7719,"itute":7720,"ithetic":7721,"isy":7722,"isition":7723,"enjoy":7724,"ateness":7725,"Ġwings":7726,"Ġwoe":7727,"erate":7728,"erke":7729,"erably":7730,"Ġcustom":7731,"Ġcivil":7732,"Ġsor":7733,"Ġsan":7734,"Ġsig":7735,"Ġsine":7736,"Ġsmo":7737,"Ġsoft":7738,"Ġpot":7739,"Ġpet":7740,"Ġpays":7741,"Ġpages":7742,"Ġpair":7743,"Ġportions":7744,"aled":7745,"ica":7746,"Ġinan":7747,"Ġincap":7748,"Ġbes":7749,"Ġball":7750,"Ġthrown":7751,"oric":7752,"Ġmer":7753,"Ġmoun":7754,"Ġmixture":7755,"Ġflat":7756,"anence":7757,"anqu":7758,"anks":7759,"Ġep":7760,"Ġecon":7761,"Ġreception":7762,"Ġreport":7763,"Ġrestraint":7764,"Ġreverse":7765,"ley":7766,"Ġdi":7767,"Ġdread":7768,"Ġdwell":7769,"stances":7770,"streng":7771,"ometer":7772,"entitled":7773,"arum":7774,"arles":7775,"arched":7776,"asus":7777,"utiful":7778,"Ġhollow":7779,"llog":7780,"imb":7781,"imacy":7782,"Ġancest":7783,"Ġlive":7784,"Ġlof":7785,"Ġlives":7786,"Ġlively":7787,"Ġlimb":7788,"ĠĠĠĠĠ":7789,"Ġforget":7790,"ceptive":7791,"Ġwithdrawn":7792,"uristic":7793,"quality":7794,"quire":7795,"erence":7796,"ecided":7797,"perform":7798,"thics":7799,"Ġintellect":7800,"chief":7801,"pleteness":7802,"Ġalge":7803,"usual":7804,"Ġhabits":7805,"illusions":7806,"illiant":7807,"Ġunlaw":7808,"Ġunconscious":7809,"Ġuninter":7810,"Ġunansw":7811,"Ġunobserved":7812,"Ġunmixed":7813,"Ġunvarying":7814,"plain":7815,"abandon":7816,"Ġ(_":7817,"ummum":7818,"umbling":7819,"Ġthereon":7820,"Ġlawgiver":7821,"Ġspare":7822,"Ġcompos":7823,"Ġcomfor":7824,"Ġcomponent":7825,"notwithstanding":7826,"terable":7827,"terior":7828,"often":7829,"Ġrob":7830,"Ġrising":7831,"Ġrisk":7832,"Ġsoci":7833,"ads":7834,"ades":7835,"ĠBel":7836,"ĠBOOK":7837,"ounds":7838,"Ġheuristic":7839,"orial":7840,"Ġimpract":7841,"indu":7842,"indifferent":7843,"allow":7844,"priv":7845,"Ġexperienced":7846,"posited":7847,"Ġregulate":7848,"antom":7849,"ĠFUND":7850,"artic":7851,"Ġquid":7852,"Ġstability":7853,"ordination":7854,"ourth":7855,"Ġadvers":7856,"Ġappet":7857,"caution":7858,"force":7859,"Ġdisregard":7860,"ĠPerm":7861,"ĠPers":7862,"ĠPost":7863,"united":7864,"too":7865,"Ġindul":7866,"Ġindemonstrable":7867,"Ġye":7868,"ĠThought":7869,"ictions":7870,"Ġpartiality":7871,"Ġleap":7872,"strum":7873,"Ġcharact":7874,"teaching":7875,"Ġargu":7876,"ĠĠĠĠĠĠĠĠĠĠĠĠĠĠĠĠĠĠĠĠĠĠĠĠĠĠĠĠĠĠĠĠĠĠĠĠĠĠĠ":7877,"ĠSom":7878,"ĠSome":7879,"pposites":7880,"Ġsubmitted":7881,"Ġsubrept":7882,"agement":7883,"ĠOp":7884,"Ġserious":7885,"possibly":7886,"coming":7887,"Ġdiffers":7888,"Ġdiffered":7889,"Ġnothingness":7890,"Ġplausible":7891,"reator":7892,"Ġgrate":7893,"Ġgross":7894,"ĠGos":7895,"ĠCertain":7896,"ĠCosm":7897,"ĠCritical":7898,"Ġfirstly":7899,"Ġremed":7900,"proving":7901,"Ġacted":7902,"Ġdescribed":7903,"Ġordains":7904,"overt":7905,"overty":7906,"Ġenabl":7907,"ĠRespect":7908,"earance":7909,"having":7910,"Ġamid":7911,"Ġamphiboly":7912,"Ġmatured":7913,"ĠDO":7914,"ĠDate":7915,"ĠDuty":7916,"ĠDifference":7917,"assume":7918,"assumption":7919,"Ġinviol":7920,"thereto":7921,"Ġconceptus":7922,"Ġintelligibilis":7923,"Ġrefutation":7924,"Ġcontradictorily":7925,"event":7926,"Ġcompel":7927,"Ġconcludes":7928,"Ġ100":7929,"contradistinction":7930,"ERVATIONS":7931,"Ġconfounded":7932,"Ġattainable":7933,"undity":7934,"ĠUND":7935,"Ġdiscovers":7936,"Ġaffair":7937,"Ġmotions":7938,"represented":7939,"Intelligence":7940,"Ġstanding":7941,"relates":7942,"Ġarrogant":7943,"disposed":7944,"dispute":7945,"Ġimagin":7946,"Ġlegally":7947,"subordinated":7948,"Ġneedless":7949,"Ġguess":7950,"Ġguides":7951,"Ġguided":7952,"Ġguiding":7953,"TINOM":7954,"ĠĠĠĠĠĠĠĠĠĠĠĠĠĠĠĠĠĠĠĠĠĠĠĠĠ":7955,"ĠĠĠĠĠĠĠĠĠĠĠĠĠĠĠĠĠĠĠĠĠĠĠĠĠĠĠĠĠĠ":7956,"Ġnegativum":7957,"Ġassertor":7958,"Ġassertorical":7959,"subjected":7960,"oval":7961,"doctr":7962,"ĠTHIRD":7963,"TERNAL":7964,"Ġcoal":7965,"morally":7966,"ailing":7967,"completion":7968,"Ġdeductions":7969,"Ġhero":7970,"Ġmisled":7971,"Ġmisconceptions":7972,"obsc":7973,"grat":7974,"Ġlooks":7975,"partly":7976,"particip":7977,"distinct":7978,"ĠTHEOREM":7979,"Ġcircular":7980,"Ġunden":7981,"Ġundermin":7982,"Ġesse":7983,"Ġbrilliant":7984,"ontological":7985,"everyone":7986,"happen":7987,"ruption":7988,"morals":7989,"Ġvolunt":7990,"ignorance":7991,"discern":7992,"Ġmathematically":7993,"bra":7994,"Ġceases":7995,"whereby":7996,"Ġcontinues":7997,"Ġcontinuum":7998,"Ġantecede":7999,"Ġcomparatively":8000,"Ġtransformed":8001,"Ġcombine":8002,"substant":8003,"prescribes":8004,"Ġtranscendentally":8005,"ĠUniversal":8006,"requis":8007,"justify":8008,"Ġdesigns":8009,"believe":8010,"rowd":8011,"Ġevils":8012,"Ġbliss":8013,"ĠArgum":8014,"Ġrestricts":8015,"ificent":8016,"community":8017,"Ġraising":8018,"Ġtests":8019,"INTRODUCTION":8020,"employing":8021,"containing":8022,"Ġacquisition":8023,"Ġhypothetically":8024,"Ġputs":8025,"divisibility":8026,"faculties":8027,"possession":8028,"confess":8029,"conflict":8030,"thinks":8031,"Ġindispensably":8032,"insically":8033,"Ġhappening":8034,"Ġconvers":8035,"Ġconvert":8036,"Ġconversion":8037,"kinds":8038,"Ġannihilates":8039,"Ġadmire":8040,"sensations":8041,"conformable":8042,"conformably":8043,"enetrable":8044,"characteristic":8045,"characteristics":8046,"contentment":8047,"demonstrative":8048,"Ġdefault":8049,"ĠANTINOM":8050,"Ġfanci":8051,"critic":8052,"Ġmajesty":8053,"province":8054,"Ġopened":8055,"Ġassigns":8056,"Ġinduced":8057,"Supposing":8058,"Ġsucceeding":8059,"particularly":8060,"Ġborrowing":8061,"Ġdiscernment":8062,"Ġelevating":8063,"indefinitum":8064,"Ġmock":8065,"continuous":8066,"Ġrevol":8067,"Ġreverence":8068,"Ġangle":8069,"Only":8070,"afterwards":8071,"Ġnecessitate":8072,"Ġremoves":8073,"Ġreflecting":8074,"Ġfitted":8075,"Ġfitting":8076,"Ġcry":8077,"Ġaggregation":8078,"analyse":8079,"Ġproportioned":8080,"Ġexcused":8081,"Ġoccurred":8082,"Ġentering":8083,"Ġanimals":8084,"precede":8085,"proofs":8086,"ĠEmpty":8087,"Ġrenunciation":8088,"impul":8089,"Ġschematism":8090,"ĠCharles":8091,"Ġwondered":8092,"ĠInterest":8093,"ĠMorals":8094,"exerc":8095,"Ġhonesty":8096,"Ġhonestly":8097,"influenced":8098,"Ġsubsisting":8099,"Ġrepay":8100,"Ġdoctrinal":8101,"Ġsecretly":8102,"scepticism":8103,"signific":8104,"pretation":8105,"ĠWhatever":8106,"Ġcontemplated":8107,"Ġanticipation":8108,"deduce":8109,"Ġimitation":8110,"commonest":8111,"Ġpathologically":8112,"sufficiently":8113,"Ġabandons":8114,"Ġperiods":8115,"restriction":8116,"restricted":8117,"Ġcommunicated":8118,"ĠCompleteness":8119,"ĠCONFL":8120,"ĠpropÃ¦deutic":8121,"Ġclearer":8122,"Ġchimerical":8123,"Ġdictate":8124,"Ġdictates":8125,"maintained":8126,"AMENTAL":8127,"Ġpraised":8128,"clearness":8129,"anthropology":8130,"Ġresolve":8131,"Ġresolved":8132,"ĠTransition":8133,"Ġarchitectonical":8134,"Ġambiguous":8135,"commanded":8136,"Ġfulfilment":8137,"Ġnumerical":8138,"ĠProblems":8139,"Ġwarnings":8140,"reciprocally":8141,"Ġmonth":8142,"absence":8143,"Ġembraces":8144,"intuite":8145,"comparison":8146,"Ġmagnanimous":8147,"Ġmagnificent":8148,"Ġthreaten":8149,"Ġunbroken":8150,"anticipation":8151,"Ġimperfection":8152,"coexistence":8153,"smallest":8154,"various":8155,"Ġinstitute":8156,"Ġinstituted":8157,"Ġsusceptibility":8158,"changed":8159,"Ġhearing":8160,"ĠApplication":8161,"ĠAppearance":8162,"Ġobstinate":8163,"Ġobstinately":8164,"Ġhypostatizing":8165,"SITION":8166,"words":8167,"Ġpoison":8168,"Ġgrowth":8169,"Ġinfallible":8170,"Ġmiddle":8171,"Ġbeautiful":8172,"syllogisms":8173,"Ġselfishness":8174,"Ġcompensate":8175,"Ġguarantee":8176,"Ġguaranteed":8177,"Ġsharp":8178,"Ġunfair":8179,"Ġsuitably":8180,"Ġcombatants":8181,"Ġvacant":8182,"Ġconvenience":8183,"circle":8184,"circum":8185,"Ġcourage":8186,"Ġlurks":8187,"assumed":8188,"Ġinvalidity":8189,"Ġharmless":8190,"Ġconjoining":8191,"ĠANALYTIC":8192,"Ġhesitate":8193,"inevitable":8194,"Ġimpediments":8195,"cultiv":8196,"annihilated":8197,"ĠConclusions":8198,"Ġdeliberate":8199,"Ġvague":8200,"Nothing":8201,"Ġstepping":8202,"Ġexaggerated":8203,"ĠIntroductory":8204,"ĠGround":8205,"Ġdenominate":8206,"habit":8207,"uitous":8208,"heteronomy":8209,"Ġastonishment":8210,"reckoned":8211,"Ġboni":8212,"Ġpragmatical":8213,"ĠIllusory":8214,"Ġvictory":8215,"speaking":8216,"ocrisy":8217,"Ġfigurative":8218,"specification":8219,"declaring":8220,"accompanied":8221,"spontaneity":8222,"efforts":8223,"CEPTION":8224,"ethics":8225,"Philos":8226,"eanwhile":8227,"spring":8228,"intrinsic":8229,"atirae":8230,"Ġcatalogue":8231,"Ġanxiety":8232,"ĠIDEAS":8233,"ducive":8234,"assigned":8235,"ĠMonad":8236,"Principle":8237,"Ġomniscient":8238,"help":8239,"Ġostensive":8240,"ĠEngl":8241,"ĠDogmatism":8242,"ĠProlegomena":8243,"ighbour":8244,"Ġprosperity":8245,"Happiness":8246,"Mathemat":8247,"OBSERVATIONS":8248,"better":8249,"coinc":8250,"future":8251,"toward":8252,"Ġsignal":8253,"llogistic":8254,"Ġancestors":8255,"Ġalgebra":8256,"Ġunlawful":8257,"Ġcompositum":8258,"ĠBelief":8259,"ĠFUNDAMENTAL":8260,"Ġcharacters":8261,"Ġenabling":8262,"ĠUNDER":8263,"ĠANTINOMY":8264,"ĠCONFLICT":8265,"AD":8266,"AVE":8267,"De":8268,"EG":8269,"First":8270,"GH":8271,"NI":8272,"NITY":8273,"VI":8274,"VEN":8275,"business":8276,"culate":8277,"copyright":8278,"pite":8279,"pdated":8280,"scribe":8281,"writ":8282,"Ġcard":8283,"Ġcame":8284,"Ġpage":8285,"almost":8286,"Ġfiles":8287,"Ġlib":8288,"Ġloose":8289,"ĠIM":8290,"ulating":8291,"ĠBUT":8292,"Ġpertaining":8293,"preted":8294,"ĠInternal":8295,"ĠHAVE":8296,"ĠEVEN":8297,"ĠMis":8298,"Ġproofread":8299,"Ġmislead":8300,"Ġagreed":8301,"corrupt":8302,"ĠExcept":8303,"ĠUnless":8304,"Ġexclusion":8305,"Ġprofits":8306,"IND":8307,"THING":8308,"Ġreaching":8309,"continue":8310,"Ġreturns":8311,"Ġcalculate":8312,"Ġprotect":8313,"Ġperiodic":8314,"Ġhypertext":8315,"Ġvisual":8316,"Ġdisclaimers":8317,"Ġproprietary":8318,"CLUD":8319,"Ġroyalty":8320,"Ġcalculated":8321,"ĠSTART":8322,"Archive":8323,"Ġsynonymous":8324,"accurate":8325,"Produced":8326,"sletter":8327,"Ġprohibition":8328,"GHT":8329,"CLUDING":8330,")(":8331,"--":8332,"Foundation":8333,"Plain":8334,"ipt":8335,"license":8336,"Ġ'":8337,"atch":8338,"eral":8339,"Ġfed":8340,"edistrib":8341,"sect":8342,"ithmet":8343,"ĠTHAT":8344,"ĠTerms":8345,"odality":8346,"ĠFUL":8347,"ĠPG":8348,"ĠOther":8349,"Ġcontents":8350,"Ġemployees":8351,"ĠRedistrib":8352,"ĠLIC":8353,"ENSE":8354,"Ġcoherence":8355,"Ġ568":8356,"ĠVanilla":8357,"Ġreceipt":8358,"terms":8359,"Ġvisit":8360,"Ġdisclaimer":8361,"Ġformats":8362,"Ġroyalties":8363,"ĠDISTRIB":8364,"ĠAGREE":8365,"ĠRoyalty":8366,"Ġfederal":8367,"ĠFULL":8368,"ĠLICENSE":8369,"ĠDISTRIBUT":8370,".]":8371,"After":8372,"URE":8373,"cop":8374,"eg":8375,"fa":8376,"tered":8377,"yle":8378,"Ġ+":8379,"Ġoffered":8380,"isc":8381,"atible":8382,"Ġmove":8383,"Ġfam":8384,"Ġreaches":8385,"stance":8386,"otes":8387,"aralogism":8388,"thetic":8389,"imony":8390,"Ġlikes":8391,"Ġproc":8392,"hensibility":8393,"Ġcoming":8394,"Ġnobody":8395,"Ġstyle":8396,"ĠParalogism":8397,"Ġchall":8398,"Ġshallow":8399,"Ġeleg":8400,"Ġeasier":8401,"Ġcombines":8402,"Ġreferring":8403,"Ġkept":8404,"Ġgains":8405,"Ġmeasured":8406,"Ġrejected":8407,"Ġzeal":8408,"Ġdissect":8409,"Ġdarkness":8410,"Ġpreparation":8411,"Ġcomplaints":8412,"Ġextravagant":8413,"11":8414,"13":8415,"LE":8416,"cartes":8417,"gust":8418,"iological":8419,"put":8420,"uated":8421,"wis":8422,"Ġtempt":8423,"rew":8424,"enge":8425,"Ġcold":8426,"ican":8427,"icant":8428,"Ġinn":8429,"Ġincompre":8430,"esthetic":8431,"Ġfing":8432,"Ġfresh":8433,"Ġepo":8434,"etition":8435,"iliar":8436,"Ġaltered":8437,"pirit":8438,"ĠAesthetic":8439,"Ġdispar":8440,"Ġdisgust":8441,"ĠThose":8442,"ĠThrough":8443,"Ġchapt":8444,"ĠSh":8445,"Ġwhoever":8446,"ĠNecessity":8447,"Ġconnections":8448,"Ġmetal":8449,"Ġfacts":8450,"uteness":8451,"Ġimpenetrability":8452,"Ġinclined":8453,"Ġdecre":8454,"Ġ14":8455,"Ġ16":8456,"Ġ17":8457,"Ġ18":8458,"Ġconsistently":8459,"Ġoccasions":8460,"ignificant":8461,"Ġacuteness":8462,"Ġnegations":8463,"ĠBeyond":8464,"Ġinquires":8465,"Ġcontinual":8466,"Ġmiserable":8467,"Ġ22":8468,"Ġaffecting":8469,"Ġdestined":8470,"hapsod":8471,"Ġinsignificant":8472,"Ġoccupying":8473,"Ġdelight":8474,"Ġtestimony":8475,"Ġcarries":8476,"Ġcomprehending":8477,"Ġprivilege":8478,"veloped":8479,"Ġglance":8480,"Ġglass":8481,"Ġincreasing":8482,"Ġshortest":8483,"Ġboldly":8484,"ĠDoes":8485,"Concl":8486,"ĠEverything":8487,"versa":8488,"auung":8489,"Ġapprehended":8490,"ABLE":8491,"schauung":8492,"Ġdetriment":8493,"Ġsilence":8494,"Ġnearly":8495,"Ġidle":8496,"Ġperceives":8497,"Ġescaped":8498,"ĠDescartes":8499,"Ġspeculations":8500,"Ġepoch":8501,"Ġchapters":8502,".:":8503,".;":8504,"20":8505,"39":8506,"Cont":8507,"IX":8508,"PPEND":8509,"az":8510,"cur":8511,"hn":8512,"ios":8513,"land":8514,"md":8515,"pire":8516,"ried":8517,"uc":8518,"vi":8519,"wr":8520,"Ġtut":8521,"Ġtermin":8522,"onom":8523,"itatis":8524,"itably":8525,"Ġwander":8526,"Ġsem":8527,"icus":8528,"Ġinno":8529,"Ġincorrect":8530,"esis":8531,"Ġthrow":8532,"Ġnom":8533,"Ġnames":8534,"Ġnaught":8535,"Ġrecognition":8536,"Ġresearch":8537,"lement":8538,"entions":8539,"Ġhint":8540,"ivoc":8541,"Ġexhausted":8542,"Ġland":8543,"Ġlack":8544,"Ġlangu":8545,"ptuous":8546,"idently":8547,"etic":8548,"urance":8549,"versely":8550,"Ġintermediate":8551,"embered":8552,"Ġunw":8553,"Ġunquestion":8554,"Ġthereupon":8555,"Ġspok":8556,"adem":8557,"Ġtrave":8558,"Ġtraining":8559,"Ġvulg":8560,"ĠBec":8561,"Ġdeist":8562,"Ġdisposed":8563,"ungl":8564,"Ġarm":8565,"ĠSer":8566,"solved":8567,"imitation":8568,"Ġplans":8569,"ĠWis":8570,"ĠCoper":8571,"Ġassuring":8572,"Ġassurance":8573,"Ġfounds":8574,"Ġremind":8575,"Ġsystemat":8576,"Ġenv":8577,"Ġeffective":8578,"Ġoutline":8579,"ĠMay":8580,"Ġwherefore":8581,"Ġsummon":8582,"Ġconceives":8583,"Ġsupplement":8584,"ĠUpon":8585,"ĠOnt":8586,"Ġworthlessness":8587,"redit":8588,"Ġresulted":8589,"Ġreading":8590,"Ġanswering":8591,"Ġpostpone":8592,"Ġcosmology":8593,"Ġhoped":8594,"Ġprovision":8595,"Ġdraws":8596,"extended":8597,"Ġcorrective":8598,"blance":8599,"Ġasks":8600,"Ġceaseless":8601,"Ġcontinuance":8602,"Ġtransfers":8603,"presence":8604,"Ġsurr":8605,"Ġsurrender":8606,"Ġsurveyed":8607,"Ġcircumference":8608,"Ġseparately":8609,"Ġcarried":8610,"Ġcarrying":8611,"Ġspeaks":8612,"Ġcreate":8613,"Ġpositions":8614,"Ġgaining":8615,"Ġcollective":8616,"Ġwisely":8617,"Ġdetect":8618,"Ġarts":8619,"Ġfailing":8620,"denial":8621,"Ġstudies":8622,"Sub":8623,"Ġweighty":8624,"oubtedly":8625,"Ġcapability":8626,"Ġexcites":8627,"Ġextract":8628,"Ġdevote":8629,"Ġstronger":8630,"Ġattacking":8631,"Ġlisten":8632,"Ġheads":8633,"equal":8634,"Ġdriven":8635,"Ġclearest":8636,"Ġapproximation":8637,"Experience":8638,"Ġindefinitely":8639,"Ġerected":8640,"Ġviolence":8641,"Ġconcealed":8642,"Ġdespise":8643,"Ġcharm":8644,"Ġenumerate":8645,"Ġsubstituted":8646,"Ġtouchstone":8647,"Ġconvenient":8648,"Ġprejudices":8649,"Ġoffering":8650,"judged":8651,"single":8652,"Space":8653,"Ġperplexity":8654,"inevitably":8655,"Ġcomprises":8656,"Ġastronom":8657,"Ġtheorem":8658,"Ġcensure":8659,"Ġrigorous":8660,"Ġdisappoint":8661,"Ġsprung":8662,"Ġjuris":8663,"ĠQuantity":8664,"Although":8665,"Ġincontestably":8666,"Ġellipse":8667,"Ġelegance":8668,"Ġfingers":8669,"PPENDIX":8670,"iosity":8671,"Ġsemblance":8672,"ivocal":8673,"Ġspoken":8674,"Ġvulgar":8675,"ĠCopern":8676,"\".":8677,"*]":8678,"55":8679,"75":8680,"79":8681,"Among":8682,"Ch":8683,"EBook":8684,"Epic":8685,"Further":8686,"FIRST":8687,"Fourth":8688,"Language":8689,"LIMITED":8690,"Mor":8691,"Moreover":8692,"OP":8693,"Rational":8694,"Remark":8695,"Sto":8696,"Title":8697,"Very":8698,"Wolf":8699,"apart":8700,"aired":8701,"acies":8702,"bre":8703,"bor":8704,"bly":8705,"cal":8706,"cert":8707,"carr":8708,"cending":8709,"custom":8710,"dent":8711,"dden":8712,"dignity":8713,"eas":8714,"efficient":8715,"ease":8716,"fil":8717,"fam":8718,"fast":8719,"fici":8720,"firm":8721,"failed":8722,"fault":8723,"gen":8724,"ho":8725,"hum":8726,"hort":8727,"high":8728,"join":8729,"kal":8730,"lo":8731,"lab":8732,"mas":8733,"mber":8734,"mother":8735,"oke":8736,"opposed":8737,"pat":8738,"pus":8739,"pso":8740,"penetr":8741,"putation":8742,"pium":8743,"raid":8744,"sid":8745,"sure":8746,"sakes":8747,"tes":8748,"table":8749,"taking":8750,"touch":8751,"uation":8752,"ucid":8753,"vity":8754,"vain":8755,"verest":8756,"wart":8757,"wishes":8758,"Ġ#":8759,"Ġ80":8760,"Ġtant":8761,"Ġtear":8762,"Ġtedi":8763,"Ġtert":8764,"het":8765,"heit":8766,"Ġach":8767,"Ġaux":8768,"ino":8769,"iny":8770,"inist":8771,"inference":8772,"infer":8773,"instruction":8774,"instruct":8775,"ineness":8776,"Ġopposing":8777,"Ġopposites":8778,"Ġtheolog":8779,"rendered":8780,"recognized":8781,"reverse":8782,"reproductive":8783,"iteness":8784,"itimacy":8785,"enumer":8786,"aton":8787,"Ġwont":8788,"Ġwarrant":8789,"erion":8790,"erce":8791,"Ġcand":8792,"Ġcurs":8793,"Ġcush":8794,"Ġcitiz":8795,"Ġsag":8796,"Ġsmell":8797,"Ġpoverty":8798,"along":8799,"icial":8800,"Ġincontr":8801,"Ġinjustice":8802,"Ġinsecure":8803,"Ġinstrum":8804,"Ġban":8805,"Ġbar":8806,"Ġbro":8807,"essel":8808,"Ġthread":8809,"Ġthwart":8810,"Ġming":8811,"Ġmil":8812,"Ġmillion":8813,"cease":8814,"cember":8815,"Ġfant":8816,"Ġfund":8817,"Ġfaint":8818,"Ġfavoured":8819,"ann":8820,"animal":8821,"edifice":8822,"Ġnought":8823,"Ġecl":8824,"Ġearn":8825,"section":8826,"outh":8827,"Ġrepress":8828,"Ġresemble":8829,"leave":8830,"Ġdouble":8831,"Ġbeha":8832,"stition":8833,"sthetical":8834,"omaton":8835,"Ġwhit":8836,"otyp":8837,"asm":8838,"ascertain":8839,"utum":8840,"utious":8841,"Ġhour":8842,"Ġhiatus":8843,"Ġprince":8844,"Ġascribing":8845,"llous":8846,"theory":8847,"theologia":8848,"ivae":8849,"imid":8850,"impl":8851,"image":8852,"imilar":8853,"Ġlat":8854,"Ġliqu":8855,"Ġlament":8856,"Ġliking":8857,"Ġwear":8858,"ider":8859,"idge":8860,"Ġsuppos":8861,"Ġsuits":8862,"Ġsudden":8863,"etc":8864,"eties":8865,"etext":8866,"irte":8867,"urbed":8868,"ĠIX":8869,"quid":8870,"quacy":8871,"resistance":8872,"ivered":8873,"isturbed":8874,"thy":8875,"threat":8876,"sibilities":8877,"Ġproject":8878,"Ġintentions":8879,"Ġreasoners":8880,"empor":8881,"embarrass":8882,"Ġobjected":8883,"ĠTRAN":8884,"vellous":8885,"chimer":8886,"choice":8887,"conject":8888,"confin":8889,"conven":8890,"constant":8891,"connexion":8892,"endi":8893,"ilty":8894,"ilia":8895,"pleases":8896,"Ġalkal":8897,"acts":8898,"actly":8899,"hentic":8900,"usio":8901,"illusory":8902,"aware":8903,"aming":8904,"amount":8905,"Ġunconnected":8906,"Ġunimportant":8907,"Ġunsatisfactory":8908,"Ġunanimous":8909,"plan":8910,"abilis":8911,"âĢĶ(":8912,"igious":8913,"ighed":8914,"ĠĠĠĠĠĠĠĠĠĠ":8915,"Ġlawless":8916,"iest":8917,"Ġspent":8918,"Ġspheres":8919,"estic":8920,"estru":8921,"estimation":8922,"Ġpossibilities":8923,"Ġrap":8924,"ousand":8925,"Ġsoar":8926,"Ġembe":8927,"Ġempiric":8928,"adapt":8929,"ideality":8930,"trace":8931,"track":8932,"tricable":8933,"Ġtrium":8934,"Ġtrades":8935,"Ġvicious":8936,"Ġvocation":8937,"Ġvessel":8938,"ĠTheology":8939,"ĠTheoretical":8940,"Ġwilled":8941,"ĠBonum":8942,"ĠBetween":8943,"ĠBerke":8944,"Ġhearer":8945,"Ġimposing":8946,"Ġnovel":8947,"allowed":8948,"Ġabut":8949,"Ġabode":8950,"prim":8951,"pros":8952,"Ġsyllogistic":8953,"Ġusage":8954,"supposes":8955,"suggest":8956,"Ġshalt":8957,"phold":8958,"phaenomenon":8959,"ĠFac":8960,"ĠFRO":8961,"Ġcognizes":8962,"Ġquick":8963,"Ġstay":8964,"Ġstream":8965,"Ġstumbling":8966,"eless":8967,"Ġreligious":8968,"presenting":8969,"nowhere":8970,"Ġconscience":8971,"why":8972,"whom":8973,"ĠAutonomy":8974,"ĠAug":8975,"ĠAxioms":8976,"Ġaccus":8977,"acent":8978,"acquire":8979,"Ġappend":8980,"cast":8981,"Ġdear":8982,"Ġdeposit":8983,"Ġdeceptive":8984,"ĠForm":8985,"forces":8986,"Ġdiss":8987,"Ġdispleasure":8988,"Ġdisinterested":8989,"ĠPre":8990,"ĠPref":8991,"ĠPART":8992,"union":8993,"unattainable":8994,"Ġindulgence":8995,"Ġindestru":8996,"mental":8997,"Ġpartially":8998,"Ġlear":8999,"teleological":9000,"Ġmoralists":9001,"specul":9002,"Ġargue":9003,"ĠĠĠĠĠĠĠĠĠĠĠĠĠĠĠĠĠĠĠĠĠĠĠĠĠĠĠĠĠĠĠĠĠĠĠ":9004,"ĠSoul":9005,"ĠSecondly":9006,"ĠSummum":9007,"ĠSatirae":9008,"ĠSouth":9009,"Ġphantom":9010,"solve":9011,"intended":9012,"intensive":9013,"intermediate":9014,"Ġsubmission":9015,"Ġsubspecies":9016,"Ġsubordination":9017,"ensed":9018,"Ġsearched":9019,"Ġthank":9020,"aging":9021,"opinions":9022,"Ġgenerality":9023,"Ġfreed":9024,"Ġnearest":9025,"Ġneighbour":9026,"comes":9027,"ĠInfinite":9028,"ĠInasmuch":9029,"Ġcausa":9030,"ĠWhence":9031,"ĠWHAT":9032,"Ġcontest":9033,"ortal":9034,"Ġended":9035,"Ġgrown":9036,"Ġgravity":9037,"ĠCl":9038,"ĠCHAPTER":9039,"ĠCopyright":9040,"ĠCreator":9041,"They":9042,"Ġassures":9043,"Ġobl":9044,"Ġpositing":9045,"meant":9046,"Ġremoval":9047,"prohib":9048,"projected":9049,"ĠHist":9050,"ĠHypothe":9051,"Ġdiscret":9052,"Ġordered":9053,"Ġextinct":9054,"Ġmodus":9055,"Ġmodesty":9056,"Ġhappily":9057,"weight":9058,"weapons":9059,"Ġagents":9060,"stitution":9061,"lessed":9062,"Ġenig":9063,"Ġenounced":9064,"Ġenjoined":9065,"Ġenclose":9066,"Ġeffecting":9067,"Ġthinkable":9068,"Ġsensibilis":9069,"Ġoutlines":9070,"Ġinterfere":9071,"Ġintervention":9072,"Ġinterpreted":9073,"ĠEv":9074,"ĠEBook":9075,"ĠEthics":9076,"Ġsomeone":9077,"angled":9078,"reasoning":9079,"service":9080,"sensual":9081,"Ġgreatness":9082,"Ġbasing":9083,"ĠDep":9084,"Ġfacta":9085,"Ġfacto":9086,"Ġsecures":9087,"Ġimpot":9088,"Ġimputation":9089,"edient":9090,"ediata":9091,"Ġoriginator":9092,"Ġenters":9093,"Ġentium":9094,"Ġentrust":9095,"principium":9096,"Ġinvention":9097,"Ġcorrupt":9098,"Ġcorrection":9099,"Ġcorruption":9100,"Thou":9101,"Those":9102,"Thirdly":9103,"Ġinflex":9104,"Ġexplore":9105,"Ġpowerless":9106,"Ġinterested":9107,"ĠMany":9108,"ĠReality":9109,"ĠRepresentation":9110,"Ġintelligibility":9111,"experienced":9112,"Ġimmutable":9113,"Ġimmediata":9114,"Ġapper":9115,"Ġrefuses":9116,"Ġrested":9117,"Ġcharacterized":9118,"Ġcharacterizes":9119,"Ġadvice":9120,"Ġcompounded":9121,"Ġconclusive":9122,"Ġsincere":9123,"ĠLat":9124,"structive":9125,"Ġresist":9126,"Ġresides":9127,"ERAL":9128,"Ġillum":9129,"learned":9130,"depr":9131,"Ġ[*]":9132,"ĠUnder":9133,"Ġdiscoveries":9134,"Ġaimed":9135,"represents":9136,"representing":9137,"Instead":9138,"ĠConsciousness":9139,"ĠOne":9140,"Ġsuccessfully":9141,"related":9142,"religion":9143,"Ġdefining":9144,"naturally":9145,"natura":9146,"Ġupwards":9147,"Ġplea":9148,"Ġpleasing":9149,"Ġelimin":9150,"Ġobserver":9151,"Ġobserves":9152,"Ġobservers":9153,"discipline":9154,"Ġconsequentia":9155,"Ġlegitimacy":9156,"subtle":9157,"substratum":9158,"Ġneedful":9159,"ENERAL":9160,"monition":9161,"Ġguilty":9162,"Ġanalyz":9163,"Ġanalyst":9164,"ĠĠĠĠĠĠĠĠĠĠĠĠĠĠĠĠĠĠĠĠĠĠĠĠĠĠĠĠ":9165,"Ġbodily":9166,"Ġmaintenance":9167,"Ġremarkably":9168,"Ġmethodology":9169,"contempt":9170,"subjects":9171,"Ġdogmas":9172,"Ġcopula":9173,"ovember":9174,"Ġovercome":9175,"Ġdemonstrates":9176,"arrive":9177,"Ġnonsense":9178,"ĠBefore":9179,"synthetic":9180,"Ġexcepted":9181,"Ġaffirms":9182,"Ġposterity":9183,"ALITY":9184,"Ġmemory":9185,"Ġinstant":9186,"Ġexpects":9187,"Ġhoping":9188,"Ġhopeless":9189,"obvious":9190,"obedience":9191,"Ġdenote":9192,"grant":9193,"Ġaffections":9194,"Ġprovides":9195,"Ġvariable":9196,"Ġprogressing":9197,"Ġappreciation":9198,"Ġobliges":9199,"Ġsuperstition":9200,"Ġipso":9201,"Ġaids":9202,"Ġdestitute":9203,"Ġundisturbed":9204,"differences":9205,"connects":9206,"Ġharmonizes":9207,"simony":9208,"sometimes":9209,"Ġbrief":9210,"Ġyourselves":9211,"iae":9212,"ĠYes":9213,"Ġfutility":9214,"Ġdistinctive":9215,"Ġvolume":9216,"Ġintrinsically":9217,"Ġoperate":9218,"Ġpretence":9219,"Ġabsor":9220,"limitations":9221,"Ġintuites":9222,"Ġleaden":9223,"Ġdynamically":9224,"Ġexhibition":9225,"ĠExt":9226,"legal":9227,"ĠUniverse":9228,"intelligent":9229,"intelligibility":9230,"Ġsupports":9231,"Ġsupporting":9232,"Ġrecognises":9233,"Ġrecognised":9234,"ordinate":9235,"justification":9236,"Ġdesignated":9237,"aska":9238,"Ġsurpass":9239,"Ġsurrept":9240,"Ġabstracting":9241,"removed":9242,"physiology":9243,"Ġarranging":9244,"Ġapprove":9245,"commercium":9246,"attered":9247,"Ġsignifications":9248,"descending":9249,"ĠJuly":9250,"Ġorganism":9251,"analog":9252,"analogy":9253,"Ġagreeable":9254,"Ġagreeableness":9255,"Ġgeometer":9256,"product":9257,"Ġtested":9258,"Ġearlies":9259,"Ġgeneal":9260,"Ġfurnishing":9261,"ĠKey":9262,"cret":9263,"created":9264,"considering":9265,"placed":9266,"quantitas":9267,"invent":9268,"distinguishing":9269,"Ġdisputing":9270,"Ġdisputation":9271,"compare":9272,"worthiness":9273,"Ġsimilarly":9274,"Ġaccepts":9275,"Ġacceptation":9276,"iberum":9277,"divided":9278,"architect":9279,"myst":9280,"Ġscattered":9281,"confusion":9282,"Ġindiscern":9283,"value":9284,"ĠState":9285,"originally":9286,"originates":9287,"conformability":9288,"Ġheterogeneity":9289,"Ġtranscending":9290,"depend":9291,"realitas":9292,"Ġmarket":9293,"demonstrate":9294,"ĠANTITHESIS":9295,"Ġequals":9296,"Ġborne":9297,"Ġprivativum":9298,"greatness":9299,"Ġreciprocity":9300,"concealed":9301,"criterion":9302,"explained":9303,"discovering":9304,"Release":9305,"Ġ95":9306,"Ġsophistries":9307,"Ġanalogon":9308,"Ġbackwards":9309,"ĠImper":9310,"Ġventures":9311,"Ġventured":9312,"Ġturns":9313,"Ġinduces":9314,"Ġhumility":9315,"Ġhumble":9316,"Ġpracticability":9317,"Ġantecedentia":9318,"Ġmistrust":9319,"Ġcontributing":9320,"Ġdiscerning":9321,"Ġelevates":9322,"manifest":9323,"Ġglorious":9324,"looked":9325,"Ġqualification":9326,"indefinite":9327,"Ġpreserved":9328,"nexus":9329,"Ġpunished":9330,"Ġpunishments":9331,"accordant":9332,"continually":9333,"Ġ2000":9334,"Ġ2004":9335,"postulate":9336,"Ġintentionally":9337,"Ġnecessitates":9338,"contingency":9339,"attempted":9340,"gression":9341,"Ġcrown":9342,"Ġprofession":9343,"Ġprofesses":9344,"indicating":9345,"Ġproportionate":9346,"consequentia":9347,"expresses":9348,"expressed":9349,"expressions":9350,"negation":9351,"junct":9352,"Ġoccurrence":9353,"Ġguards":9354,"Ġguarding":9355,"steps":9356,"superfluous":9357,"legislating":9358,"Ġgenuineness":9359,"ĠÃ¦sthetical":9360,"Ġextricate":9361,"Ġprosyllogism":9362,"Ġblindly":9363,"START":9364,"elev":9365,"operations":9366,"bidden":9367,"porated":9368,"ĠChange":9369,"fortunate":9370,"Ġconfessed":9371,"Ġprimacy":9372,"concerns":9373,"concerning":9374,"Ġillustrating":9375,"concilable":9376,"finds":9377,"passages":9378,"signifies":9379,"ĠĠĠĠĠĠĠĠĠĠĠĠĠĠ":9380,"additional":9381,"Ġmeasurement":9382,"antecede":9383,"ĠWhy":9384,"Ġcontemplates":9385,"bodies":9386,"Ġanticipations":9387,"equality":9388,"Ġprototyp":9389,"Ġsubstantia":9390,"ĠDisc":9391,"Ġroots":9392,"deductible":9393,"iliary":9394,"Ġ--":9395,"Ġtreasure":9396,"Ġrejecting":9397,"falls":9398,"fallacies":9399,"Ġevidences":9400,"ĠPhenomenal":9401,"Ġdescent":9402,"Ġdescend":9403,"Ġdescription":9404,"directly":9405,"doubtful":9406,"restricting":9407,"attributes":9408,"attributed":9409,"Ġhypocrisy":9410,"imperatives":9411,"importance":9412,"transcendentally":9413,"Ġcommenced":9414,"Ġcommunication":9415,"Ġadmirable":9416,"ĠCONCEPTION":9417,"Ġisolate":9418,"Ġcultivate":9419,"decided":9420,"Ġcurved":9421,"Ġapproxim":9422,"Ġcounterpo":9423,"pleasantness":9424,"affirmative":9425,"ĠNeg":9426,"ĠINTRODUCTION":9427,"CTRIN":9428,"Ġdimension":9429,"clearly":9430,"moving":9431,"sources":9432,"Ġannouncement":9433,"conclusion":9434,"conclusions":9435,"progression":9436,"Ġpremiss":9437,"ĠDecember":9438,"Ġhonourable":9439,"occupy":9440,"Ġincite":9441,"ĠEBOOKS":9442,"approbation":9443,"Ġcentre":9444,"seek":9445,"modes":9446,"ĠAntithetic":9447,"arbitrarily":9448,"arbitrium":9449,"resulting":9450,"intuited":9451,"intuitus":9452,"ĠOrigin":9453,"ĠHimself":9454,"colour":9455,"ĠPhysical":9456,"ĠPhysico":9457,"Ġdamage":9458,"Ġinstructed":9459,"Ġerecting":9460,"searchable":9461,"Ġuniformity":9462,"anticipate":9463,"Ġsuperiority":9464,"ĠIntuitions":9465,"variety":9466,"enlarged":9467,"enlargement":9468,"Ġmundo":9469,"Ġrepeat":9470,"conducted":9471,"Ġsubmits":9472,"agreeableness":9473,"gradually":9474,"demands":9475,"Ġhumiliating":9476,"problematically":9477,"Ġwitnesses":9478,"Ġflattering":9479,"Ġcharges":9480,"Ġappropriated":9481,"Ġafraid":9482,"Ġmidst":9483,"endeavoured":9484,"Ġcompensation":9485,"ĠWARRANTIES":9486,"schol":9487,"Ġphilosophize":9488,"Ġentertained":9489,"mistake":9490,"Ġtouching":9491,"Ġdetrimental":9492,"Ġcoincides":9493,"Ġpresses":9494,"Ġvacuum":9495,"ĠParticular":9496,"Ġreviewer":9497,"bounds":9498,"boundaries":9499,"furnish":9500,"furnishes":9501,"wanting":9502,"impression":9503,"Ġlurking":9504,"idealism":9505,"practised":9506,"formulae":9507,"assuming":9508,"accidental":9509,"accidentally":9510,"confirms":9511,"confirmed":9512,"ĠANALOGY":9513,"continuation":9514,"Ġaccompanying":9515,"dogmatism":9516,"raise":9517,"Ġdissimilarity":9518,"Speculative":9519,"qualities":9520,"Ġsteadily":9521,"Ġsteadfast":9522,"Ġparticipating":9523,"Ġirreconcilable":9524,"Ġindubitably":9525,"culture":9526,"deviate":9527,"Ġinextricable":9528,"annihilation":9529,"excluding":9530,"classification":9531,"previously":9532,"Ġawakening":9533,"Ġawakened":9534,"Ġdeliberation":9535,"communicated":9536,"deserving":9537,"involves":9538,"involved":9539,"Ġembraced":9540,"ĠAbb":9541,"defective":9542,"ĠRemarks":9543,"Ġcasts":9544,"Ġperceiving":9545,"ĠGerman":9546,"Ġ1787":9547,"Ġescaping":9548,"sighted":9549,"exhibited":9550,"Granted":9551,"cosmical":9552,"eBooks":9553,"meritorious":9554,"peculiarity":9555,"introduced":9556,"Ġincorporated":9557,"seems":9558,"thoroughly":9559,"Ġruin":9560,"transcend":9561,"Ġvital":9562,"geometry":9563,"geometrical":9564,"Ġdisguise":9565,"Ġdisguised":9566,"probability":9567,"arrangement":9568,"Ġcounsels":9569,"Ġdeficient":9570,"supported":9571,"proportioned":9572,"endeavours":9573,"ipped":9574,"Ġspoil":9575,"Ġfacilitate":9576,"Ġrecommendation":9577,"Ġanthropomorphic":9578,"magnitude":9579,"yielding":9580,"Ġauthentic":9581,"Ġwarns":9582,"Ġinspire":9583,"ancendent":9584,"Ġrefined":9585,"Ġrevelation":9586,"Ġlowest":9587,"Ġriches":9588,"Ġrarely":9589,"Ġperpetually":9590,"Ġreluctant":9591,"Ġchemical":9592,"guarded":9593,"observations":9594,"Ġbeneficent":9595,"Ġtautology":9596,"anthropomorphism":9597,"professing":9598,"PROJECT":9599,"Ġtroubling":9600,"ĠSensuous":9601,"Ġjudicial":9602,"hensions":9603,"Ġstopped":9604,"ĠElements":9605,"ĠMotion":9606,"Ġantiquity":9607,"Against":9608,"Synthetical":9609,"dangerous":9610,"false":9611,"ipses":9612,"members":9613,"smelling":9614,"Ġromance":9615,"Ġtemperament":9616,"Ġsorrow":9617,"Ġpetty":9618,"Ġbeside":9619,"Ġmerits":9620,"Ġeconom":9621,"Ġlofty":9622,"Ġuninterrupted":9623,"Ġunanswerable":9624,"Ġsociety":9625,"Ġimpracticable":9626,"ĠPerson":9627,"Ġindulge":9628,"ĠSometimes":9629,"ĠOpinion":9630,"ĠGospel":9631,"Ġremedy":9632,"Ġamidst":9633,"ĠDOCTRIN":9634,"Ġinviolable":9635,"Ġaffairs":9636,"Ġassertorically":9637,"Ġcoalition":9638,"Ġundeniable":9639,"Ġvoluntary":9640,"ĠArguments":9641,"Ġconversation":9642,"Ġfancied":9643,"significance":9644,"ĠMonadists":9645,"ĠEnglish":9646,"Mathematics":9647,"towards":9648,"mdash":9649,"viour":9650,"Ġinnocent":9651,"Ġtravel":9652,"Ġsystematically":9653,"Fourthly":9654,"Ġtantamount":9655,"Ġtedious":9656,"Ġachieve":9657,"Ġauxiliary":9658,"Ġcursory":9659,"Ġcushion":9660,"Ġincontrovert":9661,"Ġearnest":9662,"Ġbehaviour":9663,"imilarly":9664,"irteen":9665,"ĠTRANSITION":9666,"Ġunanimously":9667,"Ġrapid":9668,"Ġembell":9669,"Ġtriumph":9670,"ĠBerkeley":9671,"ĠFROM":9672,"ĠAugust":9673,"ĠPreface":9674,"Ġindestructible":9675,"ĠDependence":9676,"Ġsurreptitious":9677,"Ġearliest":9678,"Ġgenealogical":9679,"Ġprototype":9680,"ĠCONCEPTIONS":9681,"Ġcounterpoise":9682,"ĠDOCTRINE":9683,"!)":9684,"57":9685,"568":9686,"622":9687,"AIM":9688,"BILITY":9689,"CHA":9690,"DENTAL":9691,"DED":9692,"FORE":9693,"GENCE":9694,"IED":9695,"IVE":9696,"IRECT":9697,"Most":9698,"NT":9699,"NES":9700,"POSE":9701,"Right":9702,"RICT":9703,"RPOSE":9704,"SS":9705,"aple":9706,"banks":9707,"nify":9708,"sipp":9709,"tx":9710,"vive":9711,"zip":9712,"Ġ$":9713,"information":9714,"Ġsending":9715,"icited":9716,"Ġinaccurate":9717,"Ġbinary":9718,"editions":9719,"thew":9720,"essor":9721,"irus":9722,"emnify":9723,"olunteers":9724,"odes":9725,"ofessor":9726,"tries":9727,"Ġvirus":9728,"prot":9729,"Ġregulating":9730,"ĠFIT":9731,"ĠFOU":9732,"Ġstaff":9733,"ĠAd":9734,"Ġdisk":9735,"Ġindemnify":9736,"spread":9737,"ĠSUC":9738,"ĠSpecial":9739,"ĠNEG":9740,"Ġgenerations":9741,"ĠOTHER":9742,"sissipp":9743,"ĠWest":9744,"reating":9745,"ĠGre":9746,"ĠGIVE":9747,"Ġcommerci":9748,"Ġcommitted":9749,"propri":9750,"Ġmodified":9751,"early":9752,"ĠEIN":9753,"ribe":9754,"ĠMER":9755,"ĠReplace":9756,"ĠRefund":9757,"ĠUT":9758,"Information":9759,"Intern":9760,"ENTI":9761,"TICE":9762,"Ġnewsletter":9763,"Ġcopied":9764,"ailable":9765,"Ġidentify":9766,"Ġprovisions":9767,"Ġsurvive":9768,"Ġdonation":9769,"Ġdonors":9770,"ĠKIND":9771,"considerable":9772,"people":9773,"ĠREAD":9774,"ĠStaple":9775,"Ġtranscription":9776,"Ġtranscribe":9777,"Ġ99":9778,"Ġprocessing":9779,"airbanks":9780,"ĠAny":9781,"EDIES":9782,"ĠPUNI":9783,"ĠPURPOSE":9784,"Ġ64":9785,"SEQU":9786,"Ġtaxes":9787,"PLEAS":9788,"PLIED":9789,"ĠNOTICE":9790,"Ġ1500":9791,"ĠMatthew":9792,"EMNITY":9793,"PRESS":9794,"ĠCONTRA":9795,"ĠCONSEQU":9796,"ĠREMEDIES":9797,"Ġtypes":9798,"ĠINCLUDING":9799,"ĠDefect":9800,"Ġconjectures":9801,"approach":9802,"prominently":9803,"Ġdamaged":9804,"CIDENTAL":9805,"ĠANYTHING":9806,"Ġviolates":9807,"SIBILITY":9808,"Ġsharing":9809,"CLAIM":9810,"ĠEXPRESS":9811,"Ġlicensed":9812,"ĠNorth":9813,"raising":9814,"Ġpaperwork":9815,"ĠSTRICT":9816,"LIGENCE":9817,"ĠDISCLAIM":9818,"ĠDespite":9819,"increasing":9820,"OSSIBILITY":9821,"Ġinfringement":9822,"Ġdownloading":9823,"ĠINDIRECT":9824,"Ġgratefully":9825,"Defects":9826,"VIDED":9827,"written":9828,"ĠIMPLIED":9829,"ĠMississipp":9830,"ĠService":9831,"62215":9832,"CHANT":9833,"NESS":9834,"txt":9835,"ĠFITNESS":9836,"ĠSUCH":9837,"ĠNEGLIGENCE":9838,"Ġcommercial":9839,"ĠMERCHANT":9840,"ĠReplacement":9841,"International":9842,"ENTIAL":9843,"ĠStapleton":9844,"ĠPUNITIVE":9845,"ĠCONTRACT":9846,"ĠCONSEQUENTIAL":9847,"ĠDISCLAIMER":9848,"ĠMississippi":9849,"ĠMERCHANTABILITY":9850,"Literary":9851,"License":9852,"WARRAN":9853,"].":9854,"ature":9855,"Ġbow":9856,"asp":9857,"Ġsuspect":9858,"Ġspher":9859,"Ġstone":9860,"Ġgrasp":9861,"ĠDr":9862,"ĠModality":9863,"Ġrefrain":9864,"Ġsolving":9865,"Ġdistinctly":9866,"Ġlieu":9867,"Ġdesigned":9868,"Ġcomprehended":9869,"providing":9870,"posted":9871,"Ġstarted":9872,"Ġreputation":9873,"Ġpropounded":9874,"Ġlocations":9875,"ĠPhysics":9876,"Anschauung":9877,"Ġcomputers":9878,"Ġbranch":9879,"ĠCognition":9880,"WARRANTIES":9881,"24":9882,"eper":9883,"munity":9884,"Ġwatch":9885,"andom":9886,"Ġreasonably":9887,"ored":9888,"Ġimmaterial":9889,"Ġknew":9890,"ĠAnal":9891,"Ġdeeper":9892,"Ġwhenever":9893,"ĠHad":9894,"ĠEs":9895,"served":9896,"Ġidealistic":9897,"Ġ21":9898,"Ġdenotes":9899,"Ġunderstands":9900,"Ġreducing":9901,"Ġsuggestion":9902,"Ġstruck":9903,"Ġabandoned":9904,"Ġchiefly":9905,"Ġshadow":9906,"ithmetic":9907,"ĠOtherwise":9908,"14":9909,"19":9910,"28":9911,"29":9912,"37":9913,"AT":9914,"Im":9915,"ew":9916,"eveloped":9917,"faces":9918,"gn":9919,"iently":9920,"mer":9921,"mal":9922,"Ġtur":9923,"aten":9924,"Ġcount":9925,"Ġpause":9926,"Ġinest":9927,"Ġtou":9928,"Ġnations":9929,"Ġrect":9930,"Ġdial":9931,"Ġaspir":9932,"ptical":9933,"Ġsuited":9934,"Ġgerm":9935,"Ġorbits":9936,"amm":9937,"Ġriver":9938,"Ġtriang":9939,"udo":9940,"Ġpertains":9941,"Ġdisadvantage":9942,"Ġdismiss":9943,"Ġindol":9944,"ĠThough":9945,"ĠSpirit":9946,"ĠNoumen":9947,"Ġenduring":9948,"ĠCar":9949,"ĠCartes":9950,"Ġcommend":9951,"Ġages":9952,"Ġgrounding":9953,"Ġenlightened":9954,"sert":9955,"hematism":9956,"Ġimplying":9957,"Ġcompetition":9958,"Ġconfident":9959,"Introdu":9960,"Ġ23":9961,"Ġpromising":9962,"Ġundeveloped":9963,"Ġasking":9964,"Ġraises":9965,"Ġgenius":9966,"Ġ42":9967,"Ġoccasionally":9968,"Ġsurely":9969,"Ġdetails":9970,"Ġventuring":9971,"Ġenlarging":9972,"ĠMaterial":9973,"versed":9974,"Ġmeantime":9975,"Ġhyperbol":9976,"Ġpoor":9977,"Ġsubstitute":9978,"Ġwait":9979,"Ġtrustworthy":9980,"Ġtheorems":9981,"ĠCauses":9982,"ĠCausality":9983,"ĠSubstance":9984,"ĠSchematism":9985,"Ġsuffices":9986,"Ġmisleading":9987,"Ġincomprehensibility":9988,"Ġinestim":9989,"Ġaspirations":9990,"Ġtriangles":9991,"ĠNoumena":9992,"ĠCartesian":9993,")?":9994,".),":9995,"02":9996,"10":9997,"12":9998,"21":9999,"23":10000,"25":10001,"26":10002,"27":10003,"30":10004,"31":10005,"32":10006,"33":10007,"34":10008,"35":10009,"36":10010,"38":10011,"43":10012,"44":10013,"45":10014,"70":10015,"Arist":10016,"Com":10017,"Categor":10018,"Or":10019,"Possib":10020,"Part":10021,"ah":10022,"bi":10023,"book":10024,"cible":10025,"eometr":10026,"full":10027,"hi":10028,"hold":10029,"lose":10030,"lix":10031,"lurality":10032,"mn":10033,"mediate":10034,"ral":10035,"ror":10036,"sies":10037,"vered":10038,"voc":10039,"Ġer":10040,"Ġil":10041,"Ġter":10042,"ones":10043,"iner":10044,"isse":10045,"Ġsit":10046,"Ġsal":10047,"Ġpal":10048,"Ġpomp":10049,"icle":10050,"Ġinform":10051,"Ġinsen":10052,"Ġinconceivable":10053,"orned":10054,"Ġmir":10055,"Ġfif":10056,"Ġfight":10057,"Ġflight":10058,"Ġeff":10059,"sever":10060,"Ġcond":10061,"Ġcone":10062,"Ġdil":10063,"Ġdie":10064,"Ġdull":10065,"Ġbeque":10066,"Ġbefits":10067,"stain":10068,"Ġwhol":10069,"aring":10070,"asc":10071,"Ġhide":10072,"Ġprize":10073,"Ġproud":10074,"Ġprogram":10075,"iveness":10076,"Ġexceed":10077,"Ġexchange":10078,"Ġnotic":10079,"ceptible":10080,"etern":10081,"qui":10082,"andi":10083,"ando":10084,"ifling":10085,"sibly":10086,"Ġallot":10087,"Ġallied":10088,"romise":10089,"Ġprolix":10090,"Ġintimate":10091,"endels":10092,"amination":10093,"amorph":10094,"Ġunjust":10095,"Ġunqual":10096,"placing":10097,"abol":10098,"abilities":10099,"iestle":10100,"Ġrot":10101,"Ġrich":10102,"Ġempire":10103,"Ġtrifling":10104,"Ġva":10105,"Ġvig":10106,"Ġwillingly":10107,"Ġnative":10108,"Ġimpre":10109,"Ġnobl":10110,"Ġabund":10111,"Ġuses":10112,"Ġmel":10113,"suitable":10114,"Ġshine":10115,"Ġevade":10116,"Ġreliable":10117,"anced":10118,"ource":10119,"acknowled":10120,"ĠPH":10121,"unted":10122,"positions":10123,"Ġknowable":10124,"Ġindiv":10125,"sohn":10126,"Ġpred":10127,"eneration":10128,"ĠSecond":10129,"ĠSciences":10130,"Ġfrees":10131,"Ġgold":10132,"Ġowe":10133,"Ġfounding":10134,"Ġfollowers":10135,"Ġremember":10136,"Ġremembered":10137,"Ġrespective":10138,"ishable":10139,"ĠHas":10140,"roys":10141,"Ġdescribes":10142,"web":10143,"Ġenem":10144,"Ġengr":10145,"Ġinterwo":10146,"Ġamply":10147,"avor":10148,"Ġimpure":10149,"Ġworking":10150,"Ġherein":10151,"Ġinfancy":10152,"ĠMe":10153,"ĠMendels":10154,"Ġapod":10155,"Ġrefute":10156,"Ġstray":10157,"Ġstriving":10158,"Ġassumes":10159,"Ġcompany":10160,"Ġcompelling":10161,"Ġcompromise":10162,"Ġdecay":10163,"Ġpredicating":10164,"Ġpredicables":10165,"Ġpredicaments":10166,"Ġmighty":10167,"Ġconfusing":10168,"Ġconfidently":10169,"Inasmuch":10170,"ĠConcept":10171,"Ġacknowled":10172,"Ġsolemn":10173,"Ġcommanding":10174,"Ġdogma":10175,"Ġboundless":10176,"ĠPriestle":10177,"Ġexpecting":10178,"Ġmisfortune":10179,"Ġsuperficial":10180,"Ġsuperadded":10181,"Ġiii":10182,"Ġpeculiarities":10183,"Ġfutile":10184,"Ġanalyses":10185,"Ġpretext":10186,"Ġcorrecting":10187,"noisse":10188,"Ġparabol":10189,"apse":10190,"Ġtranslated":10191,"ĠExamination":10192,"Ġvainly":10193,"Ġpainful":10194,"Ġthirdly":10195,"Ġsuccessively":10196,"Ġapprobation":10197,"Ġ55":10198,"Ġchemist":10199,"ĠJUD":10200,"Ġseparating":10201,"icipations":10202,"compass":10203,"ursively":10204,"Ġfaulty":10205,"Ġcreative":10206,"Ġoccasioning":10207,"Ġconverted":10208,"Ġediting":10209,"Ġcollect":10210,"Ġmechanically":10211,"predicaments":10212,"iminished":10213,"Ġclassed":10214,"Ġdefects":10215,"Ġrecent":10216,"Ġrecord":10217,"Ġmistaking":10218,"Ġpreserves":10219,"Ġreflected":10220,"Ġexcuse":10221,"Ġguarded":10222,"Beyond":10223,"Ġbehold":10224,"Ġbehalf":10225,"imagined":10226,"Ġtransgresses":10227,"Ġscholar":10228,"ĠWhole":10229,"Ġfortunate":10230,"Ġvanish":10231,"Ġaccomplishes":10232,"Ġinjury":10233,"Ġsymbol":10234,"Ġomnipresence":10235,"Ġcleared":10236,"Ġcuriosity":10237,"Ġtender":10238,"Ġundertakes":10239,"Existence":10240,"Ġpreferable":10241,"Ġdecidedly":10242,"Ġverify":10243,"Ġerroneously":10244,"Ġprospects":10245,"Ġinstructs":10246,"Ġthreatened":10247,"Ġwider":10248,"agreeable":10249,"Ġsketched":10250,"Ġamounts":10251,"Ġsettlement":10252,"Ġbreaks":10253,"Ġsubstituting":10254,"Ġascertaining":10255,"Ġincompatible":10256,"Ġruns":10257,"ĠPerception":10258,"ĠPerhaps":10259,"Ġalternatively":10260,"Ġmysticism":10261,"Ġhesitation":10262,"Ġvex":10263,"Ġrevealed":10264,"Ġrestrained":10265,"Ġcomprised":10266,"Ġsustain":10267,"ĠGermany":10268,"momenta":10269,"ĠIntroduction":10270,"Ġmissed":10271,"Ġstrengthens":10272,"Ġdenominated":10273,"Ġslip":10274,"Ġvalued":10275,"Ġparadoxical":10276,"Ġfacility":10277,"Ġpublish":10278,"Ġparents":10279,"Ġvisionary":10280,"Ġsimplest":10281,"Ġresponsible":10282,"Ġfluid":10283,"Ġdrops":10284,"Ġlarger":10285,"Ġpresumptuous":10286,"Ġfalsity":10287,"Idealism":10288,"Ġchalleng":10289,"Ġshallowness":10290,"Ġzealous":10291,"wisdom":10292,"Ġinnate":10293,"Ġtutor":10294,"Ġwandering":10295,"ĠAnalogies":10296,"Ġindolence":10297,"Ġinestimable":10298,"Aristotle":10299,"Possibility":10300,"Particular":10301,"eometry":10302,"mediately":10303,"Ġinsensibly":10304,"Ġdilig":10305,"Ġwholes":10306,"Ġunqualified":10307,"Ġimpregn":10308,"Ġnoblest":10309,"Ġengra":10310,"Ġinterwoven":10311,"ĠMendelssohn":10312,"ĠPriestley":10313,"noisseurs":10314,"Ġparabola":10315,"ĠJUDG":10316,")-":10317,"*(":10318,"04":10319,"178":10320,"46":10321,"47":10322,"48":10323,"49":10324,"51":10325,"52":10326,"53":10327,"54":10328,"56":10329,"58":10330,"59":10331,"60":10332,"61":10333,"62":10334,"63":10335,"64":10336,"65":10337,"66":10338,"67":10339,"69":10340,"72":10341,"73":10342,"74":10343,"76":10344,"77":10345,"81":10346,";[":10347,"AY":10348,"AIN":10349,"Apperception":10350,"APPENDIX":10351,"BC":10352,"BJEC":10353,"Between":10354,"Che":10355,"Certain":10356,"Crit":10357,"Cosmological":10358,"Critical":10359,"Deity":10360,"DIC":10361,"Dialectic":10362,"Different":10363,"DITION":10364,"DURE":10365,"EI":10366,"GENERAL":10367,"His":10368,"Human":10369,"Have":10370,"Ju":10371,"LL":10372,"Logical":10373,"Last":10374,"Love":10375,"Logic":10376,"Locke":10377,"LEMENT":10378,"MAL":10379,"MENT":10380,"Michael":10381,"Meanwhile":10382,"NO":10383,"Non":10384,"Other":10385,"ORO":10386,"Ple":10387,"Perm":10388,"Plato":10389,"RTH":10390,"STHE":10391,"Thing":10392,"Two":10393,"US":10394,"Upon":10395,"Unt":10396,"USI":10397,"VII":10398,"Yes":10399,"YST":10400,"_[":10401,"aut":10402,"aud":10403,"astr":10404,"augment":10405,"bat":10406,"bes":10407,"bus":10408,"ball":10409,"bser":10410,"back":10411,"bru":10412,"besides":10413,"bungl":10414,"cs":10415,"cion":10416,"cence":10417,"cher":10418,"cover":10419,"cob":10420,"civil":10421,"citiz":10422,"casus":10423,"crowd":10424,"dur":10425,"dam":10426,"doll":10427,"detr":10428,"data":10429,"drop":10430,"dimin":10431,"ein":10432,"egr":10433,"eals":10434,"ebru":10435,"fan":10436,"fence":10437,"fict":10438,"fix":10439,"flection":10440,"fruit":10441,"filled":10442,"fancy":10443,"fanci":10444,"gy":10445,"gest":10446,"gone":10447,"gover":10448,"gained":10449,"hist":10450,"hind":10451,"hart":10452,"hop":10453,"hyp":10454,"hitherto":10455,"holiness":10456,"homogeneity":10457,"iary":10458,"iating":10459,"joys":10460,"jacent":10461,"kingdom":10462,"laid":10463,"lio":10464,"mill":10465,"mast":10466,"moun":10467,"mark":10468,"mund":10469,"macy":10470,"mortality":10471,"minor":10472,"master":10473,"moments":10474,"night":10475,"null":10476,"nicious":10477,"oh":10478,"oqu":10479,"oca":10480,"ober":10481,"pend":10482,"past":10483,"putes":10484,"pob":10485,"putable":10486,"piece":10487,"rd":10488,"ros":10489,"rum":10490,"rances":10491,"ront":10492,"rash":10493,"rium":10494,"rhapsod":10495,"sin":10496,"spl":10497,"sound":10498,"sought":10499,"sake":10500,"sided":10501,"scribed":10502,"sciences":10503,"tw":10504,"tre":10505,"tort":10506,"task":10507,"temper":10508,"tlest":10509,"ugg":10510,"useless":10511,"upright":10512,"uphold":10513,"vous":10514,"vict":10515,"vocation":10516,"wond":10517,"welf":10518,"wished":10519,"water":10520,"wants":10521,"ximate":10522,"ypon":10523,"yers":10524,"zer":10525,"zism":10526,"Ġ&":10527,"Ġq":10528,"Ġvel":10529,"ĠQU":10530,"Ġtor":10531,"Ġtib":10532,"Ġterr":10533,"Ġtends":10534,"Ġtrem":10535,"heart":10536,"Ġathe":10537,"Ġapt":10538,"Ġaver":10539,"Ġawe":10540,"Ġaequ":10541,"Ġaversion":10542,"onent":10543,"ina":10544,"inj":10545,"inable":10546,"inated":10547,"inward":10548,"inning":10549,"inability":10550,"incomp":10551,"inery":10552,"internally":10553,"inheres":10554,"inconceivable":10555,"Ġomission":10556,"Ġoptical":10557,"Ġthee":10558,"Ġtheist":10559,"reject":10560,"reve":10561,"redu":10562,"reach":10563,"relu":10564,"rehension":10565,"reption":10566,"refer":10567,"recomm":10568,"repe":10569,"recognize":10570,"resem":10571,"repute":10572,"reputation":10573,"ital":10574,"itial":10575,"itating":10576,"itudes":10577,"ititious":10578,"isi":10579,"isol":10580,"isyllogism":10581,"enn":10582,"encour":10583,"enesis":10584,"ats":10585,"atical":10586,"attr":10587,"aturn":10588,"Ġwent":10589,"Ġwound":10590,"Ġwax":10591,"Ġwarr":10592,"Ġwret":10593,"Ġwild":10594,"Ġwrest":10595,"erv":10596,"eron":10597,"eration":10598,"erum":10599,"erance":10600,"erring":10601,"erving":10602,"ercion":10603,"Ġcou":10604,"Ġcun":10605,"Ġcert":10606,"Ġcath":10607,"Ġcub":10608,"Ġcasus":10609,"Ġcrowd":10610,"Ġsi":10611,"Ġsect":10612,"Ġsend":10613,"Ġsink":10614,"Ġsap":10615,"Ġsites":10616,"Ġsadly":10617,"Ġpu":10618,"Ġpus":10619,"Ġpill":10620,"Ġpoly":10621,"Ġpush":10622,"aly":10623,"alar":10624,"alleg":10625,"altern":10626,"alterable":10627,"icros":10628,"Ġinexpl":10629,"Ġincompar":10630,"Ġinhabit":10631,"Ġinstructive":10632,"Ġinequality":10633,"Ġbi":10634,"Ġbare":10635,"Ġblessed":10636,"esult":10637,"esca":10638,"Ġthine":10639,"Ġthresh":10640,"Ġthousand":10641,"Ġthirteen":10642,"orld":10643,"orter":10644,"orably":10645,"origination":10646,"Ġtold":10647,"Ġmus":10648,"Ġmill":10649,"Ġmast":10650,"Ġmover":10651,"celebrated":10652,"Ġfain":10653,"Ġfame":10654,"Ġfatum":10655,"Ġfier":10656,"ctyp":10657,"ctantly":10658,"ctober":10659,"animity":10660,"Ġnes":10661,"Ġnisi":10662,"Ġeul":10663,"Ġectyp":10664,"sear":10665,"severest":10666,"secret":10667,"oure":10668,"Ġrely":10669,"Ġrever":10670,"Ġreward":10671,"Ġrecall":10672,"Ġreap":10673,"Ġrenew":10674,"Ġrecap":10675,"Ġreproduction":10676,"Ġretrace":10677,"Ġrerum":10678,"Ġretort":10679,"Ġresear":10680,"lege":10681,"leology":10682,"left":10683,"Ġconqu":10684,"Ġcondem":10685,"Ġconvey":10686,"Ġconveyed":10687,"Ġconducive":10688,"Ġdress":10689,"Ġdates":10690,"Ġdiction":10691,"Ġdumb":10692,"Ġdrew":10693,"Ġduc":10694,"Ġbead":10695,"ste":10696,"start":10697,"stac":10698,"states":10699,"starr":10700,"stability":10701,"omas":10702,"ompl":10703,"omni":10704,"omnit":10705,"omaly":10706,"entities":10707,"otot":10708,"arond":10709,"asur":10710,"ascribed":10711,"asibility":10712,"utche":10713,"utmost":10714,"Ġhost":10715,"Ġhover":10716,"Ġhole":10717,"ectyp":10718,"lled":10719,"Ġum":10720,"theore":10721,"thening":10722,"ivial":10723,"ivoca":10724,"impose":10725,"imposes":10726,"improv":10727,"immaterial":10728,"osoph":10729,"ossess":10730,"Ġexcess":10731,"Ġexempl":10732,"Ġexhort":10733,"Ġanxious":10734,"Ġanterior":10735,"Ġanomaly":10736,"Ġlust":10737,"Ġlend":10738,"Ġloth":10739,"Ġlau":10740,"Ġliable":10741,"Ġlux":10742,"Ġlucid":10743,"Ġliberum":10744,"jective":10745,"Ġweari":10746,"Ġweighed":10747,"Ġfort":10748,"Ġforbe":10749,"Ġforcing":10750,"Ġforfe":10751,"Ġforsakes":10752,"ithful":10753,"idity":10754,"idens":10755,"idger":10756,"idnight":10757,"Ġsupre":10758,"Ġsunt":10759,"ibib":10760,"ibles":10761,"ibrium":10762,"ceptation":10763,"ceptical":10764,"etch":10765,"etus":10766,"etting":10767,"ureans":10768,"ldarond":10769,"iration":10770,"irgin":10771,"Ġgout":10772,"Ġgaps":10773,"Ġwithstand":10774,"urp":10775,"urred":10776,"ciate":10777,"querable":10778,"quateness":10779,"resides":10780,"ister":10781,"istences":10782,"Ġorator":10783,"erer":10784,"erect":10785,"Ġcanst":10786,"aindrop":10787,"ecum":10788,"ecundity":10789,"andal":10790,"anded":10791,"permit":10792,"perceived":10793,"persist":10794,"perplex":10795,"perpet":10796,"pertains":10797,"persuasion":10798,"sels":10799,"Ġallure":10800,"Ġintact":10801,"Ġintimid":10802,"Ġintegr":10803,"ulzer":10804,"emin":10805,"empiric":10806,"veil":10807,"ateful":10808,"chie":10809,"chasm":10810,"consol":10811,"condem":10812,"conveyed":10813,"converted":10814,"conducive":10815,"conversely":10816,"conjunct":10817,"conquerable":10818,"endations":10819,"endour":10820,"ilanthrop":10821,"ilibrium":10822,"Ġalarm":10823,"Ġallege":10824,"acted":10825,"activity":10826,"usable":10827,"usiveness":10828,"Ġhaph":10829,"illain":10830,"illustr":10831,"ampl":10832,"amps":10833,"ameter":10834,"Ġunre":10835,"Ġuntr":10836,"Ġunsh":10837,"Ġunreal":10838,"Ġunnecessarily":10839,"Ġunset":10840,"Ġunbelief":10841,"Ġunexception":10842,"Ġunsatisfied":10843,"Ġunusual":10844,"Ġuninfluenced":10845,"Ġunrestricted":10846,"Ġunchanged":10847,"Ġunbidden":10848,"Ġunfortunate":10849,"Ġunyielding":10850,"Ġunguarded":10851,"Ġunerring":10852,"Ġunalterable":10853,"Ġunconquerable":10854,"plies":10855,"plays":10856,"planation":10857,"places":10858,"plausible":10859,"abile":10860,"abiding":10861,"abyss":10862,"ditions":10863,"selfish":10864,"Ġ(*":10865,"olens":10866,"olved":10867,"ollection":10868,"olina":10869,"Ġcael":10870,"Ġcaution":10871,"Ġcautious":10872,"ansas":10873,"Ġspur":10874,"Ġsport":10875,"Ġcomets":10876,"esting":10877,"off":10878,"offer":10879,"Ġrose":10880,"Ġrude":10881,"Ġraces":10882,"Ġrhet":10883,"Ġraindrop":10884,"Ġworse":10885,"herself":10886,"Ġexistent":10887,"Ġexistential":10888,"trod":10889,"tried":10890,"tranqu":10891,"Ġtries":10892,"Ġtrial":10893,"Ġtraces":10894,"Ġtranqu":10895,"Ġtrivial":10896,"Ġvast":10897,"foreign":10898,"foreseen":10899,"ctions":10900,"usement":10901,"useful":10902,"aked":10903,"Ġnatura":10904,"orially":10905,"Ġimproved":10906,"Ġformarum":10907,"indetermin":10908,"indifference":10909,"indulgence":10910,"Ġabsol":10911,"pron":10912,"prag":10913,"Ġkat":10914,"posits":10915,"positio":10916,"Ġusurp":10917,"Ġmelt":10918,"Ġregions":10919,"Ġregret":10920,"Ġregulated":10921,"suppos":10922,"supposed":10923,"supposing":10924,"succeed":10925,"Ġshame":10926,"Ġshake":10927,"Ġshaken":10928,"Ġshield":10929,"Ġshorter":10930,"antagon":10931,"phil":10932,"ĠFunction":10933,"ĠFAC":10934,"ĠFairbanks":10935,"ĠFebru":10936,"outset":10937,"Ġcognise":10938,"Ġcogniz":10939,"Ġcognisable":10940,"Ġcognitio":10941,"Ġperish":10942,"Ġpervert":10943,"Ġpernicious":10944,"Ġquib":10945,"exec":10946,"exto":10947,"exert":10948,"externally":10949,"excell":10950,"exhausted":10951,"exterior":10952,"exactly":10953,"Ġstat":10954,"Ġstory":10955,"Ġstars":10956,"Ġideally":10957,"Ġjugg":10958,"Ġjesting":10959,"wholly":10960,"ĠAS":10961,"ĠAre":10962,"ĠAff":10963,"ĠAldarond":10964,"Ġaccum":10965,"Ġaccru":10966,"Ġaccused":10967,"Ġaccredit":10968,"oury":10969,"acid":10970,"acceptation":10971,"Ġmanhood":10972,"ultimate":10973,"ultaneity":10974,"Ġadjust":10975,"Ġadjacent":10976,"Ġadjective":10977,"Ġunderstandings":10978,"Ġappeals":10979,"care":10980,"sequence":10981,"Ġdefe":10982,"Ġdearest":10983,"forward":10984,"Ġdisposing":10985,"Ġdisappro":10986,"Ġdiscontinu":10987,"Ġdispleases":10988,"Ġdisrepute":10989,"ĠPO":10990,"ĠPER":10991,"ĠPlease":10992,"ĠPolem":10993,"ĠPlurality":10994,"uns":10995,"unite":10996,"units":10997,"uncertain":10998,"unnecessary":10999,"unlimited":11000,"uncertainty":11001,"uniting":11002,"until":11003,"unceasing":11004,"unchangeable":11005,"untrue":11006,"uniform":11007,"unciated":11008,"unsearchable":11009,"),[":11010,"Ġyaw":11011,"Ġyoke":11012,"Ġprecl":11013,"Ġpreference":11014,"Ġprepond":11015,"Ġprefers":11016,"Ġpreposited":11017,"Ġprecaution":11018,"Ġpremonition":11019,"ĠThirdly":11020,"ĠThomas":11021,"Ġrepresentative":11022,"enerally":11023,"strong":11024,"strings":11025,"striking":11026,"Ġchamp":11027,"Ġeveryday":11028,"Ġsyntheses":11029,"spaces":11030,"Ġarouse":11031,"Ġardent":11032,"ysms":11033,"ĠSU":11034,"ĠSing":11035,"ĠSense":11036,"ĠSEND":11037,"ĠSenses":11038,"ĠSimilarly":11039,"ĠSMAL":11040,"ĠSaturn":11041,"ĠSceptical":11042,"Ġphilanthrop":11043,"Ġsubdu":11044,"Ġsubsid":11045,"nesses":11046,"ensity":11047,"ensome":11048,"ĠName":11049,"ĠNihil":11050,"ĠNovember":11051,"Ġsea":11052,"Ġseyn":11053,"prepar":11054,"prepond":11055,"prefer":11056,"predetermined":11057,"prehensible":11058,"preciated":11059,"prepared":11060,"Ġgenerates":11061,"Ġgeneratio":11062,"ĠOctober":11063,"oying":11064,"oyed":11065,"possibilities":11066,"imitable":11067,"compl":11068,"commen":11069,"conditional":11070,"ĠIncl":11071,"Ġcertainties":11072,"Ġcompleting":11073,"Ġplays":11074,"beho":11075,"ĠWould":11076,"ĠWell":11077,"ĠWorld":11078,"ĠWidger":11079,"Ġcontending":11080,"Ġending":11081,"ĠGover":11082,"ĠGenerally":11083,"Ġcontrari":11084,"ĠCAN":11085,"ĠCOM":11086,"ĠCORO":11087,"astically":11088,"Theological":11089,"Theoretical":11090,"ployment":11091,"Ġobno":11092,"Ġcommences":11093,"Ġcommencing":11094,"Ġcommercium":11095,"Ġcommerce":11096,"Ġdistrust":11097,"forming":11098,"oldest":11099,"meet":11100,"measur":11101,"arius":11102,"Ġwashed":11103,"Ġrationalist":11104,"Ġrationalism":11105,"proves":11106,"proposed":11107,"ĠHitherto":11108,"ĠHarmon":11109,"icium":11110,"Ġpurified":11111,"Ġdiscord":11112,"withdrawn":11113,"Ġactor":11114,"Ġactuating":11115,"Ġdesist":11116,"Ġdespot":11117,"Ġextol":11118,"Ġextingu":11119,"weak":11120,"weaken":11121,"âĢĿ.":11122,"âĢĿ),":11123,"Ġvaluel":11124,"Ġagency":11125,"overlook":11126,"overstep":11127,"overthrow":11128,"Ġmetals":11129,"undertaking":11130,"paralogism":11131,"paradox":11132,"Ġenunciation":11133,"ĠReci":11134,"Ġpresume":11135,"Ġpresiding":11136,"Ġoutwe":11137,"Ġinterference":11138,"Ġinterfer":11139,"Ġinterior":11140,"Ġinterrog":11141,"Ġinterpretation":11142,"Ġexpedient":11143,"ĠEqu":11144,"ĠEdition":11145,"ĠElucid":11146,"ĠEBC":11147,"ĠEDITION":11148,"ĠELEMENT":11149,"Ġsomewhere":11150,"anged":11151,"Ġreale":11152,"Ġrealitates":11153,"existed":11154,"existences":11155,"Ġperfections":11156,"ava":11157,"aven":11158,"Ġanalogical":11159,"Ġattends":11160,"ogito":11161,"ĠDE":11162,"ĠDest":11163,"ĠDOM":11164,"Ġfacti":11165,"identity":11166,"identical":11167,"Ġimpass":11168,"Ġimpair":11169,"Ġimpelling":11170,"Ġimpenetrable":11171,"Ġimpaired":11172,"ediable":11173,"assent":11174,"Ġentities":11175,"Ġentrance":11176,"Ġconstituent":11177,"cognizing":11178,"fulfil":11179,"Thought":11180,"Ġpurposely":11181,"arks":11182,"necessitate":11183,"Ġinfused":11184,"Ġexplication":11185,"canon":11186,"Ġinteresting":11187,"ĠMore":11188,"ĠMatter":11189,"ĠMeanwhile":11190,"ĠMAY":11191,"Ġkindness":11192,"Ġconcess":11193,"Ġconcur":11194,"Ġhandle":11195,"Ġhandles":11196,"Ġimmortal":11197,"Ġrefused":11198,"Ġrefusing":11199,"Ġstrive":11200,"Ġstrain":11201,"Ġrestless":11202,"Ġdemerit":11203,"empty":11204,"Ġdivides":11205,"Ġcontradicting":11206,"otheology":11207,"Ġadvised":11208,"Ġsumm":11209,"Ġsums":11210,"events":11211,"Ġcompound":11212,"Ġcompulsion":11213,"Ġtruthfulness":11214,"appeared":11215,"Ġdecried":11216,"regulate":11217,"regulated":11218,"ĠLI":11219,"ĠLest":11220,"ĠLogicians":11221,"Ġpermits":11222,"contrib":11223,"contrast":11224,"strugg":11225,"Ġresiding":11226,"Ġexpressing":11227,"Ġexpressly":11228,"Ġconfer":11229,"Ġconfusions":11230,"Ġsuppress":11231,"Ġsuppressed":11232,"Ġphysician":11233,"Ġphysica":11234,"deceived":11235,"deistic":11236,"defence":11237,"undecided":11238,"undoubtedly":11239,"ĠUS":11240,"ĠUpdated":11241,"Ġcloud":11242,"Ġclock":11243,"Introd":11244,"Ġdepict":11245,"ĠConjunction":11246,"ĠContent":11247,"ĠConditions":11248,"knowing":11249,"accustomed":11250,"accompl":11251,"Ġclearing":11252,"Ġdefiniteness":11253,"Ġrighteous":11254,"Ġarrog":11255,"Ġeloqu":11256,"Ġimperilled":11257,"Ġregression":11258,"Ġregressively":11259,"tlement":11260,"disk":11261,"display":11262,"disjunctive":11263,"dissimilar":11264,"disappears":11265,"disinterested":11266,"disputes":11267,"check":11268,"subsum":11269,"substitution":11270,"subordinate":11271,"Ġneeding":11272,"Ġpersonified":11273,"Ġwanted":11274,"monads":11275,"errors":11276,"Ġcontingencies":11277,"Ġaccordant":11278,"Ġfinishing":11279,"Ġassertorial":11280,"Ġassertorially":11281,"Ġmeanest":11282,"Ġremarking":11283,"Ġmethodical":11284,"contend":11285,"contact":11286,"contempor":11287,"aimed":11288,"Ġexerted":11289,"contradicts":11290,"contradictorily":11291,"manent":11292,"mankind":11293,"ovable":11294,"overer":11295,"Ġidealizing":11296,"Ġpermanently":11297,"Ġequipped":11298,"Ġequilibrium":11299,"Ġoverthrow":11300,"Ġovercoming":11301,"Ġdemonstrable":11302,"transcendentalism":11303,"ĠSupposing":11304,"arrived":11305,"arrogant":11306,"Ġnonentity":11307,"Ġrelationship":11308,"Ġlesson":11309,"Ġlesser":11310,"Ġlessened":11311,"Ġcoin":11312,"Ġcoat":11313,"Ġcoar":11314,"Ġcool":11315,"Ġcoins":11316,"Ġcoercion":11317,"Ġaffirming":11318,"bitably":11319,"bitious":11320,"ĠPrimal":11321,"Ġinfluenced":11322,"Ġconducting":11323,"Ġmisuse":11324,"Ġmisology":11325,"Ġmisrepresentation":11326,"Ġmisapplied":11327,"Ġmisinter":11328,"Ġmisleads":11329,"Ġmiserably":11330,"Ġmischief":11331,"Ġpassion":11332,"Ġpassions":11333,"Ġharsh":11334,"obstac":11335,"Ġdenying":11336,"ĠBeings":11337,"grace":11338,"Ġargumentative":11339,"Ġappreciated":11340,"Ġapprehensions":11341,"Ġobligatory":11342,"parte":11343,"parted":11344,"misconception":11345,"misapprehension":11346,"Ġprominent":11347,"Ġopens":11348,"Ġconsciously":11349,"extends":11350,"extreme":11351,"Ġmaintainer":11352,"Ġlegislator":11353,"Ġawa":11354,"Ġawakes":11355,"aveolens":11356,"Ġdestiny":11357,"Ġcircuit":11358,"Ġundone":11359,"Ġundecided":11360,"Ġundisc":11361,"Ġspeech":11362,"differ":11363,"connecting":11364,"simplicity":11365,"simultaneous":11366,"Ġbrutes":11367,"Ġbrutum":11368,"Ġbridge":11369,"ontal":11370,"nearer":11371,"happily":11372,"happened":11373,"Ġdistinctness":11374,"ruin":11375,"Ġintellectualized":11376,"Ġteleology":11377,"righteous":11378,"Ġclaiming":11379,"corporeal":11380,"correction":11381,"categorically":11382,"Ġoperative":11383,"Ġoperates":11384,"Ġconvict":11385,"Ġconvictions":11386,"Ġthreefold":11387,"Ġendeavouring":11388,"blind":11389,"blunder":11390,"blances":11391,"ynics":11392,"noble":11393,"sensuously":11394,"brain":11395,"Ġinvolunt":11396,"Ġceased":11397,"Ġparsimony":11398,"Ġdistributive":11399,"examine":11400,"examined":11401,"examining":11402,"Ġdynamics":11403,"Ġtransport":11404,"prescribed":11405,"ĠExternal":11406,"ĠExtent":11407,"ĠExamples":11408,"ĠExistences":11409,"legality":11410,"ĠUnphilosophical":11411,"short":11412,"procure":11413,"requiring":11414,"Ġexcluding":11415,"Ġexclusive":11416,"ARY":11417,"Ġpains":11418,"Ġprofundity":11419,"Ġreferable":11420,"justifies":11421,"Ġdesignates":11422,"Ġdesignating":11423,"Ġmeanings":11424,"Ġmeaningless":11425,"asked":11426,"causal":11427,"caused":11428,"belie":11429,"remo":11430,"remove":11431,"remote":11432,"remained":11433,"remaining":11434,"remediable":11435,"ftp":11436,"Ġadequacy":11437,"Ġdelivers":11438,"Ġdeline":11439,"Ġdelusions":11440,"Ġdelicate":11441,"Ġdelivered":11442,"physician":11443,"physiological":11444,"Ġarranges":11445,"ĠArchitect":11446,"applies":11447,"Ġelemental":11448,"inclined":11449,"includes":11450,"respects":11451,"respecting":11452,"respective":11453,"ocate":11454,"Ġapproved":11455,"Ġapproval":11456,"ificate":11457,"attached":11458,"ĠSphere":11459,"Ġdeclined":11460,"Ġ59":11461,"ĠVery":11462,"Ġletters":11463,"orizontal":11464,"Ġsignificancy":11465,"describe":11466,"desired":11467,"descent":11468,"Ġ*(":11469,"Ġcheer":11470,"thoughts":11471,"Ġarbitrium":11472,"Ġorganic":11473,"Ġcarelessness":11474,"Ġrock":11475,"Ġagreeably":11476,"consisting":11477,"ĠKings":11478,"ĠKNO":11479,"thened":11480,"Ġseparates":11481,"universally":11482,"quanta":11483,"metaphysicians":11484,"Ġ4000":11485,"Ġoffence":11486,"compound":11487,"worthless":11488,"constituted":11489,"constituent":11490,"mathematician":11491,"Ġwiser":11492,"Ġwisest":11493,"Ġacceptance":11494,"iterated":11495,"Ġsceptic":11496,"ipid":11497,"ipate":11498,"venal":11499,"Ġgeometricians":11500,"Ġgeometrician":11501,"Ġdogmata":11502,"Ġdogmatists":11503,"cogitable":11504,"cogitating":11505,"divisible":11506,"possessions":11507,"Ġoccasioned":11508,"Ġscale":11509,"Ġscandal":11510,"changeably":11511,"Ġfavourite":11512,"confounded":11513,"confutation":11514,"Ġfrail":11515,"Ġfrustr":11516,"Ġfrank":11517,"Ġframes":11518,"thinker":11519,"thinkers":11520,"Ġindisputable":11521,"insipid":11522,"specific":11523,"CEDURE":11524,"Ġensure":11525,"Ġensures":11526,"Ġhighway":11527,"satisfy":11528,"Ġconverting":11529,"immortality":11530,"Ġedifices":11531,"Ġadminist":11532,"predicated":11533,"sensatio":11534,"originated":11535,"originator":11536,"originarium":11537,"Ġdeter":11538,"Ġdetection":11539,"Ġcountenance":11540,"Ġexperiments":11541,"Ġexperimental":11542,"depart":11543,"depending":11544,"realized":11545,"realissimum":11546,"demonstrations":11547,"demonstratively":11548,"ICAL":11549,"Ġaccidentally":11550,"matters":11551,"Ġartifice":11552,"guides":11553,"Ġcanons":11554,"Ġloses":11555,"firstly":11556,"Ġprudential":11557,"explanations":11558,"discovers":11559,"iana":11560,"Ġ92":11561,"advances":11562,"Ġdiversities":11563,"investigating":11564,"Ġirremediable":11565,"Ġirrespective":11566,"ĠImmortality":11567,"Ġrecollection":11568,"observe":11569,"Ġconfining":11570,"Ġascends":11571,"Ġstudent":11572,"Ġobscured":11573,"Ġwriter":11574,"Ġhumour":11575,"attaining":11576,"Ġpractised":11577,"Ġpracticable":11578,"Ġsucceeds":11579,"Ġbenef":11580,"Ġbenefits":11581,"Ġfirmness":11582,"adequately":11583,"Ġsentimental":11584,"ĠPhalar":11585,"Ġglory":11586,"Ġqualified":11587,"saying":11588,"ĠHerein":11589,"Ġpreservation":11590,"maximum":11591,"influences":11592,"Ġmoves":11593,"Ġlowering":11594,"continual":11595,"Ġ2003":11596,"Protot":11597,"Ġreckons":11598,"Ġcapital":11599,"Ġstrengthening":11600,"drawing":11601,"psychologia":11602,"attempting":11603,"Ġspirituality":11604,"Ġbestowed":11605,"Ġestimates":11606,"Ġprofessions":11607,"Ġauthorizes":11608,"Ġauthorizing":11609,"Ġincreases":11610,"somewhat":11611,"analytic":11612,"ĠPUBL":11613,"negations":11614,"neglect":11615,"affinity":11616,"Ġexcited":11617,"Ġexcusable":11618,"Ġoccurring":11619,"Ġhabitation":11620,"ĠPROBL":11621,"ĠPROCEDURE":11622,"Ġguardian":11623,"superior":11624,"apprehend":11625,"regressive":11626,"regressus":11627,"Ġ70":11628,"Ġ75":11629,"ĠEmpiricism":11630,"ĠEmployment":11631,"Ġdeviate":11632,"Ġblindness":11633,"Ġsearching":11634,"Ġstrongly":11635,"Ġstrongest":11636,"operate":11637,"operative":11638,"operating":11639,"Ġrenounces":11640,"Ġrenounced":11641,"impenetrable":11642,"conditio":11643,"Ġteachings":11644,"humanity":11645,"ĠLeibnitzian":11646,"Ġtwist":11647,"Ġsuggests":11648,"Ġsuggestions":11649,"Conceptions":11650,"Ġenlarges":11651,"Ġ65":11652,"imagine":11653,"ĠIntellect":11654,"Ġattacked":11655,"define":11656,"Ġderivable":11657,"glorious":11658,"infinitely":11659,"Ġenjoying":11660,"ĠEpicureans":11661,"obligatory":11662,"difficult":11663,"Ġillustrations":11664,"ĠEveryone":11665,"settlement":11666,"Ġrepul":11667,"Ġheader":11668,"Ġtransgressing":11669,"judicium":11670,"conceptus":11671,"Ġsecrets":11672,"Ġscholars":11673,"Ġscholastically":11674,"inquire":11675,"secondly":11676,"additions":11677,"Ġadducing":11678,"Ġadaptation":11679,"pretext":11680,"antecedently":11681,"altered":11682,"Ġcontemplate":11683,"Ġmoderately":11684,"Ġhinders":11685,"Ġvanishes":11686,"equally":11687,"equivalent":11688,"potence":11689,"Ġwrought":11690,"Ġsuffers":11691,"Ġsubstantive":11692,"Ġrooted":11693,"showing":11694,"instance":11695,"instances":11696,"Ġobeys":11697,"iliates":11698,"Ġimitate":11699,"Ġimitating":11700,"supplied":11701,"degrees":11702,"requirement":11703,"Ġprepares":11704,"Ġgovernor":11705,"Ġattractions":11706,"Ġrejects":11707,"Ġrejection":11708,"Ġinjuring":11709,"Ġsympath":11710,"Ġsympat":11711,"Ġchaos":11712,"Ġconfusedly":11713,"advantageous":11714,"Ġomnipresent":11715,"Ġevidencing":11716,"Ġdeepest":11717,"analytically":11718,"directs":11719,"directing":11720,"directed":11721,"labours":11722,"attributing":11723,"Ġdrives":11724,"begins":11725,"Ġcommunic":11726,"ĠComposition":11727,"Ġpropension":11728,"oxysms":11729,"Ġwelcome":11730,"ILOS":11731,"Ġaltering":11732,"Ġimparted":11733,"Ġimpartiality":11734,"Ġlegitimately":11735,"Quod":11736,"culation":11737,"Ġdictation":11738,"Ġdictated":11739,"Ġblameless":11740,"volunteers":11741,"Ġhardness":11742,"persons":11743,"personal":11744,"personality":11745,"Ġspectata":11746,"Ġspectacle":11747,"transgression":11748,"ĠCategory":11749,"ĠCategorical":11750,"abstracted":11751,"affirming":11752,"affirmations":11753,"maintains":11754,"aenomena":11755,"Ġtendencies":11756,"Ġtypic":11757,"ĠINTERNAL":11758,"Ġdeprives":11759,"Examples":11760,"Ġstops":11761,"Ġpreferred":11762,"Ġlocale":11763,"correctly":11764,"correctness":11765,"authors":11766,"moon":11767,"mock":11768,"Ġtells":11769,"Ġresolves":11770,"Ġresolutions":11771,"Ġannounces":11772,"Ġannoying":11773,"ĠTranscendent":11774,"ĠTrancendent":11775,"conclusio":11776,"constructions":11777,"progressus":11778,"Ġambigu":11779,"Ġpleasantness":11780,"commands":11781,"analysed":11782,"occupies":11783,"Ġfulfils":11784,"Ġincit":11785,"Ġincumb":11786,"Ġcentury":11787,"Ġreplaced":11788,"Ġverbal":11789,"incerity":11790,"security":11791,"ĠProblematical":11792,"modi":11793,"Ġaugmentative":11794,"Ġinherence":11795,"Ġjoining":11796,"generations":11797,"reciprocity":11798,"Ġmonogram":11799,"Ġmonads":11800,"eteronomy":11801,"results":11802,"Ġalleging":11803,"comparatively":11804,"Ġenouncement":11805,"needing":11806,"Ġcolouring":11807,"collect":11808,"collected":11809,"promise":11810,"promote":11811,"Ġprincipally":11812,"ĠAlaska":11813,"materialiter":11814,"Ġthreatening":11815,"Ġfootpath":11816,"Ġfootsteps":11817,"Ġerects":11818,"Ġratione":11819,"Ġviolate":11820,"Ġconcealment":11821,"ĠPhilosophical":11822,"affecting":11823,"country":11824,"destination":11825,"smaller":11826,"enlarges":11827,"enlarging":11828,"Ġthyself":11829,"Ġnullity":11830,"Ġpropensions":11831,"constructs":11832,"constructed":11833,"Ġyouthful":11834,"ĠProofs":11835,"graduated":11836,"Ġroads":11837,"ĠÃĨSTHE":11838,"pathologically":11839,"Ġobstinacy":11840,"Ġhypostatize":11841,"Ġhypostatized":11842,"individuals":11843,"Ġdespising":11844,"ĠSystematic":11845,"poseless":11846,"Ġflatters":11847,"Ġmovable":11848,"Ġreconcile":11849,"Ġurges":11850,"Ġstruggles":11851,"Ġstruggling":11852,"figur":11853,"opportunity":11854,"opponent":11855,"Ġsovereignty":11856,"indispensably":11857,"profitable":11858,"sophistries":11859,"apodeictical":11860,"remarks":11861,"remarking":11862,"Ġmachines":11863,"Ġmachinery":11864,"dispositions":11865,"CLUSI":11866,"ULAR":11867,"ULTY":11868,"Ġ85":11869,"ĠEXTERNAL":11870,"Ġ1971":11871,"Ġantinomial":11872,"Ġflowing":11873,"school":11874,"Ġmoderns":11875,"Ġelaborate":11876,"Ġelaborating":11877,"Ġdetract":11878,"ĠPerfect":11879,"Ġpressure":11880,"Ġmeditation":11881,"Ġalternation":11882,"ĠPRINT":11883,"Ġdenomination":11884,"inseparable":11885,"Ġcourtes":11886,"stones":11887,"Ġexemption":11888,"Ġexcellence":11889,"Ġannexes":11890,"Ġlicence":11891,"Ġlicet":11892,"experiment":11893,"Ġsolidity":11894,"Ġinstincts":11895,"confirmation":11896,"Ġspiritualism":11897,"ĠDIALECTICAL":11898,"donation":11899,"raised":11900,"haustible":11901,"Ġcalculation":11902,"judges":11903,"judging":11904,"singular":11905,"Ġsilver":11906,"cility":11907,"Ġcompassion":11908,"Ġridicule":11909,"Ġveh":11910,"Ġveiled":11911,"Ġperplexing":11912,"Ġsuffering":11913,"Ġbetrayed":11914,"SECTION":11915,"SECOND":11916,"devised":11917,"harmonize":11918,"treatment":11919,"Ġsalts":11920,"Ġinexorably":11921,"Ġinexhaustible":11922,"Ġbinds":11923,"Ġprimeval":11924,"admixture":11925,"admiration":11926,"Ġheights":11927,"expositions":11928,"classes":11929,"definitely":11930,"ĠConclusion":11931,"pursuit":11932,"pursued":11933,"communio":11934,"deserve":11935,"comprehending":11936,"comprehended":11937,"convincing":11938,"Ġcriticize":11939,"Ġsurprise":11940,"Ġinsisted":11941,"Ġsustained":11942,"Ġfriend":11943,"Ġfatalist":11944,"exhibit":11945,"ĠGrant":11946,"ĠMethodology":11947,"Ġtalked":11948,"Grant":11949,"cosmology":11950,"detect":11951,"detailed":11952,"delusion":11953,"honoured":11954,"honesty":11955,"heterogeneous":11956,"Ġastonishing":11957,"introduction":11958,"reckoning":11959,"Ġincorporeal":11960,"Ġbonus":11961,"organon":11962,"Ġpragmatic":11963,"Ġruined":11964,"Ġembarrassments":11965,"transcends":11966,"Ġhealthy":11967,"excite":11968,"excited":11969,"speak":11970,"Ġgratification":11971,"Ġgratuitous":11972,"probable":11973,"Ġencourage":11974,"Ġencourages":11975,"contemplated":11976,"designate":11977,"specifically":11978,"Ġdeficiency":11979,"Ġpunctual":11980,"Ġpunctually":11981,"declarations":11982,"tonian":11983,"increase":11984,"ancients":11985,"forthcoming":11986,"Produce":11987,"ĠCognitions":11988,"Ġvalues":11989,"ĠCanon":11990,"Ġmasses":11991,"Ġconsulting":11992,"ĠDetermine":11993,"ĠDetermining":11994,"Ġdegrade":11995,"Ġdegraded":11996,"recognise":11997,"recognizes":11998,"Ġpublished":11999,"Ġmarvellous":12000,"ĠAgainst":12001,"Ġdisappeared":12002,"ĠSeat":12003,"ĠWolfian":12004,"Ġresponsibility":12005,"ĠSubjective":12006,"Persuasion":12007,"barism":12008,"bringing":12009,"Ġautomaton":12010,"Ġpoles":12011,"Ġpolice":12012,"Ġinspires":12013,"Ġtolerable":12014,"Ġtolerate":12015,"Ġmali":12016,"Ġmalum":12017,"Ġrefinement":12018,"Ġprolonging":12019,"Ġprolonged":12020,"Ġricher":12021,"Ġperpetual":12022,"Ġsubdivided":12023,"Ġsubdivisions":12024,"precepts":12025,"agonal":12026,"sympathy":12027,"symbol":12028,"major":12029,"majesty":12030,"attacks":12031,"Ġchemists":12032,"Ġbeneficence":12033,"Ġtautological":12034,"anthropomorphic":12035,"Ġratiocinant":12036,"Ġarchetypal":12037,"Ġarchetypes":12038,"professes":12039,"Ġwavering":12040,"preventing":12041,"creature":12042,"creatures":12043,"Ġeducation":12044,"Ġseduced":12045,"iverance":12046,"Ġshadows":12047,"Ġarticulation":12048,"Ġhastily":12049,"4280":12050,"Caius":12051,"Causality":12052,"Ġelucidate":12053,"Ġlargest":12054,"Ġindividuum":12055,"Ġpremise":12056,"Ġpresumed":12057,"Ġconfounding":12058,"Ġdeviations":12059,"ĠWhoever":12060,"authorized":12061,"beneficial":12062,"diversity":12063,"diversities":12064,"flown":12065,"framed":12066,"functions":12067,"medium":12068,"parents":12069,"ratione":12070,"skill":12071,"sketch":12072,"sentiments":12073,"testing":12074,"temptation":12075,"temptations":12076,"Ġignore":12077,"reconciled":12078,"enjoyment":12079,"Ġsanct":12080,"Ġsanctions":12081,"Ġsmoke":12082,"Ġsmooth":12083,"Ġsoftware":12084,"Ġpotential":12085,"Ġinane":12086,"Ġinanimate":12087,"Ġincapac":12088,"Ġincapacity":12089,"Ġmountain":12090,"Ġmountains":12091,"Ġflatten":12092,"Ġepisyllogism":12093,"Ġreports":12094,"Ġdiameter":12095,"Ġdiagonal":12096,"strength":12097,"strengthened":12098,"Ġlimbs":12099,"Ġforgetting":12100,"Ġunconsciously":12101,"plainly":12102,"abandoning":12103,"abandoned":12104,"Ġcomfort":12105,"indubitably":12106,"private":12107,"privilege":12108,"Ġadversary":12109,"Ġappetite":12110,"ĠPermitted":12111,"ĠPostulate":12112,"ĠPostulates":12113,"Ġyea":12114,"Ġarguing":12115,"Ġsubreptions":12116,"Ġsubreptio":12117,"ĠCertainly":12118,"ĠCosmical":12119,"ĠCosmology":12120,"Ġimaginarium":12121,"doctrines":12122,"doctrinal":12123,"Ġheroes":12124,"obscure":12125,"obscurity":12126,"substantia":12127,"requisite":12128,"Ġadmirers":12129,"impulse":12130,"impulses":12131,"exercising":12132,"Ġpoisons":12133,"Ġsharpen":12134,"circumstances":12135,"cultivated":12136,"Philosophical":12137,"Ġsignalize":12138,"Ġcardinal":12139,"Ġlibitum":12140,"secting":12141,"Ġ5682":12142,"facility":12143,"ĠParalogisms":12144,"Ġdecrease":12145,"Concluding":12146,"Ġsilenced":12147,"azard":12148,"wrong":12149,"Ġterminis":12150,"Ġnominally":12151,"Ġlanguages":12152,"Ġunquestionably":12153,"ademical":12154,"ĠBecause":12155,"Ġarmoury":12156,"Ġenvy":12157,"ĠOntological":12158,"Ġsurrounded":12159,"Substances":12160,"Ġastronomers":12161,"Ġdisappointment":12162,"ĠCopernicus":12163,"Epicurean":12164,"Morality":12165,"Stoics":12166,"Wolfian":12167,"calculation":12168,"easily":12169,"familiar":12170,"ficiency":12171,"humiliates":12172,"loving":12173,"laborious":12174,"motherly":12175,"penetrating":12176,"Ġtears":12177,"Ġtertium":12178,"inozism":12179,"instructed":12180,"Ġtheologians":12181,"enumerate":12182,"Ġcandour":12183,"Ġcitizen":12184,"Ġsagacity":12185,"Ġinstrument":12186,"Ġbroke":12187,"Ġthwarting":12188,"Ġmingles":12189,"Ġmilitates":12190,"Ġfantastic":12191,"animals":12192,"Ġeclipses":12193,"Ġlatent":12194,"Ġliquet":12195,"Ġweariness":12196,"Ġsupposititious":12197,"Ġsuddenly":12198,"threatens":12199,"embarrassment":12200,"conjectured":12201,"confines":12202,"convenience":12203,"constantly":12204,"Ġalkali":12205,"Ġempiricist":12206,"adapted":12207,"Ġtradesman":12208,"Ġnovelty":12209,"primary":12210,"ĠFaculty":12211,"Ġaccusation":12212,"Ġdissipate":12213,"ĠPrecisely":12214,"speculations":12215,"Ġphantoms":12216,"ĠClue":12217,"Ġobliterated":12218,"ĠHistory":12219,"ĠHypothesis":12220,"Ġdiscretum":12221,"Ġenigma":12222,"ĠEvents":12223,"serviceable":12224,"sensualizing":12225,"Ġimpotence":12226,"Ġentrusted":12227,"Ġinflexible":12228,"Ġimmediatae":12229,"Ġappertaining":12230,"ĠLatin":12231,"Ġilluminated":12232,"granting":12233,"analogous":12234,"architectonic":12235,"mysticism":12236,"Ġindiscernibles":12237,"ĠImperatives":12238,"consequentiae":12239,"Ġprosyllogisms":12240,"elevated":12241,"ĠDiscovery":12242,"Ġtreasures":12243,"ĠNegation":12244,"ĠOriginally":12245,"scholastic":12246,"Ġsteadfastness":12247,"ĠAbbott":12248,"Ġauthenticated":12249,"Ġeconomical":12250,"Ġincontrovertibly":12251,"Ġembellishments":12252,"Ġsurreptitiously":12253,"Ġdialetic":12254,"ĠCarolina":12255,"Ġ4280":12256,"Ġhyperbolic":12257,"Categories":12258,"Ġillegitimate":12259,"Ġconditio":12260,"Ġbequeath":12261,"Ġprolixity":12262,"Ġvigour":12263,"ĠPHILOS":12264,"Ġindivisible":12265,"Ġenemy":12266,"Ġdiligence":12267,"Ġengraft":12268,"ĠJUDGEMENT":12269,"BJECTIVE":12270,"Criticism":12271,"Juvenal":12272,"LLARY":12273,"Pleasure":12274,"Permanence":12275,"Things":12276,"Until":12277,"YSTEM":12278,"busy":12279,"bservation":12280,"coverably":12281,"cobweb":12282,"civilized":12283,"dollars":12284,"detrimental":12285,"fanaticism":12286,"fictitious":12287,"fruitful":12288,"govern":12289,"hindrances":12290,"hopes":12291,"mastery":12292,"mundus":12293,"pobox":12294,"splendour":12295,"soundness":12296,"twofold":12297,"victory":12298,"welfare":12299,"Ġtorment":12300,"Ġtibi":12301,"Ġterrible":12302,"Ġatheistic":12303,"Ġaverage":12304,"Ġaequivoca":12305,"reluctantly":12306,"recommendations":12307,"repeated":12308,"resemblances":12309,"encouragement":12310,"Ġwretched":12311,"Ġcunning":12312,"Ġcathartic":12313,"Ġcubic":12314,"Ġcrowded":12315,"Ġpushed":12316,"alleged":12317,"Ġinexplicable":12318,"Ġinhabitants":12319,"escape":12320,"Ġthreshold":12321,"Ġectypal":12322,"Ġreverses":12323,"Ġrecapit":12324,"Ġresearches":12325,"Ġdictionis":12326,"Ġducat":12327,"starry":12328,"omnipotence":12329,"omnitudo":12330,"utcheson":12331,"Ġhostile":12332,"ectypa":12333,"theorem":12334,"improvement":12335,"ossession":12336,"Ġlaugh":12337,"Ġluxury":12338,"Ġwearied":12339,"Ġforbear":12340,"Ġsupremacy":12341,"ibiblio":12342,"irginia":12343,"persisted":12344,"perplexity":12345,"perpetually":12346,"Ġintimidation":12347,"Ġintegrity":12348,"chievous":12349,"condemn":12350,"conjunctio":12351,"Ġhaphazard":12352,"Ġunshaken":12353,"Ġunsettled":12354,"Ġunexceptionable":12355,"Ġcaelo":12356,"Ġraindrops":12357,"pragmatic":12358,"Ġmelts":12359,"suppositio":12360,"ĠFACULTY":12361,"ĠFebruary":12362,"Ġcognizant":12363,"excellent":12364,"ĠAldarondo":12365,"ĠPolemics":12366,"ĠSMALL":12367,"Ġphilanthropist":12368,"Ġsubdued":12369,"Ġsubsidiary":12370,"commencing":12371,"behoof":12372,"ĠGovernor":12373,"Ġcontrariwise":12374,"ĠCOROLLARY":12375,"Ġobnoxious":12376,"ĠHarmony":12377,"Ġvalueless":12378,"paradoxical":12379,"ĠReciproc":12380,"Ġinterfering":12381,"ĠElucidation":12382,"ĠEBCDIC":12383,"ĠELEMENTS":12384,"ĠDOMAIN":12385,"Ġimpassable":12386,"struggle":12387,"Ġeloquent":12388,"Ġmisinterpretation":12389,"obstacles":12390,"Ġundiscovered":12391,"Ġinvoluntarily":12392,"ĠArchitectonic":12393,"ĠKingsmill":12394,"ĠKNOW":12395,"Ġfrankness":12396,"ĠPhalaris":12397,"Prototypon":12398,"ĠPUBLIC":12399,"ĠPROBLEM":12400,"ĠTrancendentale":12401,"Ġincumbent":12402,"ĠÃĨSTHETIC":12403,"CLUSION":12404,"Ġcourtesy":12405,"ĠPHILOSO":12406,"\"),":12407,"($":12408,"87":12409,"AF":12410,"Ant":12411,"ARA":12412,"Creating":12413,"DEM":12414,"DAMAG":12415,"End":12416,"FUND":12417,"GRA":12418,"ITH":12419,"IGHT":12420,"LAF":12421,"NER":12422,"RS":12423,"Reven":12424,"UAL":12425,"Updated":12426,"Volunteers":12427,"WNER":12428,"bnew":12429,"copy":12430,"link":12431,"loc":12432,"liability":12433,"rary":12434,"tact":12435,"warrant":12436,"Ġ*****":12437,"received":12438,"enforce":12439,"Ġwal":12440,"Ġcodes":12441,"Ġnet":12442,"Ġelect":12443,"oup":12444,"Ġreform":12445,"status":12446,"omain":12447,"arities":12448,"Ġnotifies":12449,"Ġgbnew":12450,"ĠIRS":12451,"ecutive":12452,"charge":12453,"charities":12454,"ilation":12455,"Ġunsol":12456,"Ġunlink":12457,"pliance":12458,"ditional":12459,"Ġ(\"":12460,"Ġ(=":12461,"Ġshared":12462,"phrase":12463,"ĠFull":12464,"outside":12465,"Ġstored":12466,"ĠAK":12467,"ĠACT":12468,"Ġdelet":12469,"Ġdiscontinue":12470,"ĠPublic":12471,"ĠPOSSIBILITY":12472,"ĠPARA":12473,"unities":12474,"ĠSalt":12475,"ĠNearly":12476,"ĠOWNER":12477,"ĠWOR":12478,"ĠWIL":12479,"ĠWITH":12480,"orting":12481,"ortunities":12482,"Ġgroup":12483,"ĠCity":12484,"gory":12485,"Ġowed":12486,"Ġobsole":12487,"Ġemployee":12488,"ĠRIGHT":12489,"Ġoutdated":12490,"Ġexpend":12491,"Ġexporting":12492,"ĠEmail":12493,"available":12494,"ĠDirect":12495,"ĠDON":12496,"ĠDomain":12497,"assistance":12498,"Ġcorpor":12499,"Ġappearing":12500,"ĠMission":12501,"Ġdeductible":12502,"Ġcompilation":12503,"ĠContrib":12504,"ĠContact":12505,"redistrib":12506,"subscribe":12507,"Ġfinanci":12508,"goals":12509,"array":12510,"ĠTHOSE":12511,"Ġnonpropri":12512,"Ġidentification":12513,"ĠExecutive":12514,"request":12515,"fees":12516,"INCIDENTAL":12517,"comput":12518,"compressed":12519,"ĠREPL":12520,"ĠREFUND":12521,"Ġensuring":12522,"Ġcountries":12523,"ĠAND":12524,"Ġaccessed":12525,"Ġaccessible":12526,"NDATION":12527,"Professor":12528,"Ġrenamed":12529,"ĠChief":12530,"unteer":12531,"ĠDIRECT":12532,"ACEMENT":12533,"ĠCompliance":12534,"801":12535,"Ġversion":12536,"Ġlinked":12537,"distribute":12538,"distribution":12539,"Ġhundreds":12540,"Ġ501":12541,"Ġcharitable":12542,"ĠNewby":12543,"Ġ841":12544,"ĠEXCEP":12545,"Ġalternate":12546,"Ġsolicitation":12547,"LIABILITY":12548,"LIABLE":12549,"ĠAbout":12550,"ĠAGREEMENT":12551,"501":12552,"PROVIDED":12553,"Ġeducational":12554,"Ġswamp":12555,"TRADEM":12556,"Ġredistribute":12557,"Ġredistributing":12558,"ĠINDEMNITY":12559,"ĠBEFORE":12560,"Ġaddresses":12561,"1887":12562,"Ġreported":12563,"performing":12564,"Ġlibrary":12565,"ĠPGLAF":12566,"ĠRedistribution":12567,"ĠRedistributing":12568,"ĠDISTRIBUTE":12569,"ĠDISTRIBUTOR":12570,"Ġanalyzed":12571,"5683":12572,"ĠFOUNDATION":12573,"ĠAdditional":12574,"ĠGregory":12575,"PLEASE":12576,"6221541":12577,"Ġ596":12578,"DAMAGE":12579,"GRAPH":12580,"Revenue":12581,"warranties":12582,"enforceability":12583,"Ġwalks":12584,"Ġnetwork":12585,"Ġgbnewby":12586,"Ġunsolicited":12587,"ĠACTUAL":12588,"Ġdeletions":12589,"ĠPARAGRAPH":12590,"ĠWORK":12591,"ĠWILL":12592,"Ġobsolete":12593,"ĠDirector":12594,"Ġcorporation":12595,"ĠContributions":12596,"Ġfinancial":12597,"Ġnonproprietary":12598,"ĠREPLACEMENT":12599,"Ġ84116":12600,"ĠEXCEPT":12601,"TRADEMARK":12602,",-":12603,"My":12604,"ues":12605,"itatively":12606,"Ġsqu":12607,"Ġhur":12608,"permission":12609,"Ġexpans":12610,"Ġdoubtless":12611,"Ġturned":12612,"Ġstarting":12613,"ĠCommon":12614,"Ġannounced":12615,"collection":12616,"ĠQuality":12617,"Ġ5683":12618,"copying":12619,"Ġspherical":12620,"Ġsquare":12621,"MARK":12622,"Ver":12623,"Ġpledge":12624,"ices":12625,"Ġreserved":12626,"Ġcongr":12627,"ĠTABLE":12628,"Ġrandom":12629,"Ġstock":12630,"ĠSect":12631,"lessly":12632,"Ġimagined":12633,"lesome":12634,"REMARK":12635,"Ġintrude":12636,"Ġforever":12637,"Ġ52":12638,"Ġwarm":12639,"Ġdeprived":12640,"Ġconceded":12641,"Ġmystical":12642,"Ġvaluable":12643,"Ġinvented":12644,"Ġtroublesome":12645,"ĠSensibility":12646,"Ġexpansion":12647,"App":12648,"Neg":12649,"Solution":12650,"Second":12651,"aum":12652,"gart":12653,"htm":12654,"Ġversa":12655,"Ġinad":12656,"Ġincul":12657,"Ġthin":12658,"Ġtow":12659,"Ġash":12660,"pth":12661,"Ġgather":12662,"Ġproclaim":12663,"ĠTwo":12664,"endix":12665,"useness":12666,"Ġunfit":12667,"Ġspot":12668,"Ġran":12669,"Ġrhapsod":12670,"Ġsenseless":12671,"Ġvary":12672,"ĠBaum":12673,"Ġshines":12674,"antas":12675,"Ġadorn":12676,"Ġdepth":12677,"Ġdissolution":12678,"Ġeverybody":12679,"ĠWere":12680,"Ġgrants":12681,"ĠHaving":12682,"inking":12683,"Ġfeature":12684,"Ġquestioned":12685,"Ġexpounded":12686,"ĠEffect":12687,"Ġattaches":12688,"Ġimpat":12689,"ĠMain":12690,"Ġnormal":12691,"Ġresc":12692,"Ġphysiological":12693,"Ġworthless":12694,"Ġderiving":12695,"Ġdoubting":12696,"Ġdialectics":12697,"Ġpassage":12698,"Ġprogressive":12699,"Ġprompt":12700,"Ġpromised":12701,"Ġpretends":12702,"Ġfields":12703,"Ġtranscendently":12704,"Ġ38":12705,"Ġsurfaces":12706,"Ġforego":12707,"Ġletting":12708,"Ġcarelessly":12709,"Ġtesting":12710,"Ġscope":12711,"Ġindisput":12712,"Ġconstructions":12713,"Ġkeeps":12714,"Ġdetail":12715,"Ġpreventing":12716,"Ġirref":12717,"Ġafforded":12718,"Ġstudied":12719,"Ġwriters":12720,"Ġcontributed":12721,"Ġglad":12722,"ugn":12723,"Ġinquirers":12724,"Ġdisappearance":12725,"Ġontology":12726,"Ġrepugn":12727,"Ġsuffice":12728,"ĠCommunity":12729,"ausibility":12730,"Ġpropounds":12731,"Ġdreaming":12732,"Ġappealing":12733,"Ġdealing":12734,"Ġobscurely":12735,"Ġgrows":12736,"Ġentertainment":12737,"Ġtraced":12738,"Ġinsists":12739,"Ġpreparatory":12740,"Ġastronomy":12741,"Ġslumber":12742,"Ġaspects":12743,"Ġregularity":12744,"Ġspoiled":12745,"ĠPsychological":12746,"ĠDetermination":12747,"Ġseductive":12748,"vertently":12749,"Ġarticle":12750,"Ġcredentials":12751,"Ġfamiliar":12752,"Ġprocures":12753,"Ġchallenge":12754,"ĠShould":12755,"Conclusion":12756,"ĠEss":12757,"Ġturning":12758,"Introduction":12759,"Ġapodictical":12760,"Ġhurt":12761,"Ġcongruent":12762,"garten":12763,"Ġinadvertently":12764,"Ġinculc":12765,"ĠBaumgarten":12766,"Ġindisputably":12767,".).":12768,"Ab":12769,"AND":12770,"Axioms":12771,"Do":12772,"Even":12773,"Hypothe":12774,"Many":12775,"Nat":12776,"Pre":12777,"Post":12778,"Sh":12779,"Tot":12780,"Yet":12781,"aed":12782,"aug":12783,"aversed":12784,"bu":12785,"dit":12786,"ding":12787,"eutic":12788,"frequ":12789,"gner":12790,"ihi":12791,"jo":12792,"lamm":12793,"mm":12794,"mil":12795,"obe":12796,"rif":12797,"rus":12798,"sed":12799,"tof":12800,"tested":12801,"ued":12802,"vestig":12803,"viate":12804,"Ġtorn":12805,"ita":12806,"itiv":12807,"itical":12808,"itter":12809,"itated":12810,"enance":12811,"Ġwon":12812,"Ġwind":12813,"Ġwast":12814,"Ġwood":12815,"ering":12816,"eries":12817,"eriality":12818,"Ġcel":12819,"Ġcoll":12820,"Ġcover":12821,"Ġcru":12822,"Ġsic":12823,"Ġske":12824,"Ġsche":12825,"Ġpil":12826,"Ġpious":12827,"ald":12828,"aling":12829,"icit":12830,"icative":12831,"icine":12832,"Ġincogn":12833,"Ġinert":12834,"Ġinext":12835,"Ġincess":12836,"Ġinverse":12837,"Ġinheres":12838,"Ġinnumer":12839,"ndoubtedly":12840,"Ġbast":12841,"Ġbungl":12842,"Ġbitter":12843,"orum":12844,"Ġmount":12845,"Ġmiles":12846,"Ġmihi":12847,"Ġfo":12848,"Ġfet":12849,"Ġfare":12850,"Ġfoun":12851,"Ġfather":12852,"Ġere":12853,"Ġreact":12854,"Ġresem":12855,"Ġreversed":12856,"leaving":12857,"Ġconst":12858,"Ġconstrained":12859,"Ġconnoisseurs":12860,"Ġded":12861,"Ġbeat":12862,"Ġbeaten":12863,"enter":12864,"entive":12865,"arp":12866,"utary":12867,"Ġprized":12868,"imen":12869,"imination":12870,"osed":12871,"Ġonus":12872,"Ġlame":12873,"Ġlapse":12874,"Ġweigh":12875,"Ġforty":12876,"idical":12877,"ceptio":12878,"irk":12879,"Ġgerms":12880,"cip":12881,"ograph":12882,"ifting":12883,"perceptio":12884,"Ġproposing":12885,"ulent":12886,"Ġunwill":12887,"Ġunthink":12888,"Ġunlike":12889,"Ġunmist":12890,"Ġunsus":12891,"Ġunintention":12892,"abere":12893,"Ġatom":12894,"Ġcares":12895,"odox":12896,"Ġspat":12897,"estial":12898,"terations":12899,"ecessary":12900,"Ġrust":12901,"Ġrival":12902,"Ġrouse":12903,"Ġsold":12904,"tract":12905,"trogress":12906,"Ġtraversed":12907,"Ġvouch":12908,"aker":12909,"akable":12910,"Ġheard":12911,"Ġhears":12912,"orian":12913,"Ġabol":12914,"Ġabstain":12915,"print":12916,"suited":12917,"Ġshr":12918,"Ġshoot":12919,"ĠFollow":12920,"Ġpertain":12921,"Ġperverted":12922,"Ġstood":12923,"Ġevasion":12924,"Ġjoined":12925,"Ġjew":12926,"ĠAm":12927,"ĠAPPENDIX":12928,"ources":12929,"acknowledge":12930,"Ġadhering":12931,"Ġadorned":12932,"Ġappended":12933,"sequent":12934,"Ġdeem":12935,"Ġdissol":12936,"Ġdispensable":12937,"Ġdisqui":12938,"Ġdisagreeable":12939,"ĠPlat":12940,"Ġindustr":12941,"Ġindulg":12942,"Ġparticle":12943,"Ġchart":12944,"Ġsubsequently":12945,"Ġsubserve":12946,"ĠNecessary":12947,"Ġselected":12948,"Ġsevered":12949,"agment":12950,"Ġserv":12951,"ĠIntelligence":12952,"ĠInvestig":12953,"Ġcontext":12954,"Ġgrace":12955,"ĠGo":12956,"ĠGeometry":12957,"ritory":12958,"ĠCol":12959,"Ġfoundations":12960,"Ġobviate":12961,"Ġcommended":12962,"olding":12963,"Ġfollower":12964,"Ġrationalistic":12965,"ĠHerr":12966,"Ġemployments":12967,"Ġdiscursively":12968,"Ġexamines":12969,"Ġextensions":12970,"Ġhappier":12971,"weet":12972,"Ġmetamorph":12973,"Ġenc":12974,"Ġenclos":12975,"Ġinterrupted":12976,"angle":12977,"Ġrealm":12978,"Ġapplause":12979,"Ġattentive":12980,"Ġsimul":12981,"blematical":12982,"Ġsecured":12983,"ĠPropositions":12984,"Ġpointing":12985,"Ġpointed":12986,"Ġcorrel":12987,"Ġheredit":12988,"Ġheretof":12989,"Ġnaturalist":12990,"Ġinfers":12991,"Ġinflu":12992,"Ġinfusing":12993,"Ġinflamm":12994,"Ġexplicative":12995,"ĠMen":12996,"Ġconcaten":12997,"Ġwhereof":12998,"Ġstriking":12999,"irmative":13000,"inguishable":13001,"Ġcontradicted":13002,"Ġdeducible":13003,"Ġcompend":13004,"Ġtruthful":13005,"regular":13006,"ĠLast":13007,"ĠUN":13008,"ĠUndoubtedly":13009,"Ġmetaphysician":13010,"Int":13011,"Infinite":13012,"Ġoccult":13013,"Ġsuccessors":13014,"Ġpleased":13015,"Ġelicit":13016,"disappear":13017,"Ġnumbered":13018,"Ġfinish":13019,"Ġneglected":13020,"Ġmethodically":13021,"Ġsolutions":13022,"Ġbounded":13023,"Ġantip":13024,"Ġequivocal":13025,"arrower":13026,"Ġexcepting":13027,"Ġlessen":13028,"Ġcohere":13029,"ĠPrior":13030,"ĠAssoci":13031,"Ġmaterialist":13032,"Ġbeginnings":13033,"Ġpeculiarly":13034,"Ġdestroys":13035,"Ġcirculate":13036,"Ġundiminished":13037,"Ġbrigh":13038,"Ġendeavor":13039,"ulled":13040,"sistence":13041,"Ġspringing":13042,"Ġpretty":13043,"Ġpretending":13044,"Ġcorrected":13045,"Ġauthoritatively":13046,"Ġcriticisms":13047,"Ġintuit":13048,"Ġcombining":13049,"Ġcomprehens":13050,"Ġabstracts":13051,"Ġadept":13052,"Ġforeseen":13053,"ĠArt":13054,"ĠArithmet":13055,"Ġsignificant":13056,"Ġagreeing":13057,"Ġgenesis":13058,"Ġacquires":13059,"Ġoffended":13060,"Ġoccasional":13061,"Ġlightly":13062,"Ġdeserved":13063,"Ġfragment":13064,"Ġreflections":13065,"Ġoldest":13066,"Ġmechanics":13067,"Ġdomin":13068,"Ġdownfall":13069,"Problematical":13070,"Ġclassification":13071,"Ġprobandi":13072,"Ġborn":13073,"Ġseverity":13074,"Reality":13075,"Ġsophistry":13076,"Ġopenly":13077,"Ġbackward":13078,"aternal":13079,"Ġrecur":13080,"Ġconfines":13081,"Ġsubsuming":13082,".\"]":13083,"Ġsentences":13084,"Ġproductions":13085,"Ġintentional":13086,"Ġshortness":13087,"Ġboldness":13088,"Ġbadly":13089,"STAND":13090,"minded":13091,"Ġtwice":13092,"Ġconfesses":13093,"Ġgradations":13094,"Ġtransgressed":13095,"ĠWhich":13096,"ĠWhile":13097,"Ġfortunately":13098,"Ġcomplain":13099,"Ġprotest":13100,"Ġprotection":13101,"versions":13102,"Ġobjectionable":13103,"Ġpropound":13104,"Ġpropaed":13105,"Ġcleaving":13106,"Ġimparts":13107,"Ġpenetrated":13108,"Ġdeparture":13109,"Ġannounce":13110,"ĠDeg":13111,"Ġcentral":13112,"Ġexercising":13113,"Ġaugmentation":13114,"Ġflo":13115,"Ġpatience":13116,"Ġpatches":13117,"anticipated":13118,"Ġquarrel":13119,"Ġdespair":13120,"ativa":13121,"Ġfixing":13122,"Ġreconcilable":13123,"ĠQuod":13124,"Ġunfold":13125,"Ġcontemptuous":13126,"Ġphilosophic":13127,"Ġphilosophically":13128,"Ġboastful":13129,"Ġpressing":13130,"Ġmedicine":13131,"Ġalternative":13132,"Metaphysical":13133,"Ġchildish":13134,"Ġirresistibly":13135,"Analytical":13136,"Ġsteady":13137,"Ġfellow":13138,"Ġimpediment":13139,"Ġirrevoc":13140,"Ġcomprise":13141,"Ġsustenance":13142,"Ġsteel":13143,"ĠGermans":13144,"Ġcontroversies":13145,"balanced":13146,"Ġfatalism":13147,"exhibits":13148,"Ġastray":13149,"Ġspoke":13150,"Universal":13151,"Ġrigid":13152,"Ġconsulted":13153,"Ġdegrading":13154,"recognizable":13155,"Ġmariner":13156,"ĠSegner":13157,"Ġselecting":13158,"Ġanthropomorphism":13159,"Ġ1997":13160,"ĠSubstant":13161,"ĠSubsistence":13162,"Ġpersistence":13163,"Ġbegun":13164,"Ġsprang":13165,"Ġjuridical":13166,"Ġjudici":13167,"Ġcutting":13168,"Ġstopping":13169,"Ġdeeds":13170,"Ġindividually":13171,"Ġpremises":13172,"Ġantiquated":13173,"Ġdeviation":13174,"Ġgrateful":13175,"ĠUNDERSTAND":13176,"Ġfamily":13177,"Ġprocuring":13178,"Ġdecreases":13179,"Contents":13180,"Ġlanguor":13181,"ĠWisdom":13182,"Ġsummoning":13183,"ĠOntology":13184,"Ġdisappointed":13185,"Ġjurisprudence":13186,"ĠCopernican":13187,"Ġtouched":13188,"Ġtouches":13189,"Ġdismissed":13190,"Ġcommendable":13191,"sertation":13192,"sertorical":13193,"Community":13194,"Ġterritory":13195,"Ġsalutary":13196,"Ġmirror":13197,"Ġfifty":13198,"eternity":13199,"Ġallotment":13200,"Ġvaunted":13201,"Ġabundantly":13202,"acknowledged":13203,"Ġpredecess":13204,"Ġchallenges":13205,"Anticipations":13206,"Negative":13207,"html":13208,"Ġtower":13209,"Ġashamed":13210,"Ġdepths":13211,"Ġprompted":13212,"Ġirrefutable":13213,"Does":13214,"Natural":13215,"Should":13216,"build":13217,"frequently":13218,"rusius":13219,"Ġcelestial":13220,"Ġinextinguishable":13221,"Ġinnumerable":13222,"Ġbastard":13223,"Ġfetters":13224,"Ġfountain":13225,"Ġunwilling":13226,"Ġunmistakable":13227,"Ġjewel":13228,"Ġdisquiet":13229,"ĠInvestigation":13230,"Ġmetamorphosed":13231,"Ġenclosing":13232,"Ġhereditary":13233,"Ġheretofore":13234,"Ġinflammable":13235,"Ġconcatenation":13236,
[...]
