#version: 0.2
Ġ t
h e
Ġ a
o n
i n
Ġ o
Ġt he
r e
i t
Ġo f
i s
e n
a t
e r
Ġ w
Ġ c
i on
Ġ s
Ġ p
a l
i c
Ġ in
n d
Ġ b
e s
Ġt h
o r
Ġ m
Ġt o
c e
Ġ f
in g
c t
a n
e d
Ġ n
o u
Ġ e
s e
l y
Ġ is
Ġ Ġ
l e
Ġ it
Ġ re
Ġa nd
Ġ d
Ġc on
s t
Ġb e
o m
en t
Ġw h
a r
o t
u t
a s
ic h
Ġ h
e ct
Ġa s
Ġp r
l l
Ġ u
i v
Ġwh ich
t he
Ġth at
at ion
i m
o s
it ion
it y
Ġa n
Ġ on
Ġe x
Ġ l
Ġn ot
ic al
ĠĠ ĠĠ
p t
j ect
Ġth is
Ġf or
o w
it h
es s
Ġw e
d e
u r
i b
u re
b ject
en ce
Ġs u
t er
ce pt
Ġ g
c i
l d
i r
Ġw ith
Ä ł
Ġ I
t h
v er
q u
o g
iv e
Ġo r
re s
a y
g h
Ġm e
is t
a in
Ġc an
i f
as on
Ġb y
a nd
u l
p er
cept ion
se l
â Ģ
Ġd e
s ib
v e
Ġpr o
Ġ T
r om
Ġa ll
p p
c h
c on
at e
Ġa re
Ġo bject
Ġre ason
i l
Ġn e
Ġf rom
u st
Ġb ut
o re
u s
Ġa l
Ġit s
the r
Ġin t
e m
p le
a ct
i d
en d
Ġh a
os sib
Ġa t
he n
Ġon ly
a b
Ġ (
m e
p l
i ll
a w
o l
ou ld
nd er
Ġu n
ou gh
i g
sel f
ĠĠĠĠ ĠĠĠĠ
in ci
Ġcon ception
d ition
Ġc a
m in
an s
Ġo ur
t ain
Ġthe re
âĢ Ķ
c ess
i es
u m
Ġc om
t r
Ġl aw
o f
ter min
Ġ r
Ġm ust
Ġs p
es t
n ot
i de
Ġp ossib
res ent
Ġs o
Ġpr inci
ou s
Ġw or
al ity
he r
Ġha ve
Ġo ther
Ġn at
i ence
Ġ v
Ġs e
Ġu nder
Ġe m
per ience
o d
Ġp ure
c c
Ġ B
st and
ĠT he
Ġme re
Ġ he
Ġex ist
Ġs en
Ġd o
ou nd
og n
Ġt r
u se
a k
u d
Ġde termin
g e
ct ion
f ore
ver y
s u
p r
im e
e re
Ġan y
Ġn o
Ġthe m
Ġm ay
p os
Ġfor m
a d
Ġa b
Ġw ill
al l
ar y
Ġ im
Ġp er
ar d
Ġit self
Ġthe y
stand ing
Ġne cess
or i
Ġth ing
o se
Ġcon dition
Ġ k
an t
in d
Ġ j
ab le
om en
Ġex perience
a me
Ġu s
Ġ if
il ity
Ġs t
hen omen
c ul
Ġre g
p h
a ce
p ir
ou t
Ġs h
Ġ F
Ġs y
i ori
Ġnat ure
u ition
ar t
m ent
f f
ation s
Ġ A
Ġt ime
or d
e x
gh t
Ġon e
om e
pir ical
Ġc ogn
Ġcan not
Ġh as
Ġ qu
Ġbe ing
p resent
an ce
v es
ĠB ut
Ġthe se
end ent
Ġpossib le
Ġe v
w h
act ical
c a
i re
n ow
ou r
Ġre l
Ġ ide
u n
Ġm an
Ġcon s
Ġpr iori
t y
Ġthe ir
Ġg iv
Ġm or
Ġa cc
Ġ P
Ġw ould
em ent
er s
ud g
Ġp henomen
th ing
Ġint uition
it e
Ġa pp
at ive
on e
Ġsu ch
pl es
f or
al ly
Ġem pirical
Ġ y
Ġthere fore
i ght
Ġa d
ans c
p on
Ġunder standing
t o
Ġprinci ple
Ġsu bject
) ,
Ġreg ard
ĠF or
Ġd is
se qu
Ġcogn ition
re d
c l
i e
sel ves
t ical
ut e
Ġa r
s o
Ġexist ence
on g
Ġpr actical
c es
ansc endent
Ã ł
b e
Ġ le
f ere
ent ly
Ġgiv en
ion s
Ġk now
pos ition
Ġwor ld
Ġmere ly
n the
Ġ S
ĠT h
wh ich
fere n
he re
Ġwith out
Ġre present
Ġobject s
Ġconception s
ic t
Ġp art
en er
ca use
udg ement
t e
st r
Ġc h
Ġthing s
e t
Ġ Ãł
Ġs ame
Ġs ome
er tain
Ġe very
y s
anscendent al
Ġacc ord
ter n
s p
Ġme ans
Ġ _
is e
ĠĠĠĠĠĠĠĠ ĠĠĠĠĠĠĠĠ
o p
ough t
a g
Ġprinci ples
Ġ O
at ter
Ġwh at
ak e
Ġmor al
Ġh is
h ing
Ġh ow
Ġwh o
at ed
ay s
Ġev en
Ġf a
Ġphenomen a
en s
sequ ently
Ġp h
res s
Ġm y
Ġsy nthe
l ed
Ġ N
in t
f in
Ġsu b
e l
s ol
Ġnecess ary
= =
a m
p re
Ġun ity
Ġlaw s
Ġca se
n ess
Ġth an
th at
tern al
a st
th ough
d u
e ver
Ġg ener
pp os
Ġm ore
re e
m at
Ġp ur
Ġp re
Ġsp e
Ġbe cause
Ġ C
Ġf ar
o y
Ġ G
Ġp l
Ġg r
p ossib
Ġs er
Ġj udgement
i z
Ġd if
m on
ce d
Ġ W
im it
b er
re at
Ġal so
Ġu pon
Ġm a
Ġdo es
Ġrel ation
ĠI n
Ġc ertain
Ġcon tain
Ġide a
Ġaccord ing
Ġnot hing
ol og
s is
w ays
il os
sol ute
Ġca us
or t
ĠI t
Ġbe l
Ġu se
led ge
Ġint o
r it
Ġp resent
ig n
o st
Ġa ction
n ect
Ġpossib ility
Ġcom ple
Ġthe n
con dition
ir st
Ġsen se
Ġw hen
iv ers
Ġne ver
c om
ation al
Ġcon t
T he
is m
Ġcondition s
Ġg o
o ll
ff ect
i al
Ġ en
he ther
Ġd es
Ġca use
u e
Ġ H
oll ow
Ġtr anscendental
for m
ci ous
Ġcon tr
Ġh im
Ġgener al
Ġpro position
Ġfa cul
Ġo w
at es
u ch
it her
Ġre qu
r o
Ġth ought
s er
Ġthem selves
Ġcon sequently
Ġpro per
Ġo b
Ġal one
Ġ R
Ġw as
Ġal ways
Ġd ist
st em
Ġsp ace
o ve
Ġsh ould
Ġc ould
Ġow n
w e
Ġf ound
g or
o ld
Ġf irst
ate gor
Ġab solute
i ly
a ph
Ġc all
Ġl imit
Ġp os
âĢ Ŀ
pl oy
is h
âĢ ľ
ot her
Ġcon nect
Ġs ay
Ġknow ledge
ic i
a c
Ġobject ive
Ġ end
d er
Ġcon cept
Ġbe en
sp ect
p ose
possib le
Ġin de
Ġa ct
in k
re ed
f ect
Ġf ollow
pr o
Ġf e
Ġal though
Ġph ilos
i ed
Ġqu est
Ġre m
Ġdif feren
Ġre spect
w ith
reed om
ĠTh is
Ġa g
ic s
Ġ E
a ch
con ception
Ġth us
Ġgr ound
Ġfacul ty
Ġr ational
o ph
st it
a re
Ġdis c
ut h
Ġser ies
Ġun ivers
Ã Ħ
Ġv al
Ġcomple te
Ġsy stem
in e
Ġ âĢľ
Ġbel ong
Å Ĥ
Ġor der
Ġwe re
ÃĦ ÅĤ
Ġem ploy
Ġw hether
Ġl atter
Ġex t
u al
Ġs ci
Ġ very
k e
Ġform er
ic ul
ĠN ow
um an
e ar
Ġm ake
Ġsome thing
x im
Ġha pp
Ġhow ever
b y
o ver
ur al
Ġpro du
m it
p ar
nder standing
Ġin d
m ed
Ġf ind
l ess
in ess
n e
Ġre ality
Ġpl ace
s ess
Ġwho le
Ġth ose
Ġc ategor
h a
Ġy ou
Ġo ut
in ation
Ġf reedom
Ġnecess ity
cul ative
Ġgo od
Ġth ink
Ġex p
Ġcaus ality
an g
Ġp res
Ġy et
e ll
Ġe ffect
su ous
ad ict
r ough
cious ness
sib le
o de
ut y
ig in
Ġt er
ou n
Ġsynthe sis
) .
Ġj ust
Ġh uman
i le
Ġa m
Ġquest ion
w o
Ġp ow
o int
Ġpur pose
le ct
o bject
Ġg reat
Ġst ate
Ġ ent
Ġwor k
Ġ D
i ke
pre me
Ġm ind
ut ion
Ġm at
oph y
ut en
s y
ic ation
Ġrepresent ation
Ġat t
or y
ber g
he d
Ġl og
m an
Ġma xim
uten berg
ĠR e
as s
Ġre al
Ġnat ural
s en
b le
ar ily
r ib
ĠI f
Ġb as
Ġan al
Ġapp l
o k
ere st
Ġval id
Ġs im
olog ical
Ġdifferen t
Ġpos sess
iv ed
in ce
ie w
Äł Äł
Ġ 1
Ġcon stit
th is
Ġper fect
Ġsci ence
re ason
Ġc rit
Ġth rough
ib le
== ==
ex ist
Ġex am
Ġdetermin ed
ĠP ro
aph ys
Ġ M
i ous
he mat
id er
Ġsynthe tical
f ul
Ġt wo
ed u
Ġf act
ce ed
Ġn ame
Ġ [
ul t
Ġfe el
ic e
Ġcall ed
st ance
on d
l f
Ġor igin
Ġim p
Ġhe re
ff ici
Ġsubject ive
c ogn
o ok
fin ite
Ġspe culative
a v
Ġsh all
u le
Ġbe t
Ġper ception
Ġunivers al
Ġin v
ĠW e
Ġin ternal
con s
Ġp oint
T h
at is
de termin
Ġwor d
y ond
er n
Ġd uty
Ġw ay
Ġsp here
Ġv iew
Ġide as
ĠRe ason
Ġman if
ot h
v ed
ar k
Ġ est
Ġsen suous
Ġse lf
og it
Ġqu ite
Ġch ar
Ġan other
Ġ U
Ġdetermin ation
Ġin cl
pr inci
Ġk ind
. ,
con d
ment s
ent s
Ġre f
act ion
Ġc or
Ġapp ear
atis f
t ed
Ġex pl
act er
Ġsh ow
Ġh ig
us ion
Ġa c
Ġsen s
y p
the re
Ġl ike
an ces
Ġphilos ophy
t aphys
Ġcom m
Ġr ule
f l
sib ility
i ate
u nderstanding
Ġ L
Ġhim self
a ge
condition ed
s ion
Ġint erest
ĠPro ject
Ġwe ll
Ġs tr
Ġexam ple
Ġpow er
Ġle ast
c an
feren ce
Ġex ternal
Ġnecess arily
Ġabsolute ly
i res
Ġbe yond
t ies
w ise
n er
Ġst ill
Ġim possible
Ġe ach
Ġcons ciousness
Ġe ither
ire ct
ne cess
Ġwh ile
Ġdetermin e
Ġw here
Ġm ode
Ġcon c
ĠG utenberg
Ġg ive
an ge
Ġrequ ire
Ġcom mon
Ġh and
ab l
red ic
Ġse e
a pp
Ġinde ed
Ġad mit
at ing
ell ig
Ġint ellig
Ġp e
Ġn or
it s
Ġas s
Ġour selves
r ing
Ġcons ider
olog y
Ġphenomen on
Ġconnect ion
Ġcom p
is hed
Ġre st
id ent
ex perience
ak es
we en
Ġfeel ing
Ġpro of
Ġcontain s
t ic
u nd
Ġdetermin ing
Ġa p
u ght
Ġb oth
em pt
Ġha d
_ ,
Ġc ogit
Ġqu ant
Ġaction s
B ut
icul ar
Ġm atter
ing u
Ġchar acter
e v
t en
Ġc l
Ġhapp iness
Ġm ost
Ġd iv
Ġpro ceed
Ġ i
Ġf ree
Ġcontr adict
Ġter m
Ġmanif old
Ġre s
Ġrem ain
ĠTh us
Ġad v
ab ly
Ġcategor ies
Ġlimit s
Ġname ly
Ġp le
g in
ot he
re g
Ġm ight
Ġab le
as ure
Ġrepresent ations
Ġr ight
Ġregard s
med iate
d is
Ġs atisf
ide red
Ġse cond
E R
Ġm uch
ĠA nd
ffici ent
Ġcon ce
c cess
g um
p endent
Ġbet ween
Ġs ince
en ces
f ter
Ġn ow
Ġdist in
Ġma de
Ġexp ress
Ġpres u
p henomen
Ġregard ed
a id
Ġmor ality
Ġth ough
Ġbeing s
con tr
Ġtr ue
Ġcontr ary
yp othe
I n
i qu
f rom
Ġd edu
ppos ition
p e
Ġtr uth
Ġnot ion
iz e
Ġsu pp
Ġfollow s
Ġbe fore
Ġ ill
Ġt ake
Ġcon cl
Ġsu preme
Ġsu m
it ed
Ġme taphys
str u
Ġsen sibility
Ġo ught
le ar
p end
ic ism
Ġpart s
b l
m uch
Ġp redic
cc ord
Ġph ys
Ġcons ist
Ġat tain
n at
iv es
Ġpro ble
Ġmat hemat
v ing
exist ence
Ġu p
Ġother s
Ġlog ical
E N
b ut
Ġman ner
est ig
iqu e
Ġ er
Ġsub stance
Ġjudgement s
re present
T I
Ġbe gin
t m
conception s
ore tical
o id
he st
ou b
ir m
c rib
k now
Ġcons idered
Ġd irect
is ion
ĠĠ Ġ
Ġag ain
O N
u de
Ġa ff
Ġo cc
re l
m a
s on
Ġab ove
Ġcont ent
Ġe l
fl u
w ard
int uition
ppos ed
Ġto t
Ġfound ation
en e
Ġf in
Ġr ul
Ġd er
Ġst and
Ġcon form
su b
Ġse t
at h
os m
w or
Â §
Ġconc ern
Ġman y
Ġa im
Ġdisc over
oun t
ĠO f
re ad
pon d
Ġproposition s
Ġm ot
Ġf ur
as much
Ġe le
ĠC on
mon str
f er
Ġar gum
Ġpart icular
Ġpur pos
Ġse em
ĠO n
res pond
Ġde g
th od
e p
t le
od u
Ġc lear
Ġh ypothe
Ġexist s
ut es
ak en
Ġdes ire
Ġ ed
ser t
Ġest abl
at ic
if e
ĠB e
on ly
he s
Ġun conditioned
Ġcaus es
Ġcondition ed
Ġquant ity
Ġle g
ial ect
Ġm en
ĠG od
Ġbas ed
at her
em pirical
p able
Ġs our
om y
Ġan s
Ġne ed
Ġwor th
princi ple
c ise
Ġar r
Ġrul es
n ing
Ġj udg
Ġsu ccess
st ances
Ġany thing
Ġob ser
Ġconcept s
Ġext end
ĠP ure
r aph
Ġhig hest
be ing
l aw
Ġa fter
Ġ "
ign if
, âĢĿ
Ġ es
Ġsim ple
c y
Ġde fin
Ġground s
ccord ing
Ġdist ingu
tr ib
Ġn um
c ome
m is
Ġim mediate
ag raph
Ġans w
un ction
pr actical
mat ical
iz ed
con t
the m
a im
O O
a se
Ġb ound
Ġcognition s
Ġm od
ĠT H
Ġbelong s
Ġper son
Ġrequ ires
Ġl ife
I t
Ġcon sequ
ent ion
Ġcon f
Ġcomplete ly
Ġvalid ity
Ġan t
Ġg u
m ust
Ġ 2
hen ce
c ertain
Ġim ag
ar r
our se
f icul
Ġmaxim s
op her
oub t
Ġevery thing
cogn ition
Ġspe ci
g r
Ġs ol
Ġim per
Th is
Ġex er
Ġent ire
Ġre ad
ĠĠĠĠĠĠĠĠĠĠĠĠĠĠĠĠ ĠĠĠĠĠĠĠĠ
Ġres ult
the less
Ġne w
iv en
per ception
o od
Ġw ant
Ġc op
Ġin finite
Ġinv estig
Ġemploy ed
Ġmy self
er ial
p ect
it ive
Ġaccord ance
A L
Ġb od
Ġch ange
flu ence
Ġreg ress
Ġcont ing
Ġs c
Ġl ess
ĠI de
Ġr ather
Ġso le
p s
Ġo ver
Ġatt empt
Ġin g
Ġe as
p art
ak ing
Ġconnect ed
Ġbas is
Ġl ong
Ġappl ication
necess ary
Ġproble m
ect ion
u ally
ou l
ir t
me re
ĠS u
' s
Ġanal y
ÄłÄł ÄłÄł
Ġ J
Ġpresent ed
Ġemploy ment
) ;
there fore
Ġin asmuch
Ġm ain
Ġend s
Ġthe oretical
su bject
Ġintuition s
I f
Ġme an
Ġne g
Ġthere by
c k
. âĢĿ
Ġme thod
Ġab out
possib ility
ĠH ence
Ġple asure
phenomen a
is l
op e
Ġre ference
Ġre ally
uth or
Ġas sert
Ġother wise
Ġide al
Ġsens es
Ġe qu
m um
ĠThe re
Ġbel ie
W e
it ies
r aw
Ġrem ark
h ow
Ġimp ort
Ġphys ical
nat ure
ĠO F
it self
Ġh old
as es
b it
an ation
d o
i ar
ct r
sp e
with out
Ġsystem atic
a min
==== ====
OO K
on um
Ġs ide
Ġcor respond
Ġdeg ree
Ġ hence
read y
Ġind ic
is es
Ġintellig ible
contr adict
Ġd og
og ress
Ġcomm and
Ġe ver
su me
Ġinde pendent
ens ion
Ġcontain ed
Ġremain s
Ġtot ality
ate ver
un ity
man ent
ĠBe ing
Ġsu per
Ġexpl ain
ci d
Ġphilos opher
B OOK
d om
m or
Ġacc ount
A P
Ġat trib
Ġsen sible
du ct
en cy
ĠP r
Ġs oul
Ġv irt
Ġ ess
id es
Ġword s
Ġs ignif
Ġd oubt
C H
Ġne ither
Ġform al
Ġdif ficul
Ġansw er
condition s
Ġlog ic
Ġ ut
Ġnum ber
Ġrel ations
ĠTh at
Ġs aid
an e
Ġgiv es
Ġt e
is ed
Ġbe come
m and
Ġthink ing
sen sible
Ġentire ly
Ġp ass
Ġform s
cul iar
Ġn on
Ġmat erial
Ġm is
Ġpre v
ar mon
Ġer r
Ġc o
Ġm akes
Ġex cept
Ġb onum
Ġde monstr
Ġ her
Ġl ies
ĠI I
Ġp ost
Ġde pend
Ġal ready
re ct
Ġin fluence
Ġab str
an y
Ġpro v
Ġo p
Ġdistin ction
Ġel se
Ġcont in
al though
sy nthe
tr anscendental
m en
rit ique
ĠTH E
m all
n t
Ġexp ect
Ġin qu
Ġproper ly
hen sion
Ġto o
ce ive
Ġv ar
ce ived
u p
Ġme m
T ER
Ġperfect ly
Ġ 3
Ġwh ose
Ġsu fficient
com ple
par agraph
ab ility
Ġas sume
ĠA s
Ġc ourse
w ill
Ġt aken
Ġpro ve
pr iori
ie ld
Ġ K
d ist
Ġl ook
Ġprodu ce
Ġcon duct
Ġ {
Ġc osm
de qu
Ġdetermin es
lect ual
o b
Ġob l
Ġass um
Ġ ^
Ġpr om
Ġpre ced
Ġd en
Ġexpl anation
Ġsum mum
a ment
Ġpe culiar
Ġa ffect
ener al
Ġmetaphys ics
f a
ut ed
iv id
r anscendental
ound ation
Ġcop y
Ġexer cise
u nder
Äł s
Ġapp re
N ow
Ġar t
i a
Ġ ident
Ġb r
AP TER
Ġvirt ue
im ate
a ut
B ook
de av
p ure
Ġ Y
Ġd ialect
Ġpr ogress
Ġobl ig
re ement
Ġre nder
ical ly
be cause
in ations
ced ure
Ġdedu ction
Ġpredic ate
Ġa w
Ġcon stru
i o
p ur
ant age
Ġb ring
reg ard
R E
d es
Ġc e
the y
Ġcontradict ion
Ġbegin ning
Ġargum ent
F or
Ġagain st
Ġa v
Ġf all
Ġconsist s
g an
Ġapp ly
Ġad d
CH APTER
on ic
Ġf al
Ġd raw
a ve
ĠĠĠĠĠĠĠĠĠĠĠĠĠĠĠĠ ĠĠĠĠĠĠĠĠĠĠĠĠĠĠĠĠĠĠĠĠĠĠĠĠ
ha ve
can not
Ġleg isl
Ġall ow
pp ose
ere d
ast e
Ġwork s
Ġshow n
t ime
Ġh armon
Ġlimit ed
Ġhig her
sy ch
ex t
Ġerr or
ow n
Ġcons cious
ctr ine
h ib
Ġ Â§
ac k
Ġwh atever
Ġa id
Ġreg ul
Ġfur ther
c re
Ġ ly
Ġquest ions
Ġappl ied
âĢ Ļ
Ġfollow ing
d if
Äł in
Ġdiv ision
the se
Ġwith in
Ġill usion
* *
Ġca pable
Ġcogit ated
ward s
u ll
Ġw ar
Ġch ang
ha ps
ĠSu preme
r ight
Ġsee k
Ġmain tain
re qu
the ir
object s
con sequently
mere ly
dequ ate
w ould
Ġunder stand
Ġexist ing
t ing
Ġd one
Ġex amin
cons ciousness
a ccording
Ġc ir
Ġrepresent ed
princi ples
al y
Ġcl aim
Ġu nd
ppos ite
Ġdifferen ce
A N
Ġanaly tical
- -
f e
Ġad dition
s im
ĠU nderstanding
Ġseem s
on t
Ġh ope
i x
Ġs ing
Ġnever theless
object ive
Ġfal se
Ġp ath
Ġsatisf action
. [
Ġcom b
Ġam ong
c ing
in ed
ĠH e
lect r
Ġsens ation
und ament
ĠC ritique
in te
ove red
Ġd id
Ġimper ative
undament al
e very
Ġw ish
ten ess
ur n
og ism
. _
c or
Ġint el
Ġpure ly
Ġy our
Ġag reement
j udgement
ab solute
wh at
Ġjust if
s ome
Ġ 5
Ġs mall
Ġe t
Ġsole ly
b r
n o
or ough
ut ure
ch an
Ġcogn ize
Ġmathemat ics
Ġimag ination
le ction
Ġtr ans
Ġeffect s
Ġpurpos es
ent al
Ġpro cedure
Ġcertain ly
Ġincl inations
Ġimmediate ly
id ed
Ġser ve
Ġdes ign
Ġaff irm
u bl
ent ial
it ude
con nect
Ġen deav
Ġconting ent
mor al
ĠT o
ĠA r
_ .
he ma
Ġcir c
Ġin s
pos ed
ĠA n
Ġsour ce
it tle
Ġproper ties
w hether
Ġanal og
Ġconform ity
im es
Ġact ual
n i
ou men
Ġv ol
Ġconstit ution
dis c
Ġeas ily
iv er
pt ion
w here
Ġe Book
str ict
Ġcertain ty
Ġp ar
ĠThe y
Ġhypothe sis
Ġde mand
Ġhapp ens
Ġprodu ct
in de
Ġf ul
ivid ual
c ure
Ġ 4
Ġa uthor
ev en
Ġt reat
a red
le g
as ion
il ar
Ġdefin ition
Ġintel lectual
on omy
Ġter med
Ġpow ers
Ġknow n
pro position
he nd
Ġincl ination
Ġev ident
Ġrest s
im al
Ġperfect ion
p ly
Ġneg ative
Ġc ases
Ġl ie
ir d
Ġcom pre
Ġper manent
Ġdistin ct
c all
p res
s h
Ġcon v
ppos es
Ġpre t
Ġext ension
Ġperception s
Ġf uture
ha pp
e ad
o c
is hes
Ġ V
id ence
thing s
Ġadv antage
su ch
ph ilos
lectr onic
A R
Ġcon j
if ul
Ġint r
Ġinv ol
Ġth ree
Ġbelong ing
Ġbod y
Ġanal ys
rel ation
Ġsol ution
bit r
0 0
t og
e ther
h at
Ġo per
iv ing
Ġempirical ly
Ġinqu ir
om ent
Ġas k
Ġcor rect
tog ether
Ġo pposite
Ġab s
Ġfacul ties
determin ation
g o
y n
Ġ ign
Ġm ed
Ġst ates
Ġsub stances
Ġconsequ ence
ll ig
Ġl ittle
ve l
Ġproper ty
p ens
Ġth orough
Ġdist rib
i or
ĠA ll
Ġle ad
Ġcogit ate
Ġconcl usion
aut iful
Ġcategor y
know ledge
ĠT ranscendental
Ġdis position
Ġder ived
s es
Ġrel ate
Ġterm s
a il
comple te
E C
i gh
Ġt aste
Ġde cl
us ions
Ġk e
Ġob tain
TI ON
Ġf ield
Ġval ue
ĠF oundation
Ġsc hema
I N
pe ci
Äł c
Ġsp ring
ĠU n
Ġexpress ion
l es
Ġf unction
og ene
Ġp ain
Äł re
Ġinvestig ation
j ust
Ġpro ved
end ed
Ġdetermin ations
Ġaccording ly
c ategor
l imit
Ġcom e
Ġcom par
Ġconce ive
them selves
Ġendeav our
A ll
Ġin fer
Ġdo ctrine
Ġch o
Ġsuper sensible
Ġcrit ical
I S
s ist
Ġf r
Ġint u
Ġha ving
Ġref er
ĠJ udgement
en se
Ġon ce
v ation
ud ed
represent ations
Ġdisc overed
Ġs ur
Ġe ar
ow er
Ġdetermin ate
Ġev ent
Ġcrit er
ĠCon sequently
Ġestabl ished
is ing
Ġrequ is
Ġext ent
Ġto ge
ud ge
Ġappre hension
Ġtoge ther
in ion
Ġex hib
Ġconstit utes
m ay
al ways
Ġb l
Ġor gan
ist ic
Ġcrit icism
Ġsing le
ubl ic
ĠThe se
be l
wor ld
es ides
Ġappear ance
Ġstr ict
Ġrel ates
sen suous
Ġmathemat ical
Ġpossess es
re n
Ġof f
Ġper haps
Ġsour ces
I I
Ġde finite
Ġen ough
h il
i um
Ġme chan
Ġact ually
Ġconce ived
Ġchang es
g iven
Ġs ch
feren t
Ġrequire d
Ġcontin u
yn am
st ant
im p
Ġbet ter
at t
Ġm oment
Ġf ore
ord in
Ġestabl ish
ĠĠĠĠĠĠĠĠĠĠĠĠĠĠĠĠĠĠĠĠĠĠĠĠĠĠĠĠĠĠĠĠĠĠĠĠĠĠĠĠ Ġ
Ġof ten
Ġre cogn
Ġind ividual
Ġele ments
Ġdifficul ty
f t
Ġthere of
Ġdistingu ish
do es
Ġign or
a p
Ġbe com
Ġl ast
Ġtr anscendent
ca us
Ġt akes
st ead
Ġcomple teness
Ġap perception
Ġregul ative
Ġanalys is
E S
a ces
Ġg e
Ġar ises
r ational
Ġn oumen
if ic
ul ar
Ġv ain
crib e
o le
Ġorigin al
Ġsupp ort
inte llig
Ġsu pposed
pr odu
ĠE x
Ġunivers ality
Ġocc up
iver se
in omy
Ġdisc us
represent ation
Ġ *
Ġan te
ĠĠĠĠĠĠĠĠĠĠĠĠĠĠĠĠ ĠĠĠĠ
Ġgreat est
app ear
Ġap art
Ġdog matical
Ġn ay
ll ogism
Äł p
Ġpro f
ĠS uch
Ġmean ing
m ost
Ġd ynam
EN T
how ever
r ow
ĠI m
Ġdes tr
Ġprodu ced
Ġfur n
Ġev il
Ġcorrespond ing
Ġrequis ite
i p
ph ys
re m
qu est
un ivers
ens ive
Ġbound s
Ġmem ber
ic able
Ġj udge
cul ation
Ġconstit ute
Ġharmon y
Ġprev ious
Ġc re
su fficient
Ġargum ents
Ġde l
Ġapp ro
Ġin fin
ut ing
Ġhe l
ome tr
Ġsuccess ion
Ġu l
Ġex cl
Ġdirect ly
ĠK ant
in es
not hing
Ġobjective ly
oph ical
n ever
Ġe lectronic
Ġ( _
Ġsp ont
com p
Ġmot ive
call ed
Ġspont ane
Ġf undamental
as k
Ġal together
Ġregard ing
Ġpredic ates
Ġread er
peci ally
Ġd on
ative ly
know n
Ġabstr act
h as
Ġk ing
ĠS t
Ġ Ã
Ġp ut
Ġf ull
pro per
Ġa dequate
is on
Äł f
ell ed
Th us
R O
Ġe y
Ġlike wise
Ġadv ance
iven ess
g eneral
Ġth ird
Ġar ise
Ġle t
Ġintellig ence
Ġaim s
Ġex act
ci ence
Ġpur su
Ġag ree
T H
Ġc he
iv ity
con stit
Ġar bitr
Ġbr ought
Ġet c
s um
Ġspe ak
Ġarr ang
Ġess ential
Ġdialect ical
ar ch
res pect
ie ty
Ġle ar
ag n
Ġhuman ity
sen se
Ġappear s
synthe tical
it er
ure s
Ġpresent s
Ġintr odu
Ġante ced
Ġimport ant
Ġcosm ological
in cl
Ġp sych
ib er
ict ion
Ġattrib ute
v al
ive ly
Ġca re
ĠB y
ens ions
Ġsupp ose
Ġsu pposition
Ġgreat er
Ġpe ace
Ġpreced ing
Ġfor ce
ag es
app l
c ur
Ġ 9
se par
Ġr o
Ġso on
form ation
Ġvar ious
fa cul
Ġdynam ical
C E
ud ing
Ġcrit ique
Ġele ment
Ġconstru ct
T here
Ġin ter
gr ound
Ġaw ay
b ers
Ġs ort
es the
Ġr a
mit ted
Ġav oid
n ame
Ġun less
Ġcogn ized
ĠO bject
g g
ur d
th ought
pl ace
Ġpre cept
ici p
sy stem
y ing
Ġc arr
Ġg en
Ġv iz
ÄłÄłÄłÄł ÄłÄłÄłÄł
ogene ous
S ection
Ġcategor ical
Ġbelie f
ut ive
ca pable
Ġsim ply
Ġsim ilar
law s
Ġcirc um
f ollow
ori z
Ġdes er
Ġmanif est
ab our
Ġimport ance
it able
Ġse par
Ġap ode
ĠIde a
ni hil
Ġking dom
Ġc reat
Ġf ig
Äł un
pro c
Ġpresu ppose
Ġhel p
a de
Ġ ens
me taphys
Ġfa v
n ed
v en
Ġre strict
com m
o ol
Ġpro p
P ro
R e
Ġo pposition
Ġc ol
ĠR E
some thing
m y
o ple
v ol
ci proc
Ġac qu
Ġsuccess ive
Ġdistingu ished
Ġt est
Ġv oid
ff ort
Ġle ave
sp ace
Ġpos itive
cons ist
fl ict
Ġsignif ic
Ġaffect ed
R AN
a pt
it um
Ġl ine
ict ic
cons ider
Ġ 6
ch ar
con tain
Ġpos ition
Ġconc re
Ġdepend s
per fect
ĠIde as
u pon
Ġm ental
determin ed
contradict ion
Ġcriter ion
l ar
Ġf l
me ans
Ġdis p
Ġadmit ted
Ġfin al
======== ========
ĠPr inci
Ġpost ul
Ġ 7
ot e
Ġmore over
Ġfin ite
Ġo ld
qu ant
ag ination
Ġfound ed
Ġsci ences
Ġin ev
id ance
Ġacc om
Ġbecom es
f reedom
n ex
is dom
ur s
Ġle ft
int erest
Ġref lection
wor th
Ġclear ly
Ġcopy right
pur pose
vel op
s atisf
Ġwh om
Ġsu ffici
mat hemat
in s
Ġc oun
the n
Ġgener ally
Ġuse ful
Ġac cept
Ġbe autiful
Ġunivers ally
Ġplace d
Ġocc asion
dist ingu
a cc
al one
con cept
end s
Ġmoral s
Ġins ight
Äł de
are nt
Ġatt ention
Ġconsider ation
Ġphilosopher s
name ly
a e
i an
Ġpresu pposes
t s
pt y
th ink
Ġun iverse
Ġappear ances
Ġinterest s
crib ed
Ġbod ies
Ġclaim s
esthe tical
l ove
it le
as ant
em ploy
ous ly
o pt
it ably
st ood
ac y
Ġdirect ed
Ġabstr action
I C
k ind
u me
Ġ ir
Ġl ight
necess ity
Ġes pecially
Ġge ometr
Ġo pp
re ality
ph ist
Ġact ing
av oid
at um
Ġd own
Ġg ain
Ġke ep
r op
Ġm agn
Äł m
pos sess
Ġident ical
Ġt ask
Ġwh ol
Ġev ents
Ġconcern s
aly tic
I T
h is
Äł d
ĠS ection
Ġconsequ ences
Ġant inomy
Ġindic ates
Ġa ut
is hing
Ġper ceive
Ġad opt
ĠC h
Ġstand s
Ġvol ition
Ġconj unction
Ġfav our
Ġw it
ception s
Ġexam ples
Ġdraw n
a u
e termin
Ġind is
mis sion
spe culative
Ġop inion
Ġexamin ation
l og
Ġs ure
con f
our selves
Ġpe ople
phenomen on
h im
Ġwh y
ie f
Ġpossess ion
Ġdedu ced
Ġresult s
facul ty
t un
pos es
ĠH ow
Ġut ter
Ġcompre hend
g u
ct ive
Ġh igh
if ication
Ġspe culation
Ġhypothe tical
l ike
m s
im ent
Ġdog mat
Ġey es
Ġp ublic
so ci
ang er
Ġmot ives
spe ci
Ġlegisl ation
Ġjustif ied
happ iness
quest ion
r u
or igin
Ġcon ver
Ġat ion
Ġst ep
Ġmot ion
ĠY ou
E very
Ġs cept
Ġs ought
end ing
t imate
ort ion
Ġjudg ments
m ore
Ġo pposed
Ġfor th
Ġdetermin able
. )
s ens
Ġw isdom
Ġin stead
us ed
Ġpurpos iveness
Ġanalog y
O R
Ġthe ology
re es
synthe sis
absolute ly
categor ies
he tic
Ġthe ory
Ġm aking
Ġme t
Ġem pty
ĠA N
Ġsub l
ĠW hen
Ġlimit ation
Ġsubjective ly
Ġbelie ve
Ġsignific ance
ic ense
ate ly
Ġassum ed
pres u
iter ary
at ure
Ġe ffort
Ġcon flict
em pl
Ġcl ass
Ġspeci al
Ġsch ool
Ġre ach
as ing
im in
Ġun able
Ġdes ires
ac hed
Ġpoint s
Ġindic ate
Ġarbitr ary
f ree
Ġkind s
EN D
sh ould
Ġwhol ly
e ither
Ġ .
Ġw ise
ib ility
ch ange
ud es
ang u
c ogit
Ġpro b
ch ive
con form
com pre
Ġfind s
Ġeas y
Ġoblig ed
T o
in to
ing s
Ġse cure
pend ence
Ġproble matical
Ġextend ed
Ġgu idance
Ġattempt s
Ġassert ions
Ġful ly
Ġconcre to
? âĢĿ
d en
o ly
p ic
Ġto wards
Ġre du
hen sible
Ġus ed
Ġder ive
Ġm ark
Ġhapp en
edu ction
Ġdestr oy
G utenberg
i ld
t ot
w w
in ction
Ġd om
ut ies
Ġl ay
Äł P
th an
un conditioned
Ġen able
W hen
g ood
ĠP h
man ence
osm ological
contradict ory
Ġcompar ison
bel ong
s ame
Ġ ic
Ġt imes
Ġw rit
al so
ain t
ant e
Ġphilos ophical
ful ly
Ġmod es
connect ion
e le
Ġb esides
Ġd at
univers al
Ġt al
ist s
ĠS o
ppos ing
iz ing
Ġref lect
Ġapode ictic
Äł b
ad v
Ġim pl
ant ed
Ġsy llogism
Ġprodu ces
dif ferent
philos ophy
a x
s ide
Ġt able
Ġre p
Ġh on
Äł h
Ġsp ir
Ġprodu ction
Ġcomm unity
nat ural
caus ality
Ġsuffici ently
Ġ 8
in v
at ives
st ate
ex pl
Ġsub ordin
Ġcho ice
re al
ither to
Ġcommand s
f ic
Ġs he
al s
Ġnot ions
pos ite
et aphys
ser ies
Ġcomp elled
Ġche ck
Ġu r
ĠĠĠĠ ĠĠĠ
ck on
Ġconstru ction
Pro ject
c ould
d iv
Ġpr iv
ure d
Ġpractical ly
Ġinquir y
l ight
Ġs ake
th ose
ĠW hat
Ġfin ally
Ġindependent ly
pens able
Ġspir it
s cience
ar s
su ccess
le ological
Ġde velop
wh ole
ĠS p
ene tr
Ġfunction s
Ġdon ations
at or
Ġad m
Ġsub tle
Ġpl ay
Ġwhere by
Ġmetaphys ical
U T
g reat
Äł l
Ġphenomen al
Ġac cess
Ġcontradict ory
Ġconting ency
Ġprev ent
Ġmem bers
ENT AL
char acter
Ġinev itably
ce de
us iness
Ġse ver
ca se
ĠW ith
Ġattain ed
Ġstand ard
Ġspeci es
ĠII I
intellig ible
Ġul timate
i us
it es
Ġn one
im possible
pl ine
ex am
Ġmor ally
Ġpl an
Ġfe ar
Ġconcern ed
f irst
p redic
Ġpr ior
Ġme et
Ġhe ter
ire ction
ĠL iterary
cont ent
etermin ed
e ffect
g l
k s
m ort
in ternal
Ġf ill
Ġex per
Äł C
Ġun known
ĠĠĠĠĠĠĠĠ Ġ
Ġexist ed
Ġac cid
Ġwhere as
stru ction
Ġarr ive
Ġjudg ing
H ow
t imes
Ġo m
ci pline
Ġident ity
c rit
n on
x i
at er
Ġin stance
or g
as h
Äł t
Ġtr ansc
Ġevery one
ÃĦÅĤ ÃĦÅĤ
Ġfurn ish
S C
a uty
p ath
re st
Ġs ays
Ġb or
ust r
ex ternal
ire d
Ġrespect ing
Ġconcl usions
Ġaff ord
sub stance
ĠThere fore
m ark
t ion
Ġin capable
Ġd irection
Ġas soci
Ġan nihil
con ce
Ġpl ain
ac hes
Ġpar agraph
Ġarrang ement
Ġaut onomy
Ġutter ly
h and
l atter
m atter
o cc
de monstr
ĠAn alytic
iber ty
th rop
Ġde pendent
feren ces
ĠH ume
sen sibility
Ġlong er
ĠAr chive
lar g
f ar
en ess
er iori
Ġl ove
Äł S
Ġse qu
ex p
Ġgiv ing
Th at
ren g
avoid able
h ig
j oy
p oint
w hen
er it
os s
id ing
cl aim
form er
Ġcarr y
v ious
Ġl abour
Äł A
ide a
ound ed
Ġper ceived
Ġsub str
oun ce
Ġobser vation
a ight
c ceed
Ġb ack
Ġf an
Ġpr imal
ig ion
Ġthere in
Ġreg ion
be en
necess arily
Ġmetaphys ic
ix ed
Ġinfin ity
N D
g reg
Ġd uties
ur ally
Ġpart ly
ress ion
Ġsever al
A S
E D
O U
ol it
Ġcontain ing
Ġpresu pposed
Ġoper ations
Ġabs urd
Ġa esthetical
Ġs k
Ġd anger
om ogeneous
Ġde f
ab str
Ġun condition
Ġfa il
contr ary
TI C
crib es
. "
e c
Ġt urn
Ġpr act
im mediate
us ory
Ġun ited
Ġr ise
op ular
Ġjust ice
Ġop en
ob ser
i ang
at tain
if ice
Ġst ud
el f
Ġassert ion
Ġpret ensions
ĠUn ited
n it
Ġre ceived
Ġh itherto
Ġex position
Ġg l
Ġv ent
Ġcosm ical
ĠeBook s
it ing
Ġf our
Ġpr ud
the oretical
Ġde fect
Ġqu ality
ĠO R
determin ing
Ġstr aight
Ġprov ided
Ġden y
Ġoblig ation
disc over
proposition s
W hat
Ġre ciproc
Äł a
act ions
Ġtot al
mis sible
Ġauthor ity
Ġmechan ism
ĠPrinci ples
, "
Ġform ul
Ġpur ity
Ġma j
Ġpres ence
ĠPr actical
limit ed
Ġcircum stances
inv estig
Ġs ight
Ġreason ing
pl ay
ĠA ccording
Ġgo ver
ĠH ere
cor respond
Ġear th
Ġignor ance
P r
is ible
Ġs ent
Ġb est
th rough
Ġcan on
if ied
Ġde t
Ġde ci
Ġse en
Ġapp arent
am ed
part icular
Ġpsych ology
angu age
A s
u it
Ġt itle
re f
Ġb usiness
Ġex c
Ġequ al
Ġdialect ic
xi om
e ib
s ince
t urn
Ġc r
Ġs a
Ġpro cess
Ġat e
Ġso phist
Ġhe ld
su per
pir icism
ĠA t
Ġjudg ment
Ġproblem s
val id
Re ason
Ġdeci de
B e
e em
Ġest im
Ġobser ve
cont in
f all
u ous
Ġm ist
Ġd est
ir med
Ġev idence
ĠS e
Ġrem o
with standing
Ġpres er
stru ct
sub sist
Ġspontane ity
gg est
O n
i ol
p ower
Ġp ast
Ġm o
ĠG eneral
iz ation
Ġmind s
Ġproceed s
Ġsignif ication
Ġfig ure
ade mark
mort ality
v ice
Ġd ivers
Ġan imal
Ġcom posite
Ġunder stood
ĠN ature
we ll
Ġhold s
Ġvar iety
Ġlegisl ative
Ġthorough ly
S u
i ally
Ġ ver
Ġc ult
an al
u g
Ġh ist
Ġsu cceed
sel ess
ve re
Ġfeeling s
Ġfore ign
s ay
ore tic
Ġnat urally
ĠF rom
Ġcogn itive
sp here
Ġspe aking
Ġattrib utes
Ġprov ide
Ġce ase
Ġprevious ly
c ourse
man if
Ġass ign
Ġund etermined
Ġnoumen a
Ġexact ly
Ġopp on
Ġmagn itude
ĠSp ace
W h
a ccord
Ġ =
Ġan g
Ġob s
uth oriz
Ġworth y
Ġcomb ination
Ġdemand s
nex ion
Ġsubstr atum
Ġcon fin
Ġbe auty
min d
Ġch ain
Ġdiscus s
Ġin du
Ġb ene
Ġh um
Ġrel atively
ialect ic
Ġimper atives
Ġdemonstr ate
Ġnoumen on
c ern
at io
Ġschool s
iang le
E M
a dequate
p et
Ġm ention
Ġas c
Ġas cribe
Ġper form
Ġcontr ib
exist ent
ĠCon ceptions
Ġte leological
** *
nit z
m ot
Ġin formation
Ġre ce
Äł con
Ġca p
Ġper manence
Ġrepresent s
iz es
certain ty
Ġequ ally
Ġbor row
er t
Ġbe h
Ġpossib ly
Ġform ed
Ġqu al
Ġsub sum
Ġshow s
Ġdiscus sion
ĠIm agination
eib nitz
Ġsa fe
Ġf it
le ast
Ġde c
Ġde v
tr uth
Ġst reng
ag ed
ign ity
Ġconstit utive
Ġproof s
Ġsatisf ied
Ġexpect ed
Ġden ied
fe el
Ġexhib it
ĠSt ates
Ġindis pensable
pt er
Äł o
Ġde cid
ĠS y
pro ceed
ĠD e
Ġcomm un
Ġocc ur
ma xim
Ġadd ed
i er
l ook
Ġin cre
Ġwe ight
aly tical
phys ical
Ġlear ned
Ġeffort s
Ġgover n
C on
H ence
ic o
st hetic
Äł r
Ġind if
ne g
oub ted
Ġobser v
Ġdom ain
A n
l ies
p ost
Ġp ay
Ġre ckon
subject ive
Ġin separ
Ġf irm
Ġan ci
Ġun ion
ici ans
Ġstr ong
Ġsatisf y
Ġanteced ent
cur ity
Ġdat a
Ġpriv ate
O f
or s
Ġl ost
Ġcom es
Ġser ves
Ġob st
âĢĿ ;
Ġadmit s
Ġpresu pposition
Ġdefin ed
Ġav ail
worth y
c he
Ġp un
Ġe th
se ly
Ġon es
Äł M
Ġpro ves
Ġsh ort
un g
ĠP RO
ĠĠĠĠĠĠĠĠĠĠĠĠĠĠĠĠ ĠĠĠĠĠĠĠĠĠĠĠĠĠĠĠĠ
ĠO ur
Ġwant s
every thing
Ġintu ited
quant ity
S e
a fter
it led
ent ific
as ed
Äł v
act ory
ex pect
Ġadmit ting
Ġafter wards
Ġideal ism
Ġconv iction
Ġabs ence
END ENTAL
o in
Äł w
Ġcom position
Ġen joy
ha pter
Ġstr u
RAN SC
exam ple
Ġmaj or
. ]
I L
S T
a ir
k ing
¢ Ä
Ġcon stant
Äł e
Ġtr y
one y
Ġsci entific
Ġ1 5
Ġimp ul
app re
Ġdiv ided
cont ing
Ġdemonstr ation
B y
in ary
an other
Ġu su
Ġl iberty
Ġl anguage
Äł pr
Ġme asure
Ġind irect
Ġrender s
Ġlead s
Ġspring s
att empt
Ġgeometr y
Ġscept icism
RANSC ENDENTAL
a ff
g utenberg
is sim
Ġint ention
Ġim age
be fore
are r
Ġdisc ern
Ġent er
Ġsecond ly
Ġconcl ude
Ġignor ant
IT Y
Ġsubl ime
Ġw ays
iv al
Ġl ower
ĠĠĠĠ ĠĠ
ur ing
ci es
pl ic
ex amin
ĠP U
Ġsubject s
Ġfe w
Ġdifferen ces
Ġappl ies
Ġappl icable
leg isl
Ġprop ortion
h uman
v iew
Ġa xiom
Ġp opular
iv il
Ġfor ces
Äł dis
ind ic
ĠN o
pre t
pro v
connect ed
) âĢĶ
l at
Ġim mortality
tern ally
ag ain
Ġquant ities
rel ate
Ġant it
Ġpreced es
Ġinvol ves
Ġinvol ved
Ġcre ation
d raw
e al
Ġw r
ed ience
Ġon t
Ġrel igion
being s
Ġexamin e
Ġinquir ies
Ġm oney
Ġsu ggest
Ġ1 0
Ġill usory
Ġproduct s
Ġrefer red
distingu ish
Ġin ference
an k
Ġit y
ut ation
ist ance
Ġun avoidable
um er
ĠE m
ĠM etaphys
cise ly
Ġ2 00
Ġspeci f
Ġinvestig ations
Ġpost eriori
complete ly
J EC
p sych
se t
cept ivity
th us
and on
id den
Ġha bit
Ġdis appear
ĠL og
Ġexpress ions
Ġdeg rees
Ġinfer red
Ġra ised
o very
o ined
Ġb u
ou ble
Ġd ignity
ain s
con sequ
ol iness
Ġnecess it
Ġcommon ly
Ġexpress es
Ġsmall est
go ing
Ġprof ess
Ġdivers ity
O S
a res
j ud
p ot
Ġm erit
Ġre ceive
Ġre turn
ust om
Ġun t
Ġany one
Ġper su
Ġper mission
ish ment
ici an
Ġact ivity
Ġdifficul t
inde pendent
Ġaccom p
issim um
l ine
p ass
t ake
Ġpr os
ain ed
Ġst art
ĠC osmological
Ġorigin ate
Ġdedu ce
Ġdemonstr ated
mathemat ics
manif old
a ves
re am
Ġw ishes
Ġre n
ĠN ay
Ġgr ad
Ġcont empl
Ġthink s
ER G
Ġsupp ly
satisf action
i ance
j un
p or
Ġc ost
Ġb ad
if y
ori ous
wh ile
Ġfollow ed
Ġbegin s
Ġes ca
Ġperson s
Ġinqu ire
Ġprom ise
Ġallow ed
Ġpostul ate
him self
L I
Q u
it ect
Ġm ult
Ġpr ot
Ġu m
Ġex ec
Äł ex
Ġdis play
Ġobser ved
Ġremark s
Ġte ach
Ġcirc le
Ġful f
Ġmechan ical
it imate
Ġn ations
Ġcon nexion
ar ing
Ġnot withstanding
Ġtr iangle
su pp
Ġus ing
Ġpl aces
Ġen g
Ġfe e
Ġproceed ing
Ġerror s
Ġadvance d
Ġassoci ated
B ERG
T ranscendental
b od
Ġs ign
ent ially
Ġex tr
Ġl oss
Ġor d
tr ans
ord er
Ġag greg
Ġincl uded
Ġprom ot
ĠY OU
Ġcomb ined
Ġendeavour s
Ġprecept s
metaphys ics
accord ance
plic ity
i ent
i able
as sert
Äł D
ĠI N
Ġreason s
ple asure
Ġacc ur
ress ions
ever theless
ĠC a
imit ive
Ġgo es
pro of
Ġrespect s
determin e
Ġder iv
Ġconcern ing
I R
c r
t wo
y ou
Ġt w
Ġa uthoriz
in ct
Ġs ac
Ġm on
pro ble
Ġstate ment
ĠD o
ĠD iv
Ġref und
Ġcomp ly
Ġgu ard
Ġbl ind
Ġgen u
T R
o per
in ter
Ġm in
Äł E
Ġobject ions
Ġse arch
Ġpre cede
Ġcomple x
ĠH is
ĠM or
Ġconsist ent
Ġcop ies
Ġremark able
Ġassum ption
cre t
Ġmed ium
Ġsepar ate
he sis
Ġc al
Ġs ound
Ġb old
ar gum
ĠT ime
con cern
not ion
Ġform ing
Ġknow s
ĠĠĠĠĠĠĠĠĠĠĠĠĠĠĠĠ ĠĠ
ĠN e
Ġanaly tic
subsist ent
r ist
s cept
Ġ il
in asmuch
Ġim possibility
Ġsome times
com mon
Ġatt ack
ĠL icense
Ġhypothe ses
regard s
al ism
st ep
Ġex ception
Ġfor ward
Ġem piricism
Ġim it
for tun
Ġle aves
ĠN ot
Ġcaus al
cons cious
Ġsens ations
Ġrequire ment
app ro
Ġple asant
reg ress
r y
y et
Ġt ax
Ġa ir
Ġc ent
Ġh omogeneous
ol ution
ide as
Ġso ci
Ġhe ad
pr ove
un te
Ġar ising
str aint
Ġdisc overy
Ġent itled
bl ig
Ġgu ide
Ġcontin ue
AR T
log ical
Ġ 0
im er
ĠI V
ĠT O
Ġhe av
Ġim manent
ant s
ast ic
Ġser vice
Ġext ensive
Ġstate ments
Ġ1 7
Ġconsider ations
Ġexplain ed
Ġcho ose
Ġintrodu ce
employ ment
Ġimpl ies
Ġstud y
JEC T
A CE
O G
c o
d og
h ypothe
in finite
con ci
est abl
wh o
ĠG UT
Ġob edience
Ġout side
EN BERG
Ġpurpos ive
Ġco existence
ĠGUT ENBERG
j udg
Ġ id
Ġc ur
Ġp aid
ar ies
Ġwe ak
Ġsu ff
il st
Ġcharacter istic
Ġneg ation
Ġmaterial s
regard ed
Ġconstruct ed
Ġvent ure
Ġunt il
Ġ ve
Ġa ge
Ġw on
ic k
Ġh oliness
Ġcom pl
Ġsub sist
ĠIt s
Ġconf ess
incl ination
Ġaccom pl
A nd
F rom
t ure
w ere
Ġ ion
Ġthe oretic
en ed
Ġp olit
ic ial
le ase
Ġl ed
ow ed
tr odu
sol ution
ĠW h
Ġact s
ĠE very
ĠE ven
Ġpres cribes
Ġreal issimum
abl es
mor ality
Ġassum ing
Ġfall s
dif ficul
judgement s
Ġmed iate
ĠÃ ¦
Ġcreat ure
urs ive
cogit ate
o ys
u el
Ġt re
Ġp at
Ġin j
ex er
ĠN O
The se
Ġen larg
determin es
Ġimag ine
Ġsc hemat
Ġcontinu ous
Ġexper iment
Ġsophist ical
Ġdest ination
e qu
g ener
m ain
Ġl ar
Ġl ist
Ġg et
Ġpro posed
âĢĶ âĢľ
Ġsy m
Ġdis cipline
Ġpart y
Ġend less
ĠD eduction
Ġchar ge
Ġele v
Ġ2 0
Ġformul a
1 5
A TION
f ind
o blig
s ignif
Ġb ook
Ġh ard
ilos ophy
Ġatt end
Ġill ustr
Ġdesire d
inte l
Ġtrans g
consist ent
compre hensible
hig hest
Ġuncondition al
Ġhist ory
Ġang les
Ġont ological
is able
Ġas cribed
fin itum
Ġsay ing
ac ity
Ġconstit uted
Ġcommon est
Ġexpress ed
Ġconf irm
Ġwant ing
Ġjustif y
Ġsch ol
Ġinfin itum
Ġoppon ent
f ound
m o
Ġw ide
nd ered
Ġf requ
se e
se cond
Ġre ve
Ġh oly
Ġl ines
de fin
con v
Ġreason able
Ġat tr
Ġv iol
Ġad du
oy al
ĠL eibnitz
Ġattain ment
Ġoccup ied
Ġlear n
Ġhon est
Ġsubordin ate
conce it
conting ent
v iz
in qu
in fluence
al ogism
ĠĠĠĠ Ġ
de pend
tr y
Ġdo ctr
ad dition
Ġper mit
nthe tical
Ġpre p
Ġco existent
Ġconv in
investig ation
P L
f oundation
Ġp o
ch n
Ġat ed
su ffici
Ġper i
Ġad apt
Ġfa ith
Ġob vious
Ġatt ached
exist s
cons idered
Ġright s
Ġcorrespond s
inde ed
Ġdistrib ution
Ġfr uit
Ġpsych ological
appl ication
Ġconver sely
Ġpract ice
vere ign
Ġantit hesis
intel lectual
s how
Ġin f
Ġpr im
Ġfor tun
Äł en
ple asant
Ġtr ademark
Ġgr anted
Ġdifficul ties
Ġut ility
Ġprom ote
br ated
Ġobtain ed
Ġcare fully
follow s
Ġadm ir
Ġwr ong
jun ctive
Ġgenu ine
I V
U nderstanding
f act
Ġt end
or m
ou red
le ad
ut ions
Ġas ide
Ġat ions
Ġv an
Ġtr ib
Ġinvestig ate
never theless
proper ly
tot ality
Ġsyllogism s
Ġsk ill
1 3
1 7
Q U
T r
f ace
m od
Ġ ical
in ions
it as
er ation
Ġin ner
le brated
Ġwh ilst
Ġsu itable
ver s
Ġhe art
ĠC om
Ġlimit ations
ĠE pic
Ġ1 2
Ġest eem
Ġincl uding
Ġconcl uded
Ġphys ics
Ġess entially
correspond ing
, --
e ty
i ation
al th
Ġin ferences
Ġre ceptivity
ot t
Ġab andon
ment ion
be yond
ĠS olution
pre ced
ear s
Ġhapp y
ĠM at
Ġcl ose
Ġdefin e
cognition s
requ ire
Ġdecl ared
ÄłÄłÄłÄłÄłÄłÄłÄł ÄłÄłÄłÄłÄłÄłÄłÄł
ru pt
div ision
immediate ly
Ġaxiom s
g ain
Ġre course
Ġh ind
ur ious
ul ative
Ġab ility
Ġper mitted
et ent
Ġwhen ce
com b
ĠOn ly
Ġaw are
Ġoper ation
ĠWith out
unte ers
1 2
at trib
Ġc ivil
or ical
an alytical
ition s
ch itect
em ber
ĠS EC
ĠW hether
Ġrem ove
determin ations
Ġac ute
Ġdiv ine
Ġaddition al
Ġdeser ves
Ġdevelop ment
ival ent
lat o
Ġperi od
d irect
d oubt
Ġde ep
Ġv is
ĠD ialectic
Ġcomp are
Ġant icip
Ġro ot
Ġdefect ive
Ġinsepar ably
Se cond
H ere
g er
o ot
t al
Ġa st
an throp
Ġme ant
Ġch apt
Ġcomple tion
ser ted
Ġinde pendence
Ġright ly
Ġaff irmed
wor k
Ġconf used
conform ity
ĠPRO JECT
appre hension
Ġeng aged
A T
O M
P R
c ol
o x
Ġ ies
in ity
Ġs ection
Ġre ject
Ġh op
ect ed
the ology
Äł st
present ed
be gin
Ġgo al
Ġrequire ments
Ġprof ound
system atic
pet ual
bod y
f it
g ive
m ode
r ule
Ġo be
re ference
it ious
or ph
ing ly
pos itive
un t
Ġgener a
sub stances
Ġjudg ed
Ġattrib uted
Ġfall a
cor rect
Ġreciproc al
1 4
A M
a f
c ent
n or
y per
Ġt aking
re me
al f
ou se
ent ire
im ity
de g
qu ite
Ġde pr
Ġobject ion
Ġal ong
Ġint ended
Ġun limited
Ġse cret
ant ages
ĠA uthor
ex cept
ĠP er
Ġthought s
pe culative
Ġsignif ies
dist inction
Ġly ing
requ ires
sim ilar
imp ort
Ġprob ably
adv antage
Ġprud ence
Ġenjoy ment
Ġsign s
ĠÃ¦ sthetic
P RE
W ith
_ )
d uty
d edu
i ating
Ġt ill
ce asing
Ġd ream
Ġpr imitive
Ġl oc
ur ope
Ġsu sp
um ber
tr anscendent
Ġr ank
Ġunder t
ĠO r
ĠC ON
other wise
ac ing
Ġsatisf actory
part s
objective ly
Ġaffirm ative
philos opher
Ġorgan ized
oriz on
Ġsubordin ated
Ġcult iv
Ġbeh ind
examin ation
, [
. .
1 0
E x
f undamental
Ġ ive
ic tical
im per
im ents
Ġl ose
Ġl aid
ĠT r
Ġr id
Ġim poses
un al
so ever
Ġpre jud
ac her
Ġleg itimate
Ġconf idence
IN G
appl ied
AS ON
Ġstreng th
/ /
l ing
t t
en g
at us
Ġre d
ar m
ar ante
Äł n
ve y
Ġsub stant
ĠIn t
Ġemploy ing
ĠD is
Ġappre hend
Ġbring ing
Ġsmall er
Ġredu ce
ĠPh ilosophy
main tain
: //
w ord
Ġin sufficient
ur y
ur ther
Äł g
Ġso vereign
Ġtr ouble
ĠA l
Ġrel ated
am ong
ĠG ree
ass um
ma de
intuition s
Ġdefinition s
AR K
Ġadopt ed
ĠCh rist
tot al
Ġhon our
Ġones elf
A C
A ccording
b oth
i ences
r a
s ch
Ġm ut
Ġd ict
Ġfor b
per son
tern ational
Ġpre cisely
Ġthen ce
com position
ĠH im
Ġpath ological
sens ation
u ality
w ay
Ġ z
er y
Ġin struction
Ġm ove
Ġf ive
Ġis t
Ġre comm
ur ation
ib ly
Äł an
Ġde al
Ġpro pose
Ġal ter
ab ove
ĠB esides
pos ing
ĠP R
be t
ress ed
mat erial
Ġpres um
Ġdiscover ing
OO F
Ġdoubt s
Ġce lebrated
Ġdistrib uting
Ġstrict ly
Ġappro xim
Ġanteced es
ground s
Ġra ise
Ġcol our
ĠRE M
concept s
Ġdogmat ic
Ġom ni
abstr act
Ġpreser ve
ĠSy nthetical
PR OOF
I M
m ake
o pposition
Ġt yp
re ally
re strict
Ġs light
Ġbe ar
Ġl ink
em por
me thod
Ġapp eal
ĠS ince
Ġgr ant
Ġconnect s
Ġincl ude
Ġcomp ared
Ġsuper ior
Ġte aches
Ġbring s
Ġund oubted
Ġdistrib ute
Ġcriter ia
Ġdestr u
Ġgen us
Ġsequ ence
Ġremo ved
feel ing
Ġavail able
Ġaggreg ate
A G
] ,
b ig
c lear
c hes
Ġc it
Ġc le
Ġm ent
Ġis ol
Ġre ndered
Ġh yp
Ġex posed
Ġl i
if orm
Ġde ath
tr ue
pr op
Ġev id
Ġrel ative
ĠP lato
Ġsubject ed
Ġpart ies
ĠC ategor
ĠE go
ne ed
lect ive
Ġattempt ed
dist rib
Ġconj oined
Ġbl ame
perfect ly
Ġheter onomy
Ġborrow ed
G od
S E
_ ;
e ach
it io
Ġn ess
Ġe fficient
ur ality
ir ing
con cl
Ġthere to
Ġqu ar
ress es
ĠN evertheless
Ġpresent ing
Ġpresent ation
Ġ1 9
exist ing
Ġimp art
certain ly
Ġher self
Ġask ed
Ġoccup ies
follow ing
contain s
speci es
ante ced
expl anation
Ġgovern ment
Ġimpul ses
a ps
l abour
m ight
t led
w as
x t
is ation
en omen
Ġas serted
os ing
Ġal most
of ess
Ġsp aces
ori ly
ĠA nt
Ġdis junctive
Ġch imer
com mand
Ġprodu cing
man uel
Ġcontradict ions
Ġadv antages
Ġextend s
Ġaffirm ation
Ġexhib its
ĠRE ASON
think ing
Every thing
change able
ĠPh ys
belong ing
Ġtal ent
ash ion
occ up
Ġsequ el
valid ity
ĠLog ic
Ġesca pe
I de
I TI
Ġ -
Ġp enetr
Ġre place
Ġfor ced
Äł im
id ers
Ġst ated
ĠP henomen
== =
com par
ser ve
Ġattain ing
Ġextend ing
Ġequ ivalent
Ġseek ing
ix ture
ĠV II
Ġestablish ment
Ġpursu e
contain ed
================ ================
Ġcoun ter
acc om
abstr action
anal ys
Ġindirect ly
Ġbu ild
Ġmin or
Ġtre ated
Ġschemat a
tt p
C I
c hed
Ġt ell
er r
Ġs ides
Ġb re
an ations
le x
Ġd ay
ar bitr
Ġan n
Äł F
il ities
ab s
Ġsp ect
pr ogress
Ġform at
ad d
Ġad missible
ĠO N
ach ing
cogn ize
Ġcomm ence
Ġintellig ent
Ġmod ality
Ġexer c
Ġtreat s
Ġcompre hensible
Ġsac r
================================ ===
. --
E T
a ught
g ed
l ied
al og
Ġh yper
Ġan throp
Ġany where
Ġst op
Ġch ance
Ġpossess ed
ĠM y
Ġperson al
Ġexpect ation
AR RAN
Ġfore going
ĠĠĠĠĠĠĠĠĠĠĠĠĠĠĠĠĠĠĠĠ ĠĠĠ
ĠAccording ly
expect ed
Ġfulf il
L et
S I
i i
p rom
Ġre sol
Ġd ays
Ġcon straint
the ological
ow ers
Äł pre
Ġun b
Ġse at
Ġim posed
tern ity
Ġpre fer
Ġact ive
Ġdisc ursive
oun ces
ĠM e
Ġass ent
Ġdiv is
ialect ical
Ġdepend ence
any thing
Ġpeculiar ity
sim ple
ĠIm manuel
Ġro om
ĠObject s
consider ation
ĠPrinci ple
Ġredu ced
predic ates
Ġdecid ed
Ġeth ics
again st
Ġwon der
Ġlar ge
Ġdoctr ines
deg ree
B L
a uthor
l ong
Ġ Qu
it ate
al t
or gan
Ġd uration
Ġcon ject
Ġpr a
iv able
Ġsu scept
ist ics
con struction
of old
Ġdis claim
so le
Ġpre mis
Ġgr ow
Ġen ables
man ner
Ġ1 8
ĠL aw
Ġset s
Ġansw ered
Ġread y
Ġut most
Ġcorrect ness
ogene ity
Ġexcl uded
incl uding
Ġhigh ly
ÃĦÅĤÃĦÅĤ ÃĦÅĤÃĦÅĤ
Ġannihil ated
ĠSe e
Ġobs cure
Ġconfin e
hypothe sis
exer cise
1 1
U L
a enomen
d eduction
s our
Ġf ed
Ġde part
il is
Ġne arer
us ive
me chan
ill ed
Ġun ceasing
Ġsp ite
Ġmor tal
Ġcontr ast
rel ations
Ġed ifice
ĠJ ust
ane ous
Ġop inions
comple teness
Ġprom ises
Ġdel usion
sum mum
mathemat ical
ĠHow ever
Ġheter ogeneous
ĠPU RE
ĠCa use
D U
u cid
ut able
Äł H
Äł T
ĠT RANSCENDENTAL
ans w
su pposition
Ġwill s
ĠF irst
Ġrel ating
Ġy ears
el se
ĠE urope
ne w
Ġgood ness
Ġorigin ally
Ġorigin ated
ĠL et
Ġass ured
Ġbefore hand
Ġmod ern
Ġconf usion
under stood
caus es
comm un
Ġcol lection
Ġdisp ute
Ġmention ed
Ġanci ent
Ġsoci ety
Ġsusp ic
O L
e lectronic
f ers
n ce
p o
u ct
Ġthe sis
Ġf ict
Ġre vol
om orph
ter s
res ult
con ceived
Ġar chitect
ĠS peculative
Ġwhat soever
Ġple ase
Ġill usions
Ġseem ed
ĠTH IS
ane ously
Ġharmon ize
Ġexhib ited
ĠEx perience
ĠĠĠĠĠĠĠĠĠĠĠĠĠĠĠĠĠĠĠĠ ĠĠ
distingu ished
presu pposes
fic ial
success ion
Ġtransc end
aff irm
inqu ir
Ġadapt ed
Ġsuspic ion
? "
S ect
a ffect
c oun
Ġ ions
in ally
Ġo us
re nder
Ġin st
Ġin here
Ġin ward
Ġth reat
Ġre ached
ci r
ore over
Ġun worthy
ĠB oth
ca p
un condition
Ġman kind
cl os
Ġsub mit
ort unity
Ġinde termin
ĠE BOOK
Ġpower ful
Ġmatter s
bl ime
Ġdistingu ishing
gr ad
Ġhold ing
Ġdoubt ful
Ġmaintain ed
Ġsing ular
Ġtrans ition
Ġcommun ic
Ġindif ferent
che ty
mention ed
Ġchapt er
c op
h ood
n ay
n umber
Ġs l
Ġin adequate
Ġd am
st ill
os en
Äł tr
ch ang
Ġne ar
em ark
ill usion
Ġthere with
pr ight
un less
Ġcons iders
ag ree
ac le
Ġext reme
ne ither
Ġimp ly
Ġconsider ing
und red
Ġnum er
Ġgu arante
Ġread ily
Ġtheoretical ly
regard ing
des ign
dif ference
Ġseek s
Ġrecogn ized
Ġdeser ve
ww w
super sensible
Ġrece iving
Ġsubsum ed
Ġaccomp an
Ġgrad ually
v ar
Ġ ence
re t
at ory
ic es
Ġb ase
Ġf ashion
se arch
Ġd imin
ab or
Ġem pl
ant icip
ind is
ĠĠĠĠĠĠĠĠĠĠĠĠĠĠĠĠ ĠĠĠ
ev ident
ON D
empirical ly
Ġess ence
Ġ3 0
ob tain
Ġ5 0
Ġanalog ies
Ġsur face
Ġrecogn ize
ĠAN Y
Ġfirm ly
U D
c our
p ore
Ġw ater
ce ll
Ġd im
Ġh idden
Ġwe lf
Äł G
Äł su
Ġal leg
est y
Ġem br
Ġj oin
ĠF reedom
Ġide ality
Ġsome what
Ġam big
lect ed
crib ing
Ġclear ness
Ġneed s
Ġcommand ed
Ġpreced ed
Ġdraw ing
ext ension
limit s
Ġintu itive
Ġcre ated
Ġspontane ous
constit utive
Ġdisp utes
ins ic
Ġgeometr ical
Ġgain ed
predic ate
anal og
EM ENT
IR ST
depend s
Ġwelf are
F ACE
V E
d ialectical
u ity
Ġa ug
at icism
er able
Ġin stit
Ġe ternity
se m
Äł B
Äł ad
Ġpro ving
Ġpro pens
Ġun certain
Ġun iform
Ġr atio
ĠS to
Ġinde finite
Ġsystem s
Ġsynthetical ly
Ġcogit ating
pur pos
ĠJudgement s
ren ce
Ġsubl imity
Ġannihil ate
Ġobs curity
Ġindif ference
legisl ation
Ġadmir ation
Ġtrib unal
C hapter
o ice
Ġ ers
Ġo l
Ġthe ological
re ciproc
Ġc red
Ġf oot
le t
ot le
Ġu seless
ur us
Ġpro pr
Ġr ace
Ġprinci p
ad missible
ĠC hapter
Ġdes p
av ing
Ġest imate
ĠU se
ev ol
Ġset tled
ĠCon ception
Ġte acher
Ġallow able
Ġdecl ares
ĠĠĠĠĠĠĠĠĠĠĠĠĠĠĠĠĠĠĠĠ Ġ
Ġmark ed
Ġaccid ental
crit ical
Be ing
Su preme
neg ative
Ġusu al
draw n
Ġpros pect
ott om
A r
T Y
f ig
s c
er ate
Ġc our
Ġp a
Ġb ottom
Ġf ile
Ġn ation
Ġd ue
Äł per
Äł sub
ind ividual
ĠF OR
Ġgr at
Ġground ed
Ġent ertain
ĠPro ble
Ġmethod s
Ġte chn
Ġerr one
Ġbecom ing
constit ute
Ġaccid ents
hig her
Ġobserv ations
import ant
Ġslight est
Ġaug ment
b ound
b our
l o
o pposite
Ã ĥ
on y
as is
Ġan ce
Ġex pose
ci ation
Äł O
ul g
ab out
ie t
Ġsynthe tic
Ġview ed
Ġexpl anations
Ġmode l
Ġcomp el
Ġfree ly
Ġsupp lied
Ġprogress ion
Ġchang ed
Ġanalog ous
disc overed
Ġear ly
my self
sens es
obser vation
Ġusu ally
suffici ency
Ġfortun e
cir c
Ġempl oys
pore al
k es
n oumen
o res
r ance
s mall
in om
Ġh undred
Ġg if
ain ing
ab led
ĠĠĠĠĠĠĠĠ ĠĠĠ
ĠP ossib
Ġen abled
ĠE dition
Ġout ward
Ġam ount
Ġincl udes
Ġremain ing
flu ences
Ġset tle
Ġbound aries
Ġmis understanding
pure ly
Ġwar ning
Ġanalytical ly
Ġproduct ive
Ġoff ice
Ġcontinu ed
Ġcoun try
speci al
Ġscept ical
Ġreflect ive
Ġcheck s
Ġassign ed
Ġincre ase
Ġstru gg
¢Ä ¢Ä
Ġdisappear s
ustom ed
Ġheav en
8 0
I m
b es
m n
m ember
n gl
o pp
en larg
ot ed
Ġh orizon
Ġsu n
ain ted
il ed
Ġat ing
Ġr ation
Ġform ation
Ġar chety
Ġevery where
Ġsub stit
ĠG r
man y
Ġshow ing
Ġcomm er
Ġpresu pposing
Ġaff inity
Ġocc urs
Ġset ting
ĠBe autiful
Ġover step
Ġvirt uous
Ġpass es
under stand
ĠY et
Ġvol unteers
Ġpar alogism
oc r
metaphys ic
Ġaccept ed
IT ED
Ġdevelop ed
Ġuncondition ally
Ġdet ail
Ġdec ision
IL ITY
Ġmult itude
Ġcompl iance
Ġvan ity
ĠMat hemat
entire ly
PRE FACE
ĠChrist ian
According ly
ĠREM ARK
6 8
a pe
b ol
c ases
c osmological
i ology
Ġa f
Ġin c
Ġre pro
Ġpr int
Ġl ater
Äł L
if ies
ĠA m
Ġpl urality
form al
ha ust
edu c
Ġfeel s
Ġadv isable
Ġconsequ ent
Ġimper fect
Ġlook ing
Ġtreat ise
igh bour
categor ical
Ġafford s
Ġdanger ous
Ġcap acity
Ġanci ents
psych ology
Ġtw ofold
imper ative
Ġisol ated
ĠPhenomen a
H Y
s us
Ġth y
Ġf iction
Ġis m
Ġd r
de mand
Ġdo ll
Ġper petual
Ġsh ape
ĠP e
Ġfa ult
Ġen ounce
Ġend owed
Ġ1 3
determin ate
Ġcor relate
Ġquant um
ĠIde al
inde pendence
Ġdistrib uted
Ġorgan on
Ġmoment a
Ġarrang ed
Ġfig ures
Ġconflict ing
Ġdirection s
Ġcult ure
Ġreckon ed
Ġpun ishment
ĠMetaphys ics
Ġcontempl ation
ĠDiv ision
defin ition
ĠGree k
aenomen on
M etaphys
N e
O ur
i ality
o ast
p ublic
Ġt en
en deav
Ġin struct
or ies
Ġre pe
Ġre conci
Ġpr ide
ter m
ci l
per haps
con struct
Ġr ange
Ġch osen
Ġfar ther
ĠG er
ost at
form s
pro cedure
Ġconce al
Ġleg al
Ġperson ality
Ġspeci fic
do ctrine
Ġindic ating
des ire
Ġmaintain s
Ġdesign ate
Ġacqu ainted
perfect ion
lar ge
acc ount
Ġhappen ed
Ġprud ent
Ġestim ation
contin u
ĠEm pirical
Ġcal cul
b ased
d on
in al
Ġe rect
ut ility
Ġh ouse
ĠI s
em br
tain ing
Ġr ad
Ġsen sib
su preme
Ġno ble
ĠA pp
ĠP art
so phist
fere d
int u
sol u
Ġbel ow
ac cid
pro ved
Ġwhere in
wor ks
arr ass
Ġexer t
Ġbelie ves
Ġlook ed
Ġconduct ed
oc ke
IN CI
intellig ence
rem ark
Ġpursu it
imin ary
Ġwrit ten
consequ ences
Ġsacr ifice
Ġindetermin ate
" ;
B ILITY
C L
T RANSCENDENTAL
Ġo s
at ural
im ental
os es
Ġon line
Ġnot ice
Ġsu pposing
Äł he
Äł ar
res ist
ĠT aste
con duct
est eem
ad ed
Ġsh are
cl es
et ch
Ġma ch
Ġrequ iring
ĠE X
Ġent ered
Ġ1 6
ĠM an
abl eness
Ġcomp ut
Ġphys ico
Ġchange able
irt ue
Ġexplain ing
Ġelse where
pur poses
Ġregul ar
00 0
ĠEx position
Ġey e
Ġro ad
Ġsort s
Ġpostul ates
Ġwit ness
ele ology
effect s
path ological
ĠNe w
oblig ation
ĠCategor ies
P er
b asis
b arrass
m ist
w ish
Ġof fer
Ġs ite
ic it
Ġf ix
se ct
Ġu pright
im agination
de l
ci al
ir th
ist inction
ĠT ot
ple x
Ġ( Â§
Ġun necessary
Ġour s
now ledge
ie ce
Ġknow ing
ĠW ARRAN
Ġcont act
form ed
Ġpos ited
ĠD I
Ġpossess ing
ĠPro of
Ġimp ressions
Ġref ers
Ġcl os
Ġdiv isible
Ġel aps
Ġconform ably
Ġparticular ly
Ġarr ange
Ġregress ive
Ġequ ip
ĠK nowledge
des tr
Ġexamin ed
ĠAr t
happ ens
Ġdisposition s
peci al
limit ation
ordin ated
ap ode
Ġappro pr
ĠÃ Ĩ
constit ution
Ġfl atter
Ġkeep ing
Ġtal ents
path y
demonstr ation
Ġeth ical
proble matical
argum ents
Ġpolit ical
Ġconfirm ation
ĠEpic urus
AM AG
Ġloc ated
ĠInt uition
Ġbre ak
Ġelaps ed
D e
O P
S t
r ase
Ġt ext
Ġo g
at iv
ic ability
Ġm id
Ġm und
Ġre view
Ġu re
Ġl iving
Äł W
Äł pro
th ics
ver se
ul ate
Ġat es
tain s
ĠA b
ie ve
ĠS elf
Ġfa ir
Ġcomple ted
ĠH art
Ġrem ote
oun ced
Ġmaxim um
Ġsim plicity
Ġproceed ed
bl es
flu ous
Ġconform s
arr ow
Ġinfinite ly
Ġdecl ar
ĠUn ity
produ ce
synthetical ly
Ġ9 0
Ġcreat ures
Ġacqu ired
Ġpositive ly
success ive
enetr ability
Ġhum il
Ġobst in
Ġexec ution
Ġfalla cious
J udgement
a el
g es
g ives
h ab
h omogeneous
i ans
r og
Ġ X
Ġn ull
ul es
Ġal tern
Ġint ensive
ĠĠĠĠĠĠĠĠ ĠĠĠĠĠ
Ġexist ences
ad mit
Ġwill ing
Ġch ief
Ġcont empt
Ġcont empor
Ġfe es
ĠE ngl
are st
Ġformer ly
Ġyou th
cogn ized
there by
reg ulative
Ġant inom
Ġsol ved
Ġover look
Ġindic ated
Ġpost ed
Äłs h
Ġfall acy
Ġtreat ment
just ice
ap perception
produ ced
quest ions
univers ality
Ġapode ictical
Ġfl ow
Ġopp ortunity
cogit ated
Ġspirit ual
TIC AL
ert itude
ĠSy stem
Ġpersu asion
Ġmult i
Ġschol astic
ĠDis cipline
Ġhyp ostat
clos ed
Ġdoll ars
1 8
a esthetical
Ã ©
Ġw a
Ġw ww
Ġin comp
ich ael
Ġex empt
Äł se
Äł be
qu al
Ġne xt
me an
Ġr un
Ġse es
ge t
Ġrepresent ing
Ġmy st
ast er
ĠW ill
Ġen umer
Ġjust ly
sy m
av id
Ġself ish
Ġcomp ens
Ġple ases
Ġconform able
ĠSu blime
Ġequ ality
Ġpass ing
des er
Ġapply ing
Ġfalse ly
philos ophical
Ġobtain ing
Ġspontane ously
TH E
Ġassoci ation
point s
attain able
Ġreciproc ally
Con sequently
prove ment
Ġconvin ced
Ġundoubted ly
ĠPe ace
C TION
N o
f urn
h armon
i ption
Ġw id
Ġto uch
Ġf ixed
an cing
om ogeneity
ut ic
Ġas pect
Äł u
Äł ab
ist ence
Ġne ighbour
Ġal ly
Ġr u
Ġr oyal
pr act
ad istinction
omen a
ĠS ome
ĠS cience
Ġch ild
et s
ĠN or
Ġown er
Ġag ent
Ġ1 4
Ġview s
app ly
Ġansw ers
Ġimag inary
perception s
up il
Ġadd s
br ought
Ġtrans l
ĠAr ist
Ġcorrect ly
appear ance
Ġwrit ing
Ġimpl ied
Ġqual ities
Ġconstant ly
independent ly
Ġaccur ate
ĠDiv ine
Ġforb id
bet ween
p owers
r ather
u ly
y right
Ġ Â
Ġin fall
Ġin consistent
Ġm il
an im
Ġas certain
Ġex cell
Äł th
us es
Ġhe s
ad ing
Ġworld s
ĠĠĠĠĠĠĠĠĠĠĠĠĠĠĠĠ Ġ
Ġgo ing
other s
Ġphilos oph
sy llogism
Ġatt ended
ĠM oreover
Ġstr i
Ġdiv ide
Ġmod erate
Ġsol id
Ġhold er
Ġess ay
Ġprov ince
ob bes
Ġart s
Ġamong st
Ġexcl ude
Ġavoid ed
Ġpostul ated
Ġinev itable
Ġir re
Ġdogmat ism
Ġprob ability
Ġfan aticism
Ġmo ving
Ġconfin ed
Ġaccur ately
ĠNot hing
OG Y
Ġfrequ ent
begin ning
eng th
Ġevid ently
DU CTION
Ġerrone ous
ĠArist otle
C T
c ision
r ust
s ing
s ur
u b
Ã ¦
Ġt aught
Ġo t
re nt
es pecially
Ġn amed
de finite
ist rib
Ġal ity
ĠĠĠĠĠĠĠĠ ĠĠĠĠĠĠĠ
Ġr ash
Ġv ice
Ġtr ied
Ġst ead
ex cl
present ation
wh ose
Ġad mission
Ġgr and
ĠIn formation
ici ous
Ġsee ing
Ġconsider able
Ġcogit able
Ġdirect s
Ġel abor
cont empl
Ġread ers
Ġconv en
Ġke y
rem ains
Ġelement ary
possess es
origin al
div is
rest s
Ġlabour s
Wh ile
Ġasc ending
mot ive
Ġimpul se
Ġord inary
argum ent
dog mat
difficul ties
Ġtend ency
Ġomni pot
Ġquar ter
accom p
Ġspect ator
O D
P h
U n
a cles
e ared
l iminary
u x
Ġa in
Ġin ternally
Ġin fluences
Ġb oast
es pect
se ction
Ġd ate
om in
pt ions
de red
Ġg ave
ĠT eleology
ol f
Ġun changeable
Ġr ound
Ġtr ust
str um
ag greg
el t
am es
ĠG ood
com es
Ġdes cribe
form ul
ful ness
Ġinv al
Ġcharacter istics
bl ing
EN CE
Ġarr iving
Ġnum bers
Ġ2 5
Ġresult ing
contradict ions
Ġpass ed
pur su
Ġaddition s
leg omena
Ġpret ended
Ġoff icial
Ġrecogn ise
RO DUCTION
Ġrestrict ed
Ġparagraph s
Ġsubsum ption
maxim s
Ġaccomp any
assert ions
Ġprep are
Ġlink s
anteced ent
Ġinst inct
solu ble
ĠTot ality
; _
C ritique
S uch
S EC
f av
j unction
r ules
v irtue
Ġt ed
is en
at a
Ġb ind
Ġb irth
Ġm ixed
se en
im ag
Ġl ic
Ġde ce
Ġde tr
em per
act ing
Ġun ite
Ġacc ustomed
cl ass
ens es
Ġgener ated
Ġind ication
ĠWe b
Ġstr ange
spe culation
Ġco inci
Ġmaintain ing
Ġcomb at
Ġdesign ed
Ġcompar ative
Ġorgan ised
Ġrecogn izes
Ġdel iber
Ġadvance ment
Ġpursu es
appl icable
Ġcircum stance
conf idence
Ġdat ur
crit icism
exp ression
Ġfan cy
Ġfour th
mot ion
Ġcost s
Ġderiv ative
concern ed
Ġelev ated
Ġclose ly
Ġreplace ment
Ġcommence ment
Ġconject ure
Ġsuscept ible
Ġpremis ses
Ġrepro ach
Ġequip ment
Ġcontempor aneously
H e
O RE
R ITI
T RODUCTION
W hether
a pon
h ope
i hil
on ically
it ative
it les
or n
Ġe ternal
Ġe go
se cure
ut ter
Ġh arm
ur ies
Äł R
Äł at
qu e
Ġat ive
Ġhe ight
ex per
Ġqu a
Ġsubject ing
ag reement
Ġlimit ing
Ġact uality
ĠE ither
Ġatt ach
dis position
Ġarr ived
Ġsol ve
AL EC
Ġpath s
Ġcompre hension
ĠV I
Ġintu ite
appear s
Ġexcl udes
Ġclass es
indic ate
Ġsuff er
Ġattr action
preced ing
ĠSEC TION
Second ly
Ġtyp e
Ġbuild ing
Ġwonder ful
Ġpa per
Ġapodeictical ly
Ġinval id
P ure
b ar
f urther
k en
l ife
m akes
s oul
w ant
Ġ iv
Ġt y
in vol
re ction
en ing
Ġp ubl
nd e
Ġm ine
se em
Ġan nex
Ġde m
us ively
tr ademark
not ions
her ing
Ġv oice
Ġy ield
Ġdis similar
Ġar y
be come
te llig
ys s
Ġdif fer
ĠH obbes
Ġground less
ine v
less ness
Ġreal ization
Ġconstit uting
Ġshow ed
Ġass istance
Ġcomp etent
fer red
Ġbr an
Ġoff ers
ĠSt ill
Ġir resist
Ġfavour able
compre hend
Ġmark s
ele ments
great er
Ġexper iences
Ġbene fit
Ġmediate ly
Ġinj urious
Ġfrequ ently
QU E
Ġpresum ption
Ġdestru ction
Ġtechn ical
E AS
S IS
p gl
s ed
Ġ x
in separ
Ġo st
Ġs il
Ġin complete
Ġin comprehensible
Ġf at
Ġn arrow
Ġl ive
Ġl ab
th row
per manent
ĠThe ology
Ġhe alth
Ġtr ace
Ġpre par
ĠW here
with in
Ġext inction
ĠD es
ĠD avid
ĠL ocke
Ġattain s
ext ent
Ġchang ing
requ ired
categor y
Ġcompar ing
ific ations
Ġsupport ed
employ ed
Ġdogmat ist
expl ain
Ġdef end
Ġasc end
Ġrece ives
ĠDe ity
psych ological
ĠMor ality
dog matical
establ ished
Ġsubstant ial
sour ce
Ġheaven ly
Ġration is
ĠEngl ish
mean ing
apon s
2 2
G r
I B
U ND
c ame
Ġ ig
Ġo mit
al e
al le
Ġu d
Ġex ceptions
de v
Äł N
Äł ch
Ġso ph
Ġv ac
Ġab ly
ĠA gain
un avoidable
ĠS T
Ġdes c
âĢĿ âĢĶ
Ġinde finitum
Ġfe ll
Ġeffect ed
ĠD IS
Ġchar m
Ġass ure
Ġcomp ass
pe culiar
gr at
ĠTHE SIS
Ġintr insic
Ġdecl are
Ġfr ame
ES IS
ole m
produ ction
Ġfurn ished
Ġadequate ly
TH ESIS
incl inations
Ġsepar ated
consist ency
satisf actory
ele ment
Ġsk etch
Ġanimal s
Ġoppon ents
Ġdiscuss ions
post eriori
Ġspecif ically
Ġauthoriz e
Ġauthoriz ed
Ġenlarg ement
Ġsym pathy
Ġprim ary
dedu ced
philosopher s
Ġcultiv ation
vey ed
sole ly
RITI QUE
pgl af
1 6
5 0
I ON
S o
Ġ ***
Ġa ch
it al
en evol
Ġw ished
Ġin ternational
Ġin soluble
an cy
Ġe ll
Ġbe gan
Ġh ttp
Ġl ength
ess ential
me ll
est im
su al
ad ox
ex hib
Ġcogn ise
ag ger
ort ions
Ġpresent ly
Ġag rees
Ġthink ers
Ġpres cribe
Ġorigin ating
phenomen al
Ġcontent ment
Ġconform ed
Ġestabl ishes
Ġjudg es
Ġmod ifications
Ġsol icit
Ġprov iding
Ġcontinu ity
Ġoccup ation
phys ico
Ġexcl usively
Ġgen ius
interest ed
acc ur
OR AL
ĠAN AL
presu pposed
How ever
Ġdef ence
Ġformul ae
Ġmo on
Ġderiv ation
ATION S
signif ication
Ġaddu ced
analys is
Ġdivis ibility
mechan ism
Ġrevol ution
Ġalleg ed
fig ure
M E
b ring
c ritique
p perception
t reat
v ent
Ġo ppose
Ġp upil
Ġin admissible
Ġbe ars
Ġbe came
Ġex ternally
Ġl ur
Ġl and
Ġl icense
Äł I
if ying
ul ates
Ġde composition
Ġpro poses
act ual
Ġv ag
Ġtr ack
su ppose
ad ly
Ġst atus
ĠA G
ex c
Ġcogn izing
wh atever
Ġpart icip
Ġph aenomenon
Ġpre liminary
olog ia
Ġen ounces
Ġen large
Ġen closed
Ġcontr over
Ġdist ance
Ġcall s
pro b
Ġthink er
Ġpres cribed
Ġgreat ly
Ġent itle
Ġcogit ates
Ġres istance
Ġadv ancing
Ġpredic ated
TI THESIS
arr ang
Ġregress us
ĠIde alism
Ġneg lect
cid ed
Ġmis sion
fa ult
Ġtreat ing
Ġconj oin
Ġoper ating
Ġfr i
Ġmoment um
produ ct
Ġfurn ishes
Ġabstract ed
metaphys ical
belong s
Ġsent iment
Ġpay ing
Ġinsepar able
Ġstru ct
Ġdisplay ing
Ġ17 8
Ġreve al
conv in
Ġcit iz
Ġpropens ity
ĠDI ALEC
ĠÃĨ sthetic
Ġsoph ism
_ ),
i pt
u ary
Ġt itles
on es
er o
Ġs ize
Ġe lectr
Ġre action
st one
Ġbe tr
Ġh alf
Ġan im
de cl
de fect
Äł al
us ing
Ġthere from
cess ity
Ġv es
ge ometr
Ġim provement
ĠF IRST
Ġfa m
Ġser ved
ÃĦÅĤ s
Ġwork ing
ĠPro legomena
ĠM ORAL
dis p
Ġtot ally
Ġrul er
Ġspeci ally
Ġaw aken
sim ply
Ġconv ince
Ġinvol ve
Ġdefinite ly
appear ances
Ġpursu ed
Ġrestrict ions
free ly
ĠSe cond
Ġhist orical
Ġindu bit
Ġobserv ance
pret ensions
Ġnecessit ated
Ġexec uted
fortun ately
OG IC
Ġaccompl ish
Ġhard ly
Ġobe y
ĠTr ans
ĠAl though
Ġmut ual
Ġmove ments
Ġrecomm end
Ġprincip al
Ġclos er
Ġantinom ies
nde ed
1 9
E G
S IC
a seless
g en
h on
l and
s ight
y m
he res
in cre
Ġo log
re ceive
Ġf elt
Ġis h
Ġd ark
ent ia
Ġan x
Ġnot e
ur a
ib r
Äł as
og ic
hen s
Ġun it
Ġse curity
ad mitted
Ġim pose
Ġper plex
ex position
pon t
Ġar ose
here nce
ĠN atural
am p
ĠC RITIQUE
ĠH uman
ĠR el
ĠR emark
Ġdist ant
Ġcall ing
ĠD AMAG
Ġremain ed
Ġread able
Ġbelie ved
Ġ3 5
bel ief
Ġstrict est
II I
proper ty
Ġlet ter
Ġsimilar ity
interest s
au ung
log ic
Ġcomprehend s
like wise
speci f
Ġstep s
Ġprob able
Ġtal k
Ġadm ixture
exam ples
Ġtransc ends
Ġmist aken
Wh atever
Ġren ounce
gener ally
Ġfruit ful
lead s
ĠSEC OND
ĠAnt inomy
INCI PL
Ġmil it
Ġelectr onically
ĠDAMAG ES
: âĢĶâĢľ
A D
C a
F irst
a h
b al
c in
i pp
p ire
in fin
in stead
re p
Ġin e
Ġin ability
Ġb and
Ġf ate
Ġis su
Ġre str
ot ion
Ġh omogeneity
Ġl ot
ur b
Äł com
Äł imp
th ree
if ferent
Ġde ceived
ĠT ake
Ġca st
of t
Ġhe ar
Ġdo ing
our s
Ġph rase
ac qu
Ġent ity
Ġthrough out
Ġinv isible
ĠL IM
Ġcl ue
Ġlogical ly
Ġdirect ing
Ġed ition
Ġed itions
Ġpass ive
Ġaffect ion
Ġrender ing
AN T
disc us
Ġ4 0
Ġpret end
Ġintu iting
Ġlast ing
Ġdeser ving
Ġsuffici ency
Ġultimate ly
Ġapparent ly
power ful
Ġcontrib ute
Ġdec is
Ġobst acle
Ġprot ected
Ġattack s
Ġwide ly
show n
Ġapproxim ate
ofess or
add ed
Ġpra ise
Ġpropr iety
ores aid
HY SIC
fav our
Ġbetr ay
L eibnitz
P ART
P lease
S ince
d le
f r
o ck
r ain
in trodu
Ġo und
er se
Ġc t
Ġin ex
Ġto ok
an nihil
im possibility
os p
ject ed
Ġsu st
ci ent
Äł it
th orough
og r
Ġpro hib
ig ination
Ġcom pr
Ġsp urious
Ġhe at
Ġtr ying
Ġdetermin ant
ad m
Ġab ide
cul t
Ġdis pens
Ġar d
Ġar isen
be autiful
ĠS ense
ag on
pre vious
ac cess
ile ge
Ġcrit ic
ĠM ichael
ult aneous
Ġimp ed
Ġlike ly
Ġintellig ences
Ġass ist
ev il
Ġconce ivable
arr ant
ĠĠĠĠĠĠĠĠĠĠĠĠĠĠĠĠĠĠĠĠĠĠĠĠ ĠĠ
Ġcontin ually
Ġcopy ing
Ġlegisl ating
Ġmed iating
Ġsur pr
Ġoccup y
Ġappro ach
Ġintrodu cing
facul ties
Ġcreat ing
consider ations
Ġconcre te
IC T
Ġfill ed
Ġdef ici
correspond s
ref lection
Ġestim ated
Ġcontrib utes
Ġstreng then
ĠDo ctrine
Ġservice able
Ġtransg ression
comb ination
Ġdeep ly
Ġdream s
Ġundert aking
sch auung
ĠMe thod
Ġarchitect onic
Ġguarante e
Ġgif ts
Ġrad ical
destr oy
Ġmulti plicity
Ġwid est
accomp an
ĠLIM ITED
I ES
N ot
P OS
c osm
e ous
r own
Ġt one
Ġa y
Ġo u
re ckon
it ation
er ity
Ġp ortion
al ready
Ġto pic
ou d
Ġe p
Ġe ase
Ġex posing
ure an
ter med
act ive
act orily
Ġca me
all ow
Ġcondition al
Ġst e
Ġst age
art es
Ġcogn ised
un iverse
op inion
Ġpre cision
ĠC f
Ġser ious
rit ical
ivers al
Ġen em
ÃĦÅĤ in
Ġcor poreal
there of
Ġstr ike
Ġcontradict s
Ġres ide
Ġconce iving
ĠCon cl
Ġdistingu ishes
cont est
Ġbound ary
AP HYSIC
Ġdemonstr ations
Ġinfer ring
Ġfr amed
ĠEx istence
rem o
Ġintrodu ction
CE P
There fore
ground ed
Ġacqu ire
state ment
Ġaccid ent
obser ved
Pr odu
Ġsucceed ed
Ġqual itative
Ġfulf illed
supp ly
Ġpromot ion
Ġpat ient
ĠNO T
rupt ed
Ġfed er
UD G
Ġembr ace
ĠSto ics
purpos iveness
sc hema
Ġsensib ly
Ġcomput er
apode ictic
Ġhumil iation
Ġforbid s
Ġirresist ible
ĠAG RE
INCIPL ES
Ġdecis ive
! "
I TION
K ant
d id
d ated
g iving
n g
Ã İ
Ġa x
Ġo d
it ful
Ġs aw
Ġin sp
Ġb urd
Ġth ou
or ic
se au
Ġre tain
Ġd uring
ar p
Ġpr ime
the oretic
Ġl est
Ġwe al
Äł em
Äł ind
us h
um b
Ġv ict
Ġse ven
ĠB E
Ġus er
for th
te leological
fin ally
Ġrequ est
Ġlimit ative
Ġconnect ing
ac ities
Ġrational is
Ġval u
Ġemploy e
Ġreal ized
av ag
Ġac knowledge
Ġi a
Ġnow here
Ġdedu cing
Ġsupp lies
Ġphys iology
Ġmod est
Ġconf irmed
Ġideal s
Ġsuper fluous
Ġaffect s
** ***
ĠAn alytical
sh all
Ġinvol ving
rem ain
Ġanteced ently
Ġrestrict ion
presu pposition
adv ance
Ġur ged
ator s
Ġpay ments
distinguish able
Ġ200 2
Ġspecif ied
Ġesca p
Ġdisplay ed
supp ort
Ġpromot ing
Ġcomply ing
Ġcent uries
Ġweak ness
ick ed
Ġaccompl ished
Ġaddu ce
Ġconvin cing
Ġhind rance
Ġdepr ive
With out
ET APHYSIC
Ġfict itious
iet ary
Ġstrugg le
ativ um
utter ly
. âĢĶ
4 1
C h
d one
e ffort
m oment
n a
n umer
s aid
s pont
t on
t ext
Ġ ll
Ġ ied
Ġ ics
Ġ educ
he ter
re cogn
Ġs ave
Ġp iece
ic a
Ġin stances
Ġf ight
Ġn ihil
Ġe ct
om ents
Ġl ate
Ġl ays
Ġwe b
Ġg ot
Äł mis
ĠI ND
Ġun expected
ide al
pos it
ant ly
pir it
un known
for ce
Ġle aving
Ġsub ter
ĠIn trodu
pro cess
ass ign
ĠM is
Ġinv ent
Ġref use
ten ance
Ġconce de
TI ES
know led
practical ly
Ġattempt ing
subject ively
Ġ4 5
Ġinquir ing
att ention
Ġdogmatical ly
Ġarbitr arily
Ġintrodu ced
Ġcare ful
Ġ6 0
Ġindu ce
Ġperform s
Ġobst acles
Se e
pret ation
ĠMetaphys ic
fortun e
Ġheav y
Ġhind er
Ġast on
circ um
Ġrepe ated
embr acing
Ġexcell ent
A BILITY
b its
r an
u ge
y llogism
on ations
Ġthe ories
en cies
Ġp ress
Ġin strum
Ġb on
Ġm er
Ġre fin
as ions
Ġex agger
ist ered
and er
Ġde ad
aw ay
Ġun its
tr ansc
Ġr are
Ġsp o
ous seau
Ġab yss
Ġper ce
ĠA SC
be ll
Ġaccord s
Ġpl acing
Ġen cour
ser ves
Ġseem ingly
Ġobser ving
ĠĠĠĠĠĠĠĠĠĠĠĠĠĠĠĠĠĠĠĠĠĠĠĠ ĠĠĠĠĠĠĠ
Ġmis understood
ivid ed
aut onomy
Ġallow s
Ġfalse hood
Ġjustif ication
just ified
Ġevil s
Ġdon ate
constit utes
cur ing
consist s
ins ight
gu ard
more over
Ġdestroy ed
Ġwrit ings
occ asion
Ġexc ite
Ġbene ficial
Ġcap acities
Ġsafe ly
Ġfit ness
Ġdev oted
An alytic
consequ ence
Ġsac red
establ ish
Ġviol ence
attrib ute
Ġanticip ate
Ġprejud ice
prop ortion
author ity
answ er
inquir y
Ġaccompan ied
Ġcompel s
ĠWARRAN TY
Ġchild ren
alle l
cult iv
ĠASC II
A l
P RO
e Book
f old
l i
m erit
n is
Ġa str
re pt
or ld
Ġm ass
Ġis e
ar ce
ar ise
as m
Ġl es
de utic
ib us
Ġsu pposes
res h
ul sion
ĠT hen
con ceive
Ġun attainable
Ġso ever
ary ing
Ġsh ip
ĠA fter
ex ception
ĠP sych
Ġdis gu
ĠS U
Ġspe cul
Ġdes cribed
ĠE ND
Ġfind ing
ĠRe g
ĠM ETAPHYSIC
Ġsensuous ly
Ġstr ives
Ġadv ances
Ġsatisf ies
ma j
Ġsuccess ful
ĠSu b
ĠJ UDG
Ġmis conception
dequ acy
ext ensive
imp enetrability
produ ctive
Ġacqu aint
Ġfl u
Ġdisp ense
Ġfail ed
Ġsent ence
Ġcr ude
Be fore
Ġestim ating
Ġmist akes
Su ppose
Ġbeh alf
Ġmerit orious
Ġgrad ual
oper ation
Ġprep ared
Ġfruit less
Ġimpart ial
Ġpenetr ate
ĠVII I
abs urd
Ġanthrop omorph
Ġunb ounded
indis pensable
Im agination
ĠMathemat ics
Ġaf oresaid
tellig ence
enevol ence
ME TH
E m
N evertheless
_ ).
m ber
Ġ ically
he l
in o
is c
Ġin consistency
ct ory
Ġe lective
le y
Ġre ferences
de t
ci ated
Äł i
Äł qu
Äł pl
Äł sp
Äł des
og ant
if ference
ul ation
il es
us s
end er
ig ious
Ġcom posed
Ġv ed
Ġse vere
Ġem ail
Ġem barrass
Ġtr uly
Ġj ur
Ġsy non
un ciation
Ġar ound
Ġar ms
ĠO ther
Ġfa cil
Ġgener ation
der ived
Ġsim pl
ĠL OGIC
Ġconsist ency
Ġcontent ed
Ġstand ing
Ġworth iness
Ġ2 2
Ġsc arce
Ġcorrespond ence
Ġsignif y
ane ity
Ġexpect ations
Ġden ies
Ġden omin
Ġund e
Ġcomb ine
Ġyour self
Ġendeav oured
oc ation
Ġanalys ing
pens ably
Ġthorough ness
Ġlead ing
Ġobtain s
Ġsur pass
Ġdel usive
comp elled
Ġabstract o
ĠÃ ¢Ä¢Ä
separ ate
Ġmanifest ations
Ġcoun sel
avoid ably
au sible
Ġmeet s
Ġfill ing
occ ur
Ġfan cies
obser v
attain ed
Ġsent iments
Ġdet ected
Ġdecid es
Ġincre ased
Ġpun ct
Ġ200 1
trans ition
TR IB
Ġimit ation
Ġimit ated
Ġesteem ed
anthrop omorph
Ġalter ation
OL OGY
uncondition al
Ġdim ensions
Ġprint ed
Metaphys ic
Ġexert ions
hab it
Ġincomp etent
Ġissu e
ĠReg ulative
METH OD
) :
. ;
. _,
G eneral
U AL
d ay
h n
h ad
h ip
l iberty
r ung
s pr
t est
Ġ ious
is k
en joy
at ch
Ġc i
Ġc ens
Ġs w
Ġs av
Ġm al
Ġpr ag
Ġl osing
ir able
Äł j
ĠI ndeed
per ceive
ch ain
em piricism
ill ion
Ġcom ing
tr ies
ad ow
Ġus es
un able
Ġdis satisfaction
Ġrepresent ative
op ing
pre cept
ĠC an
ĠC ogn
ign or
ro ken
ĠE nd
over n
ĠM on
Ġref uted
Ġhand s
Ġrest ing
Ġdiv erse
Ġi p
Ġconcl uding
represent ed
know s
ma il
aim s
Ġimag es
fa ir
requ is
according ly
Ġjustif ies
Ġnegative ly
Ġorgan ization
Ġlast ly
ific es
proper ties
conf irm
sens ations
Ġproblematical ly
Ġdom inion
state ments
Ġprevent ed
Ġfill s
Pr inci
Ġexc ites
Ġmist ake
ĠMor al
Ġpolit ics
difficul ty
Ġtransg ress
Ġprim arily
Ġvis ual
Ġrid icul
ĠPR INCIPLES
Ġexerc ises
uncondition ally
noumen a
Ġarchety pe
Ġdetail ed
St ates
Ġmund us
harmon y
exper iences
infin ity
METHOD OLOGY
4 2
H T
I G
M at
Y ou
b onum
c reat
d ialectic
f ounded
h ttp
l ast
l ittle
m aking
m ixed
n et
o e
r ation
s k
v an
w ar
w rit
y ield
ĉ ĉ
Ġ rom
Ġ ute
in finitum
Ġo un
Ġthe ore
en ough
er ke
Ġp olem
Ġin cor
Ġm ar
Ġm aster
Ġit ion
Ġre distrib
ar ium
Ġl o
Ġl ow
Ġwe aken
Äł the
Äł int
ĠI ll
ver sion
og mat
con cre
con junction
Ġare na
Ġal ike
ill a
ud ence
Ġdetermin ative
Ġcondition ally
ĠF undamental
ĠF inally
ĠA pperception
pon ed
pon ent
so on
Ġpart ial
pre vent
du c
ĠW orld
com posite
Ġdes pot
Ġcontr ol
ĠR ational
ĠR oyal
Ġdist ress
Ġend ed
ĠD IV
Ġatt itude
Ġreal ize
Ġfact s
Ġquant a
Ġsatisf actorily
Ġmathemat icians
Ġdiscover able
Ġdeg r
Ġneed ed
Ġes pecial
Ġgu iding
ĠPr int
RE A
Ġce asing
Ġadd ing
Ġharmon ious
Ġvol unt
ird ly
pres er
ĠV ol
Ġdecl ine
produ ces
ĠIm possibility
Ġput ting
Ġconstruct ing
Ġcreat or
Ġfig ur
satisf ied
Ġaccept ing
Ġcomprehend ed
gu idance
Ġsecure ly
real ization
great est
Ġasc ent
ĠĠĠĠĠĠĠĠĠĠĠĠĠĠĠĠĠĠĠĠĠĠĠĠĠĠĠĠĠĠĠĠ ĠĠĠĠĠĠĠĠĠĠĠĠĠĠĠĠĠĠ
ĠLog ical
IR D
Ġsubsist s
preced es
Ġhop es
Ġobe ying
Ġfalla cies
AC TICAL
Ġmut ually
ĠPR ACTICAL
Ġdestru ctive
occup ied
Ġhyper physical
Ġfed eration
Ġfict ions
inquir ies
Ġnear ly
Ġnumer ous
Ġambig uity
ĠAm ong
don ate
Ġupright ness
rog ative
Ã¦ deutic
aggreg ate
insepar ably
Ġcontrover sy
Ġstruct ure
ĠDIALEC TIC
Ġsophism s
ĠJUDG EMENT
Ġscarce ly
Ġpolem ic
H IL
I X
P END
S p
b ation
f al
f ici
j udge
m er
m agn
t ered
Ġ ible
in ently
re vol
at ible
er ms
Ġw icked
Ġc ed
Ġc ustom
Ġp et
Ġp age
Ġp arent
ic ate
Ġb ar
Ġd ry
as sume
Ġex haust
Ġwe ar
Äł J
Äł for
Äł gr
act ually
Ġun success
Ġun ites
Ġun avoidably
Ġr ig
Ġse ld
ard s
Ġj ud
Ġst ake
Ġreg istered
Ġcons ult
be comes
ĠS en
te l
ĠR ousseau
ke ep
Ġyou ng
Ġexp enses
av ity
Ġsatisf ying
Ġestabl ishing
Ġanaly se
Ġremark ed
dist inct
Ġlook s
Ġoblig e
RE CT
Ġwar s
where as
Ġpar adox
Ġdemand ed
IN D
IS ION
att ack
Ġcre ations
TH ER
Ġcarr ied
Ġplain ly
Ġarrangement s
exp ress
Ġdiscuss ed
Ġperform ing
Ġsafe ty
attempt s
Ġteach ing
Ġcur rent
Ġundert aken
Ġexerc ised
BL E
ĠQu ant
Ġgrow th
coun ter
Ġcred it
Ġgrat ification
ĠPossib le
Ġmach ine
ogr am
Ġprohib ition
Ġburd en
Ġsubter f
ĠDIV ISION
HIL OS
B oth
F L
M P
O bject
S ome
b an
d ict
g iver
j oined
l ain
l able
l ie
m ical
p at
p opular
s let
u ent
v i
v ention
he t
Ġa pt
Ġp ol
al together
Ġm oun
Ġm ents
an illa
Ġn ational
Ġl ively
de pendent
ib ilis
ci ences
Ġwith draw
Äł ent
per form
il i
il t
il iar
Ġun iting
Ġun pleasant
Ġv ision
Ġunder take
ĠB REA
Ġtr ou
ph ib
pir ic
Ġrel uct
Ġrel igious
Ġcons ent
et ween
ĠO ne
ĠN either
el ess
Ġcontr adistinction
Ġown s
Ġpos it
ĠD onations
ĠM en
Ġres pon
contr over
TI N
Ġaff air
Ġinvestig ated
Ġexplain s
Ġdepend ing
ob s
Ġfall en
ext end
Ġins ist
Ġdemand ing
Ġthorough going
Ġke pt
bel ie
Ġrecogn ised
Ġindividual s
Ġprof it
Ġput s
Ġsepar ation
Ġir rational
Ġconflict s
conce ivable
claim s
Ġdiscuss ing
ier re
An schauung
legisl ative
prov ided
Ġspecif ication
Ġpersu ade
Ġpros per
cr iption
Ġcent ury
Ġcompl ain
conv iction
Ġdepart ment
Ġinhere nt
chang es
Ġaccompan ies
Ġratio cin
Ġteacher s
ĠProble m
Ġoverlook ed
Ġbind ing
ĠMORAL S
Ġolog y
Ġdispens ed
Ġfeder al
Ġseld om
Ġsubterf uge
ĠBREA CH
A t
A ct
a cious
b re
f und
f ield
it ory
at ir
Ġc ut
Ġs an
Ġp ot
ic ated
Ġb enevolence
Ġm us
ct ible
Ġd i
Ġbe g
ent ity
Ġh ost
Ġwe alth
Ġsu it
Äł U
Äł is
Äł el
Äł comp
con nexion
Ġv isible
ound s
pr ofess
ant inomy
ĠA R
ĠP ierre
Ġapp ell
Ġsubject ion
Ġdis app
Ġdis section
red it
cl ose
fin al
Ġow ing
Ġag o
Ġag es
ĠE ach
ÃĦÅĤ f
ĠD etermin
Ġview ing
Ġconce it
Ġel ucid
Ġder ives
Ġstand point
monstr able
mis s
mis understanding
Ġmod ification
Ġimag in
Ġmis s
ĠĠĠĠĠĠĠĠĠĠĠĠĠĠĠĠĠĠĠĠĠĠĠĠĠĠĠĠĠĠĠĠĠĠĠĠĠĠĠĠ ĠĠ
Ġdesign s
leg itimate
ĠUn iversal
Ġstrict ness
ES S
ip se
phys ics
comp ared
ĠÃ ĥ
Ġpursu ing
arch y
Ġintrodu ces
Ġsoon er
Ġmanifest s
au gh
presu ppose
Ġrep ort
Ġ8 0
light ened
Ġremo ving
Wh y
Ġbene fic
pet ually
Ġoccur red
Ġprot ect
judg ing
Ġenlarg ed
Ġbook s
suffici ently
Ġobvious ly
Ġforb idden
Ġz ero
method s
Ġsuperior ity
arbitr ary
Ġdivis ions
affect ed
Ġdam ages
Ġextreme ly
Ġdimin ish
ĠPossib ility
ĠGer man
accid ent
Ġinfall ibly
Ġfat al
Ġacquaint ance
Ġunsuccess ful
HILOS OP
7 1
O F
d ivided
e go
f an
f unction
i ant
l ines
p un
r or
r ies
t ow
w it
Ġ Ä
Ġ ently
Ġ --
Ġt aut
he ld
in tr
Ġo re
it ates
is s
is ition
en able
en cing
at alog
Ġc es
Ġc tion
Ġs edu
Ġs alt
Ġp p
Ġp t
Ġin sufficiency
Ġin hering
an qu
ou ch
Ġd as
Ġd well
ith me
Ġwe apons
Äł me
Äł str
Äł am
Äł rel
ĠI D
ĠI F
qu ality
per manence
Ġpro long
Ġun fortunately
Ġr ic
Ġse lect
Ġse curing
Ġdetermin ability
su asion
ad es
Ġst y
Ġsh adow
ĠA L
ĠA ct
Ġqu o
Ġqu it
for t
Ġle vel
int ention
Ġsub sume
ĠW olf
ilos ophical
ish ments
fect s
Ġexp ense
Ġlog icians
Ġreal ities
Ġ[ _
Ġorigin ates
Ġhere after
av ail
ĠU SE
und etermined
rel atively
Ġele vation
Ġseem ing
Ġleg ality
Ġmod eration
gr anted
Ġconting ently
part y
ĠSu bject
Ġpass ages
Ġprev ents
Ġdemonstr ating
Ġdistinction s
Ġtrans itory
happ y
Ġrequis ites
imp ressions
Ġdistinguish able
Ġdel ight
Ġhel ps
Ġcol lected
Ġdown lo
possess ion
ÄłC on
Ġgl adly
investig ations
Pr actical
Ġdet ach
Ġperform ed
Ġcontrib utions
Ġdecid ing
proceed s
Ġsuggest ed
Ġpersu aded
Ġextr avag
Ġpat tern
Ġillustr ate
Ġinf ring
Ġprejud icial
Ġli ability
Ġ19 9
err or
Ġresol ve
sem ble
ulg ence
sus pic
Ġreconci led
sophist ical
Ġfair ly
Ġstri kes
convin ced
ym ous
Ġenem y
2 0
4 0
? âĢĶ
H ume
R espect
S mall
b ene
b ered
f uture
g n
l ier
s ent
t ent
v arying
w are
Ã ¢Ä¢Ä
Ġ ight
in a
re w
re ceptivity
it im
Ġc ount
Ġs em
Ġth row
Ġto l
Ġre ply
Ġre vel
Ġre serve
Ġd oubted
de pendence
Äł or
Äł In
th ird
Ġor y
Ġor igination
Ġme l
per mitted
Ġde ceive
pp ing
ch ief
act s
hen sibility
Ġun certainty
of ten
ous and
Ġv ital
stand s
ome ter
present s
Ġy e
Ġdis interested
ict ions
te aches
am ples
pre cisely
mat ic
Ġgr oss
Ġgr oping
iz able
Ġdif fers
Ġfe et
ĠE le
Ġcategor ically
Ġpres cribing
ell ing
Ġreal izing
Ġsim ultaneous
Ġ1 00
reason s
cogn itive
ĠU ND
Ġi o
Ġres s
Ġmathemat ician
Ġleg ally
Ġdefin es
Ġinvestig ating
Ġbod ily
Ġassert s
Ġsoul s
comple ted
Ġconduct s
des ires
Ġcir cul
disc ursive
Ġpar allel
Ġadvantage ous
Äłc o
Ġcho oses
Ġear lier
Ġexact ness
Ġspeak s
Ġsupposition s
vol ition
Ġacqu isition
Ġ6 4
velop ed
Ġadopt ing
Ġom nis
demonstr ated
theoretical ly
Ġearth s
Ġcr y
Ġcr ime
mot ives
feel ings
Ġobserv able
post ulates
indic ates
Ġprofess ed
assert ion
proble ms
hypothe tical
Ġconfirm s
Ġreve als
comb ined
Ġapprehend ed
Ġchimer a
Ġchimer as
Ġfulfil ment
ÃĦÅĤÃĦÅĤÃĦÅĤÃĦÅĤ ÃĦÅĤÃĦÅĤÃĦÅĤÃĦÅĤ
Ġunceasing ly
Ġcommunic ated
obtain ed
Ġfoot ing
Ġcour age
Ġarchety p
Ġcommer cial
Ġappropr iate
Ġdeclar ation
Ġwa ver
formul a
Ġannex ed
concre to
magn itude
Ġprosper ity
Ġsty le
Y TIC
_ âĢĶ
c endent
c ertitude
d uties
e y
i ps
l timate
n est
r s
s ort
t aken
u c
u um
v oid
in sufficient
Ġo mitted
Ġc ertitude
Ġc atalog
Ġs al
al most
Ġb es
or row
Ġf ire
ed istrib
Ġit e
Ġit ies
Ġre lease
Ġd atum
ot es
Ġl ime
Ġl ives
ci um
Äł V
Äł er
Äł ac
Äł und
ver t
ver ted
og istic
Ġor t
Ġde ed
con flict
tr iangle
Ġr isk
pr of
pr imitive
Ġper sist
ori al
ment al
ord ination
Ġqu ick
ĠP HILOSOP
), âĢĿ
Ġar m
str ained
ag ogic
Ġsub division
Ġpre cise
Ġpre rogative
Ġspe cious
ĠIn stead
com ing
ÃĦÅĤ re
Ġam id
object ions
Ġreal m
Ġpossess ions
Ġimp ression
ĠU ltimate
Ġincl ined
princi p
there in
Ġcomp ares
Ġap agogic
ev idence
Ġconsist ing
Ġfin ality
Ġele g
Ġarr ives
law ful
ignif ic
Ġmod i
part icip
Ġassert ing
Ġattrib uting
Ġpost poned
Äłs ur
Ġprogress us
Ġfall ing
AN TITHESIS
Ġ5 2
Ġtrans fer
Ġtrans formed
Ġdesign ation
Ġaffirm ations
ĠAr gum
disc ern
Ġpret ension
Ġabs ent
Ġdecl aring
Ġsur v
Ġoff ender
ordin ary
ĠEx cept
ĠObject ive
Ġcarr ies
Ġrestrict ing
Ġrestrict ive
quant ities
Ġcoun tries
conf ess
Ġconver s
ĠAN D
Ġaccess ion
ounce ment
discover able
Ġhum bles
proceed ing
Ġincre asing
Ġdiscern ed
Ġantit hetic
Ġnecessit ation
Ġpromot ive
ĠMor als
ĠWh o
oblig ed
signif ic
Ġillustr ation
ĠEpic urean
require ments
word s
Ġpenetr ation
Ġdimin ished
analog y
ĠSto ic
reciproc al
Ar chive
noumen on
demand ed
Ġmid dle
ĠAb b
Ġdeclar ations
pract icable
Ġrash ly
Ġelabor ation
divis ibility
Ġomnipot ent
ORE M
Ġbran ches
Ġdesc ending
ĠRel ation
discus sion
Ġax is
ino z
TRIB UT
Mat hemat
phib oly
Ġsalt us
Ġquo ad
suspic ion
A uthor
F inally
I s
R emark
] .
a ments
e ch
n s
o es
p ut
Ġ ial
Ġ ice
in c
Ġp ages
Ġth rown
Ġm oments
Ġf iles
an aly
an uary
Ġis ed
Ġis ts
Ġre aches
st e
as p
Ġh it
im ony
Äł we
Ġpro ject
ch ie
ore d
us i
us ality
em in
Ġthere on
Ġhe aring
pr iv
ind u
Ġsh arp
ĠP ar
ĠP ER
pon der
Ġgr ate
Ġser ving
reat or
Ġcont est
Ġdes irable
Ġend ing
ĠE N
ĠE V
ĠE thics
Ġbelong ed
ÃĦÅĤ c
ha ving
Ġout set
Ġent s
Ġatt aching
ĠU T
Ġconsist ently
Ġattain able
ĠTH AT
Ġant iqu
Ġread ing
ĠPr ofessor
Ġmaterial ism
Ġmis lead
Ġaffect ions
Ġce pt
Ġfal s
moral s
Ġauthor s
Ġcompar atively
Ġsur vey
att ered
Ġexcl usion
Äłf r
esthe tic
Ġdeser t
Ġgain s
ĠCh ar
Ġreflect ing
Ġimpl anted
xiom s
Ġfit ting
Ġpopular ity
Ġbu ilt
Ġsupply ing
Ġcal m
co inci
exer c
Ġreve rence
Ġattr act
Ġquar rel
compar ison
Ġreview er
Ġcoinci de
Ġdeliber ate
Produ ced
ĠPsych ology
ĠUND ER
, âĢĶ
4 3
M or
N ITY
P lain
S y
V I
a uthoriz
d est
d anger
e w
f ixed
Ġ '
Ġt ing
Ġa ce
in ner
Ġo se
re conci
re ferred
at eness
Ġc rib
Ġs ine
Ġs mo
Ġin cap
Ġin justice
Ġth read
Ġm ing
Ġf er
Ġe con
le ment
Ġit ed
Ġre solution
Ġre search
Ġd rop
st reng
Ġbe ha
Äł res
ĠT erms
us ual
ab andon
pl ain
Ġsen sual
ad s
Ġper taining
Ġexperience d
ĠF UL
ĠP G
ĠP ers
ĠP ost
Ġapp eared
Ġad min
to o
Ġar tic
et ition
el ve
Ġspe ech
ĠC ritical
ĠR edistrib
Ġag reed
ÃĦÅĤ m
ÃĦÅĤ de
Ġthink able
Ġter n
Ġter min
ĠM od
ĠM any
Ġimp elled
Ġhere by
Ġshall ow
ĠL IC
ER AL
EN SE
Ġocc asions
sub stant
Ġdiscover s
Ġneed ful
Ġgu ided
ĠĠĠĠĠĠĠĠĠĠĠĠĠĠĠĠĠĠĠĠĠĠĠĠ ĠĠĠĠ
ĠSu ppose
ĠJ anuary
do ctr
mor ally
Ġassum ptions
ont ological
Ġins cr
pres ence
pres um
imp ul
ĠSt ate
Ġra ising
Ġcol lective
kind s
ru ption
Ġconver t
Ġreach ing
conform ably
Ġabsurd ity
ref ace
subsist ing
Ġang le
Ġrece ipt
Ġcommun ication
Ġextr a
trans g
Ġconfess ion
Ġvis it
Ġreject ed
assum ption
Ġrecomm ended
Ġformat s
Ġdisclaim er
cop yright
chang ed
UD ING
Ġdece itful
Ġinvalid ity
Ġprepar ation
ĠDIS TRIBUT
Ġvag ue
Ġparticip ation
reckon ed
ĠAGRE E
Ġvict ory
Ġemploye es
Em pirical
Ġsav ed
Ġridicul ous
ĠRoyal ty
vi our
ĠFUL L
ĠLIC ENSE
Ġinscr utable
2 9
3 9
7 5
A gain
F IRST
O B
U M
_ [
c it
h um
h usi
i ations
l icense
m em
p ite
p one
s s
t a
v able
y our
Ġ ution
Ġt emper
Ġa ught
on ical
in capable
in comprehensible
Ġof fered
is y
is ter
en ge
Ġw ings
Ġc old
Ġp on
Ġin contest
Ġb le
es is
Ġm ixture
an n
Ġre ception
Ġre cognition
Ġre straint
Ġd read
Ġh or
ll ogistic
Ġu al
im b
im pl
Ġan c
Ġl angu
Äł ir
ĠI S
ĠI X
ver sely
ist ory
Ġne t
ill iant
Ġun conscious
Ġlaw less
Ġr ises
Ġr ob
Ġr ising
not withstanding
ĠB OOK
ge br
pr ot
pr udence
ind ifferent
Ġst opp
ĠA S
our th
ĠP ART
Ġad vers
Ġar gu
Ġle ap
ĠS c
ĠTh ought
op yright
ĠO p
sol ved
pre ted
Ġcont ents
Ġgo ld
Ġfirst ly
Ġrem ed
ĠE R
ÃĦÅĤ p
Ġind ivid
Ġter rit
oun cing
ĠD ate
ĠD ogmat
Ġinv iol
und ity
ev ent
Ġi i
Ġple asing
Ġconcl udes
Ġmathemat ically
Ġ2 1
ĠĠĠĠĠĠĠĠĠĠĠĠĠĠĠĠĠĠĠĠĠĠĠĠ Ġ
Ġsc attered
part ly
spe aking
Ġco al
Ġcontin ual
Ġvar iance
Äłin ter
haps od
cor rupt
Ġintel lect
Ġ5 5
IN TRODUCTION
Äłre p
Ġbl amed
Ġcontinu es
ific ent
ific ial
Ġ9 5
my st
Ġtest imony
contain ing
think s
Ġmagn ificent
Ġconver sion
Ġlay ing
Ġrep ublic
Ġpriv ilege
Ġsubtle ty
Ġplan ets
Ġgl ance
On ly
Ġsucceed ing
Ġindu ction
ĠMetaphys ical
Ġtw elve
Ġsoci al
judg ed
Ġsubsist ence
defin ed
ĠOr igin
assum ed
Ġdict ates
Ġgrant ing
ĠAnt it
Ġanthrop ology
Ġsuscept ibility
Ġnumer ical
var ious
Ġembr aces
reciproc ally
Ġimperfect ion
Ġcalcul ated
Ġselfish ness
Ġtransl ation
Ġconven ience
Ġpubl ished
Ġlab orious
ĠST ART
accur ate
Ġindubit able
Ġmilit ary
Ġrestr ain
Ġsurpr ising
Ġinstrum ent
PEND IX
Ġaffair s
ĠChar les
Ġextra ordinary
( _
) (
2 8
8 7
A VE
E L
F oundation
H app
H AT
N AL
R POS
S S
a z
c arr
d ivers
d den
e thics
f il
f ill
f its
g y
h orizon
i os
l est
p arent
p dated
s cribe
t akes
t empt
u es
u ating
á ½
Ġ +
Ġ ib
Ġ ives
on ce
en n
at tle
Ġc ul
Ġc ard
Ġs ect
Ġs oft
Ġp ays
Ġp air
Ġp ortions
ic an
ic ited
Ġin no
Ġf ere
Ġf resh
an imal
se ar
Ġre verse
om an
ent itled
Ġu e
Ġl at
Ġl of
Ġl imb
Ġsu dden
Ġg er
Äł ca
Äł app
Ġint end
ple ases
Ġun lawful
ĠĠĠĠĠĠĠĠ ĠĠĠĠĠĠ
um bling
of f
Ġv ing
Ġem pire
ĠB el
ĠB UT
Ġno body
ad apt
ant om
un ited
Ġapp et
Ġad here
ĠTh ose
Ġpart e
te aching
et c
ĠĠĠĠĠĠĠĠĠĠĠĠĠĠĠĠ ĠĠĠĠĠĠĠĠĠĠĠĠĠĠĠĠĠĠĠĠĠĠĠ
ag ement
Ġsub mitted
ĠC H
Ġpl ane
Ġpl ausible
Ġgr asp
ĠIn ternal
ĠH AVE
Ġact ed
ÃĦÅĤ d
over ty
ang les
rib le
Ġappl icability
ok en
Ġ1 1
there to
Ġproof read
Ġi x
pe ace
Ġtruth s
EN ERAL
ene alog
sub ordinated
Ġes se
Ġconf ound
Ġconf ounded
Ġeas ier
Ġpass age
Ġco herence
Ġbr ain
Ġbr illiant
Ġce ases
Ġregul ate
Ġund en
Ġcomb ines
happ en
ĠV anilla
ĠUn less
just ify
Ġorgan ic
Ġprof its
row d
TH ING
Ġinter mediate
Ġfl at
Ġmagn anim
Ġindis pensably
Ġhypothetical ly
Ġwrit ers
ele v
character istic
character istics
crit ic
Ġmaj esty
contin ue
ug ust
manif est
Ġfit ted
Ġstrong er
after wards
Ġmeasure d
Ġenter ing
Ġnecessit ate
Ġreturn s
Ġcontempl ated
Ġord ains
ĠIN TRODUCTION
co existence
Ġsubsist ing
Ġinj ury
Ġschemat ism
Ġsym bol
Ġhonest y
Ġperiod ic
Ġsecret ly
Ġdict ate
bet ter
clear ness
ITI VE
abs ence
Ġhyper text
Ġdisclaim ers
Ġthreat en
Ġambig uous
Ġcred ential
Ġpropr ietary
Ġparalogism s
ĠMathemat ical
Ne cessity
Ġcalcul ate
CL UDING
Ġenumer ation
Ġroyal ty
Ġroyal ties
Ġomnipot ence
Ġharm less
seem s
inev itable
Al though
hel p
Ġsynon ymous
Ġlo ose
duc ive
slet ter
Ġappell ation
analy se
ĠEV EN
Ġbeha viour
gebr a
4 8
5 5
7 0
A m
A fter
O W
V ATIONS
a part
b ly
b ook
b usiness
g ust
g ue
h o
h igh
i ated
i ological
l ication
s mell
t aste
v o
w on
Î ½
he it
he tical
er c
Ġw is
Ġw ild
Ġc ess
Ġin correct
Ġb ow
Ġb all
Ġb aseless
or ous
an while
ed ient
Ġn ames
ou th
Ġd ouble
st ates
Ġh ollow
Ġu st
Ġl augh
de f
de pr
ur ch
ur istic
Ġsu itably
cept ive
Äł k
Äł ant
Äł ne
Äł contr
ul ated
Ġde cre
ĠT e
Ġal tered
hen tic
Ġun inter
Ġun answ
Ġr aces
Ġsp are
est ors
not e
Ġhe uristic
su ggest
pr os
pos ited
Ġab und
cul ture
ĠF UND
ex act
ca ution
un gl
Ġdis s
Ġdis posed
ĠTh rough
el s
ĠC ertain
ĠC osm
Ġpl ans
possib ly
imit ation
Ġnothing ness
Ġen abl
ser vice
Ġinde monstrable
pro ving
ĠD ifference
Ġmat ured
Ġcontradict orily
reg ular
In ternational
pe ople
bl ance
rel ates
sub str
Ġmot ions
ĠCon s
Ġneed less
Ġarr ogant
cont empt
ĠTH IRD
Ġgu ides
Ġover come
spe cul
Ġmis conceptions
Ġprov ision
comple tion
fa il
Ġdraw s
where by
pres cribes
Ġrefer ring
Ġsur r
Ġbl ood
bel ieve
comm unity
Ġtest s
nex us
au g
conform able
Ġhappen ing
Ġadm ire
content ment
Ġannihil ates
Ġfan ci
Ġopen ed
Ġmo ck
ĠPU RPOS
OS SI
pass ing
Ġren unciation
proof s
Ġmon th
ĠDo es
Ġbold ly
scept icism
common est
ĠWh atever
Ġelev ating
Ġhonest ly
Ġdoctr inal
Ġpo ison
pleasant ness
Ġperiod s
Ġanticip ation
anthrop ology
AM ENTAL
maintain ed
Ġz eal
Ġapproxim ation
Ġcle arer
Ġli kes
command ed
Ġresol ved
Ġunb roken
Ġpra ised
Ġinstit uted
small est
Ġcommer ce
Ġdr iven
intu ite
Ġobstin ate
Ġcompens ate
syllogism s
ĠANAL YTIC
Ġfri ends
ĠTrans ition
Ġdark ness
Ġanx iety
CEP TION
heter onomy
Ġaston ishment
Ġexagger ated
Ġflu id
spr ing
Ġprag matical
ĠQuant ity
TIN OM
OB S
Ġanc estors
Happ iness
ĠFUND AMENTAL
Ġenabl ing
' t
. {
3 4
7 9
B esides
E pic
I TH
M e
T ime
c al
c ord
c artes
h oly
i atus
l osing
m al
m ise
m utable
o qu
u ated
Ġ ict
Ġt empt
Ġa k
in ferences
in consistent
it ute
is se
er ably
Ġw atch
Ġw oe
al ed
Ġin stant
Ġb an
Ġre mind
ent ions
ar um
ut onomy
as us
ll ing
ter ior
ter ms
Ġwith drawn
Äł K
Äł le
Äł cons
Äł ob
Äł Re
Ġde fault
Ġal gebra
ple teness
act ers
Ġha bits
me ant
ill usions
Ġun observed
Ġun fair
Ġun mixed
Ġun varying
um mum
Ġcom pos
Ġcom ponent
Ġlaw giver
Ġr ich
Ġunder min
Ġst one
Ġst ability
ĠA ugust
Ġqu id
un ion
ĠP reface
for ces
Ġdis par
Ġdis regard
Ġdis sect
ĠS h
ĠS er
ĠS ch
Ġpart iality
ener ation
Ġch all
sp read
op s
pre cede
ppos ites
ĠG osp
Ġdif fered
The y
ĠR espect
Ġconcept us
ĠE D
stit ution
ear ance
Ġind ul
Ġeffect ive
Ġam phiboly
Ġgreat ness
ĠD O
ĠD r
ĠD uty
uten ess
Ġchar acters
Ġref utation
Ġinterest ed
Ġintellig ibilis
und e
Ġres ist
dis posed
ER VATIONS
contr adistinction
In telligence
Ġgu ess
ĠĠĠĠĠĠĠĠĠĠĠĠĠĠĠĠĠĠĠĠĠĠĠĠ ĠĠĠĠĠĠ
AL ITY
subject ed
Ġneg ativum
Ġassert or
Ġassert orical
Ġmis led
ĠTHE OREM
TER NAL
Ġdeduction s
ave l
Äłin v
every one
Ġins ignific
ĠAn y
inde finitum
oc al
Äłre f
Ġbl iss
Ġcontinu um
Ġtranscendent ally
Ġoccup ying
Ġante cede
univers ally
Ġappro ve
Ġul t
arch itect
Ġ9 9
Ġcarr ying
Ġrestrict s
Ġprop Ã¦deutic
Ġ7 5
ins ically
employ ing
Ġcomprehend ing
ĠAN TINOM
Ġrep ay
enetr able
demonstr ative
particular ly
Ġexc used
contin uous
Ġremo ves
Su pposing
Ġassign s
Ġindu ced
Ġborrow ing
Con cl
IL L
Ġdiscern ment
Ġproportion ed
prov ince
Ġsuggest ion
ĠEm pty
Ġsign al
Ġaggreg ation
Ġpleasant ness
Ġhead s
Ġid le
Ġwon dered
influence d
Ġadmir able
Tr ans
ĠCom pleteness
Ġabandon s
col lection
dedu ce
ĠCON FL
ĠInt erest
Ġpathological ly
restrict ion
restrict ed
Ġchimer ical
ĠPhys ico
Ġarchitect onical
Ġguarante ed
anticip ation
Ġinstit ute
Ġcour t
ĠProble ms
ulg ar
circ le
Ġwarning s
ĠGr ound
ocr isy
ĠGer many
ĠApp lication
ĠApp earance
Ġobstin ately
Ġhypostat izing
Ġinfall ible
Ġhes itate
Ġcombat ants
Ġost ensive
Ġvac ant
Ġlur ks
Ġconjoin ing
Ġcitiz en
Ġcitiz ens
decl aring
disp ute
specif ication
annihil ated
Ġimped iments
accompan ied
Not hing
Ġste pping
ĠConcl usions
effort s
spont aneity
ĠIntrodu ctory
assign ed
Ġbon i
Ġrefin ed
Ġrare ly
Ġdenomin ate
ignor ance
ĠMon ad
Princi ple
erke ley
ĠIll usory
Ġfigur ative
fal se
Ġbar bar
ban ks
Ġcomplain ts
atir ae
tow ards
intr insic
ĠID EAS
Ġextravag ant
Ġsem blance
Ġcircul ar
Ġomnis cient
Ġcatalog ue
Ġeleg ance
Ġsurv ive
Ġterrit ory
ĠDogmat ism
ios ity
ĠBel ief
Ġmagnanim ous
OBS ERVATIONS
Ġcompos itum
ĠANTINOM Y
ĠCONFL ICT
2 1
2 4
2 5
3 0
3 3
3 7
6 22
A BLE
C f
D ED
M ENT
c ivil
e as
e per
p ort
r i
w r
Ã ¤
Ġ #
Ġ ire
Ġ ie
Ġ ize
in st
Ġo logical
Ġs mell
Ġin a
Ġin habit
Ġb ro
Ġth ousand
Ġm it
Ġf ing
Ġe po
se ver
st ition
as ur
Ġpr ince
Ġl ack
Äł y
ve ll
con ject
Ġha st
pl end
ig en
ies t
Ġcom mitted
Ġsp oken
Ġse a
ĠB erkeley
Ġtr aining
pr im
ĠF a
ĠF RO
ĠA d
ĠA esthetic
Ġcogn isable
te en
ag ing
Ġgener ations
ĠC reator
Ġen v
pro pr
icul ation
less ed
Ġcor rupt
Ġac uteness
Ġstr ive
Ġi an
stru ctive
Ġdiscover ies
Ġleg itim
Ġobser ver
Ġmain tenance
Ġmis erable
Ġ3 8
Ġart ificial
Ġadd ress
fe at
ilar ly
sh ip
Ġask s
ail ed
Ġge ometer
intellig ent
Ġ9 2
Ġinter pretation
Ġinter vention
comm er
Ġ6 5
IC AL
Ġsure ly
mort al
crit er
exp ressed
ÄłA r
Ġsubstr ate
fall s
Ġdest ined
Ġpreser ved
Ġpreser vation
Su b
Ġshort est
LI M
concern ing
ĠEvery thing
see k
chn ic
doubt ful
Ġsovereign ty
Ġhonour able
clear ly
grad ually
Ġdam age
Ġindefinite ly
Ġsubstit ute
Ġdetr iment
Ġfri end
Ġdefici ent
Ġinsp ire
Ġescap ed
Ġspecul ations
Ġjur is
overn ment
writ ten
Ġvolunt ary
ĠPar alogism
Ġinsignific ant
Ġepo ch
ĠFRO M
3 5
4 7
5 7
8 1
A IN
A IM
F urther
e ase
f am
h ist
h old
l ated
o ke
o pposed
r al
r ied
r aid
w art
w arrant
Â ½
Ã ¼
Ġ $
Ġ ized
Ġt s
Ġa ux
on om
Ġo me
re fer
it atis
Ġw ander
Ġc k
Ġp al
Ġp ict
al ter
ic us
Ġf if
Ġf ant
Ġn om
ly ing
Ġis hed
Ġis tic
Ġre ct
Ġre cent
Ġd ie
Ġcon qu
Ġbe ast
ar i
ot ius
Ġh int
Ġas cribing
the ory
im age
Ġon g
Ġfor get
de mn
Ġsu spect
Äł cl
Äł over
Äł ext
Äł conf
Äł appro
Ġor dered
ch imer
us hed
Ġint entions
end ix
pl an
ill ustr
Ġun just
Ġr it
Ġr ap
Ġno vel
Ġim practicable
Ġif ication
ĠF OU
wh y
ca de
Ġcons cience
ĠP OSSI
red u
Ġle ct
Ġwho ever
ens ed
Ġsub ordination
ĠG e
Ġgr own
ĠW est
ĠW ITH
ĠIn finite
Ġen cy
Ġdes cription
we ight
pro hib
ĠE Book
ear ly
med i
Ġout line
Ġent husi
ĠM ay
Ġorigin ator
Ġimp enetrability
Ġchar ges
Ġref rain
Ġwhere fore
Ġres ides
ER N
ER CH
Ġsupp lement
Ġsum mon
represent ing
rel igion
ĠBe yond
Ġ2 3
Ġsol ving
Ġcop ied
Ġneg ations
Ġinqu ires
Ġappre ciation
ext ended
Ġ5 68
Ġ4 2
Ġdistinct ly
ĠV er
Ġsur render
Ġcontinu ance
Ġcre ate
consider able
Äłde l
Ġmet al
ĠSo ci
Ġbor ne
exp resses
Ġpract icability
Ġgl ory
Ġgl ass
Ġver s
Ġcap ability
air banks
Äłpr op
Ġproportion ate
Ġprofess ion
bod ies
proble m
appro bation
Ġtax es
Ġtre asure
equ al
Ġlist en
signif ies
PL EAS
Ġchapt ers
Ġhop eless
Ex perience
ĠHim self
Ġcolour s
Ġtyp es
prom inently
var iety
purpos ive
Ġgif t
Ġoffer ing
ĠWARRAN TIES
Ġchief ly
sym bol
sing le
Ġconven ient
Ġaccompany ing
SEC OND
Ġbran ch
Ġsil ence
ĠDes cartes
Ġach ieve
estim ation
prob ability
arrang ement
sight ed
Ġperplex ity
urb ed
thorough ly
Ġspo il
ĠSub stance
Ġexhaust ed
controver t
Ġconvers ation
Am ong
622 15
Ġinhabit ants
Ġlegitim acy
. :
2 6
2 7
3 2
3 6
3 8
4 6
5 4
5 68
9 6
A b
E Book
L anguage
T itle
_ :
c her
f ast
h r
l ab
n ate
o h
s ipp
u min
z ip
Ġ QU
Ġt ical
Ġt ree
Ġa de
in y
in struct
Ġthe r
it udes
is ions
Ġw ider
Ġw ont
Ġw arrant
Ġs it
Ġp red
Ġin accurate
Ġm ag
ce an
an cendent
Ġis ing
Ġcon d
om at
as certain
Ġu res
Äł ver
Äł us
Äł cor
Ġde eper
sib ilities
ĠT RAN
con fin
con ven
il ia
em barrass
em bered
ol ly
ĠĠĠĠĠĠĠĠ ĠĠĠĠ
Ġthere upon
Ġsp rung
ide alism
od es
Ġhe arer
Ġk new
Ġst aff
Ġst ream
Ġreg ions
present ing
ca st
Ġdis gust
ĠS ect
ĠS TR
et ic
Ġmoral ists
Ġsub mission
am ount
ĠC opyright
ĠG re
ĠW ar
sis sipp
Ġwhen ever
Ġen lightened
Ġpos iting
Ġinde mn
ÃĦÅĤ b
Ġind ustr
Ġatt aches
sen sual
reason ing
ult imate
ĠU nder
Ġcor ruption
Ġac knowled
ĠL at
Ġconc ur
Ġrest ed
Ġmight y
Ġconce ives
In trodu
EN TI
TI VE
sub tle
Ġaim ed
Ġmod ified
gr ant
Ġing s
Ġsuper stition
Ġpost erity
Ġprov isions
ob vious
Ġpeculiar ities
Äłs c
ia e
some times
inde finite
Ġpret ence
Ġabs or
Ġear nest
ium ph
Ġmechan ically
Ġrecogn ises
Ġdynam ically
ask a
Ġdon ation
Ġagree able
iber um
Ġinter course
Ġinter preted
place d
Ġsepar ately
Ġprop ounded
Re lease
ĠRE AD
Ġposition s
Ġ7 0
distingu ishing
Ġgain ing
Ġwhol es
Ġaut hentic
Ġwise ly
den ial
Ġredu cing
expl ained
Ġheter ogeneity
Ġstud ent
Ġstud ies
Ġdet ect
contin ually
Ġhum ble
Ġweight y
Ġmeasure ment
legisl ating
prov iding
set tle
LI ED
Ġextr act
TR IN
TR AC
oper n
concern s
ĠNe g
ĠNe cessity
appro ach
judg ments
addition al
IV E
Ġabandon ed
Ġhop ed
Ġprejud ices
sch ol
SE QU
concl usion
ET UAL
Ġuniform ity
bound s
enlarg ed
Ġsubstit uted
Ġaf raid
Ġconceal ed
Ġerect ed
CL AIM
ĠEX PRE
mist ake
Ġenumer ate
Ġcompens ation
Ġru in
Ġdeliber ation
want ing
invol ves
inev itably
peculiar ity
Ġell ipse
geometr y
ĠSecond ly
hens ions
Ġcompr ises
Ġperce ives
Ġunde veloped
anthropomorph ism
Ġlow est
Ġjud icial
ĠEle ments
signific ance
Mathemat ics
Ġecon om
Ġincontest ably
Ġinno cent
ĠTe chnic
criter ion
Ġrap id
ERCH ANT
! )
. ),
2 3
3 1
4 5
6 2
6 9
C om
D ENTAL
E F
F ourth
G ENCE
I RECT
L icense
L iterary
M ost
M oreover
N ESS
N ITIVE
R ight
S to
U RE
V ol
W olf
a ud
a ft
b u
c ert
d ignity
e g
f ull
h ort
j oin
k al
l oc
m d
p enetr
r iption
s ure
t xt
t ouch
u ation
u ously
v ain
w ishes
Ġ Î
Ġ ile
Ġt ic
Ġt ant
Ġa e
Ġa ver
in struction
Ġthe olog
re r
it iv
it eness
en umer
Ġc urs
Ġs is
Ġs ag
Ġs ending
Ġs word
Ġs orrow
ic ed
ic ule
Ġin compre
Ġb it
Ġb inary
es tr
Ġf aint
ed itions
Ġe re
Ġcon ced
ent h
Ġwh it
as c
Ġh ar
Ġas h
iv ocal
Ġl d
Ġl ament
ur ance
Ġsu ited
ir us
Äł to
Äł fl
ĠI MP
th y
th reat
if ling
Ġde p
Ġde ist
ve rest
Ġpro cure
con stant
Ġobject ed
il ty
id ently
pl ays
Ġun l
Ġcom fort
tr ace
Ġlaw ful
est ed
Ġv ulgar
Ġv irus
Ġse ar
ĠB etween
Ġtr iumph
ud o
all owed
Ġper petually
Ġst ay
Ġst ory
Ġst umbling
Ġsh aring
ĠF IT
Ġsy llogistic
wh om
Ġy ear
Ġdis k
ĠS pecial
op olit
ĠN EG
int uit
ĠC l
ĠC ar
ĠG IVE
ĠW hence
ĠW HAT
reat ing
Ġcaus a
rit icism
ser ved
Ġfound s
Ġconnect ions
ĠE IN
Ġsystem at
ÃĦÅĤ P
ÃĦÅĤ h
ÃĦÅĤ con
Ġhapp ily
Ġind ulgence
Ġout lines
Ġent ium
ĠRe place
ĠRe presentation
ĠRe fund
rib e
ĠM A
ĠM ERCHANT
Ġimp ot
Ġinv ention
Th ou
Th irdly
Ġcor rection
Ġass uring
Ġcomp etition
Ġap per
Ġadv ice
Ġright eous
In formation
Ġup wards
represent s
TI CE
Ġel imin
ĠOn t
Ġworth lessness
Ġresult ed
Ġnew sletter
subject s
Ġanswer ing
Ġut ed
Ġexcept ed
Ġdemonstr ates
Ġpost pone
synthe tic
Ġexpect s
ĠK IND
Ġcosm ology
ob edience
Ġaffect ing
fa cil
Ġident ify
Ġoblig es
Ġaid s
Ġregul ating
cre ated
Ġunderstand s
no isse
Ġtrans fers
Ġdesign ated
Ġanalog on
Ġvol ume
leg al
Ġlie u
Ġpret ext
Ġoper ate
Äłre al
limit ations
Ġintu ites
Ġsur veyed
Ġear lies
Ġfurn ishing
Ġappro val
Ġdon ors
Ġche mical
Ġinter fere
Ġfav oured
Ġdisp uting
conf usion
conf irmed
origin ally
Ġrep utation
Ġtransc ending
Ġtransc ription
Ġtransc ribe
ED IES
Ġfail ing
Ġturn s
Ġvent ured
Äła ff
ref lective
Ġprocess ing
super ior
Ġremo val
Ġhum ility
cern ib
EM NITY
Ġcontrib uting
Ġdev ote
look ed
oubted ly
post ed
Ġstrong ly
ĠĠĠĠĠĠĠĠĠĠĠĠĠĠĠĠĠĠĠĠĠĠĠĠĠĠĠĠĠĠĠĠ ĠĠĠ
ST ART
Ġ15 00
conting ency
ĠPU NITIVE
Ġstart ed
LI GENCE
ĠIN CLUDING
Ġblind ly
oper ations
Ġattack ing
Ġcent re
ĠNO TICE
equ ality
find s
import ance
Ġloc ations
ĠCON TRAC
ĠCON SEQU
ĠREM EDIES
Ġcle arest
concl usions
ĠPhys ics
Ide a
accom pl
Ġconject ures
sour ces
commun icated
Ġdam aged
ĠANY THING
Ġdesp ise
Ġamount s
Ġinc ite
demand s
endeav our
endeav oured
ĠPart icular
Ġcomput ers
De fects
furn ish
furn ishes
Ġtouch ing
ĠNor th
divis ions
Ġlic ensed
Ġpaper work
invol ved
Ġdissimilar ity
ĠDes pite
ĠDIS CLAIM
product s
Ġ178 7
Ġves sel
geometr ical
Ġawaken ing
Ġindubit ably
Ġrecommend ation
incre asing
remo ved
ĠIND IRECT
ĠMis sissipp
Ġdisgu ise
ĠSU CH
ĠOther wise
ĠÃ¢Ä¢Ä ¶
observ ations
enjoy ment
requis ite
Ġrom ance
Ġtheore m
Ġdespot ism
Sp ace
Ġrig orous
Ġmus ic
Ġdisapp oint
ithme tic
Ġdownlo ading
Ġinfring ement
Ġbes ide
Ġgrate fully
VI DED
ĠMod ality
Ġremed y
Ġrepublic an
Ġlof ty
ĠPURPOS E
ĠSer vice
Ġfing ers
LIM ITED
ĠSTR ICT
Ġindemn ify
ENTI AL
ĠEXPRE SS
ĠIMP LIED
ĠFIT NESS
ĠNEG LIGENCE
ĠReplace ment
ĠMERCHANT ABILITY
Ġearlies t
ĠCONTRAC T
ĠCONSEQU ENTIAL
ĠDISCLAIM ER
ĠMississipp i
4 4
7 7
C ont
C TRIN
E ACE
P ETUAL
W ARRAN
a ired
c ustom
f irm
m other
m acy
o ber
p ared
p olit
r os
s ound
t aking
v ity
z er
Ã ı
Ġ ily
Ġ vel
Ġ ively
Ġt ain
in ing
in fer
in formation
Ġo ve
at ur
at ae
Ġw ard
Ġc and
Ġp ir
Ġp overty
al ong
Ġb are
Ġth ir
Ġth wart
Ġm illion
Ġf reed
Ġf und
Ġf ier
ed e
Ġn ing
Ġn aught
Ġe red
le ave
Ġre e
Ġre ign
Ġre form
Ġre semble
om ni
ot yp
ut or
ut ious
Ġh id
im id
im ilarly
de cided
ur ning
Ġsu its
Äł ur
Äł cogn
Äł Th
Äł under
Äł br
Äł acc
Äł trans
ĠI R
res istance
ist urbed
and om
ul a
Ġde ar
Ġde posit
ch oice
Ġne arest
id ge
end i
Ġun question
Ġun connected
Ġun important
Ġun satisfactory
ig hed
ĠĠĠĠĠĠĠĠ ĠĠ
dition s
tr ack
Ġsp ent
Ġsp her
ide ality
Ġpossib ilities
Ġv icious
Ġtr ades
Ġtr ifling
Ġwill ed
Ġim posing
Ġus age
Ġst at
ph il
ph old
Ġsh ap
Ġsh alt
un attainable
ĠP EACE
red istrib
Ġar gue
ĠS outh
ĠTh ough
Ġsome where
Ġaccord ant
int ended
Ġsub re
sol ve
Ġthan k
ĠC opern
Ġpl ays
Ġen joined
Ġdes cent
ĠH ypothe
Ġow ed
we apons
ac ent
Ġrem ember
ĠE v
Ġground ing
ÃĦÅĤ t
Ġter rible
ĠD om
ĠRe ality
Ġbas ing
ful fil
Th ose
ĠU pon
Ġexpl ore
Ġpower less
necess itate
Ġass urance
Ġcomp any
Ġcomp ounded
Ġi ii
Ġple a
dis cipline
Ġsince re
In stead
Ġconcl usive
bl ind
nat urally
nat ura
rel ated
Ġel oqu
sub sum
ĠBe fore
Ġsuccess fully
Ġobser ves
Ġgu ilty
arr ive
Ġideal istic
Ġequ als
Ġsuper added
Ġpass ions
Ġnon sense
Ġprov ides
Ġassum es
Ġden ote
Ġart ist
Ġbr ief
Ġprogress ing
Ġce aseless
Äłin s
Ġwar ns
connect s
Ġ4 1
Ġcorrect ive
Ġexhib ition
Ġorgan ism
ordin ate
comp are
Ġabstract ing
Ġagree ableness
Ġarrang ing
val ue
Ġsimilar ly
Ġcircum ference
Ġcol lect
consider ing
quant itas
worth iness
Ġaccept s
OR K
Ġsecure s
ÄłP r
inv ent
great ness
demonstr ate
Ġback wards
Ġvent ures
uit ous
Ġexc ited
super fluous
Ġindu ces
ĠDe ce
Ġoccur rence
post ulate
Ġpun ished
Ġpun ishments
ĠPRO BL
attempt ed
indic ating
consequ entia
jun ct
Ġextr icate
inter mediate
Ġcur ved
Ġconfess ed
ĠWh y
Ġelev ates
mo ving
Ġpo or
mod es
attrib utes
attrib uted
Ġcivil isation
direct ed
direct ly
Ġroot s
col our
Ġreject ing
Ġhop ing
Ġcultiv ate
assum ing
sch ool
Ġpresum pt
Ġisol ate
Ġevid ences
occup y
Ide alism
SI TION
11 6
ĠEurope an
result ing
Ġthreat ening
Ġsubmit s
anticip ate
Ar t
lo ving
Ġconsequent ia
endeav ours
Ġinstruct ed
Ġregular ity
Ġflatter ing
Ġmid st
Ġtouch stone
Ġstri king
Ġstead ily
excl uding
dogmat ism
exhib ited
Ġparticip ating
Ġfam iliar
Ġawaken ed
ibr ium
introdu ced
previous ly
yllogism s
Ġperce iving
guard ed
Ġastr onom
rept itious
Ġdisgu ised
Ġanthropomorph ic
uss ia
Ġsimpl est
Ġcens ure
ili ary
Ġreluct ant
Ġhost ile
Ġbenefic ent
Ġtaut ology
Ġric hes
Ġrevel ation
ĠPHILOSOP HY
ĠArgum ents
Ġantiqu ity
mem bers
ĠOp inion
Ġinviol able
Ġcoal ition
Ġger m
Ġunden iable
def ence
Ġuninter rupted
Ġunansw erable
Ġina dequacy
ĠFa cul
Ġaux iliary
Ġtant amount
ĠPROBL EM
" .
* ]
5 2
5 3
5 6
6 4
6 7
7 2
C ON
D ialectic
L A
L L
O r
P le
R ational
S peculative
V er
V ery
a str
a cies
b ed
c ending
f illed
j o
m as
m ill
m oun
m unity
m ists
n ight
r ances
s akes
t w
v ous
w isdom
z e
Ġ ication
Ġa ys
in j
in ference
in eness
Ġo pposing
Ġo pposites
re ndered
re verse
re cognized
re productive
en ius
at en
Ġc ush
Ġs es
Ġs ink
Ġp resses
al tern
ic le
Ġin secure
Ġin controvert
Ġb attle
Ġto u
Ġto ld
ce ase
Ġf utility
ed ifice
Ġn t
Ġn ought
Ġe cl
Ġe lect
se c
Ġis es
Ġit ude
Ġre t
Ġre cord
st atus
st hetical
ut um
Ġh ur
Ġh iatus
Ġas pir
the w
the ologia
Ġan ces
Ġl iqu
Ġfor t
de m
de cess
ib et
Ġsu ppos
Ġg enealog
Äł ter
Äł all
Äł ev
Äł fe
Äł disc
qu id
ive red
Ġor ator
ul ty
Ġde ceptive
Ġde feat
sib ly
Ġreason ers
us io
Ġal s
Ġal le
Ġal kal
ab ilis
me asur
ill usory
aw are
Ġun anim
âĢĶ (
tr icable
Ġr ing
Ġsp heres
Ġso ar
Ġv it
Ġv ocation
Ġem ent
Ġem bell
Ġem piric
ĠB onum
ĠThe oretical
Ġtr avel
su pposes
su blime
Ġab ut
Ġab sol
Ġab ode
Ġwill ingly
Ġim material
Ġim mutable
Ġim medi
ph aenomenon
out side
ĠF e
ĠA xioms
ĠA utonomy
Ġcogn izes
Ġev ol
now here
Ġacc us
ĠP O
ĠP a
for ward
Ġy s
Ġad just
ĠFor m
Ġdis pleasure
ie ties
Ġar ch
Ġar my
ĠS oul
ĠS ummum
ĠS atirae
Ġpart ially
et ext
Ġsome one
op inions
ĠO THER
Ġfa ulty
Ġph antom
int ensive
Ġsub species
am ing
Ġgener ality
ĠC O
Ġgr avity
mon ition
ĠIn asmuch
ort un
Ġen ig
Ġen gr
Ġen ounced
Ġen close
ĠH ad
ĠR oman
ove mber
ac cept
pro jected
Ġrespect ive
Ġag ents
Ġdisc ret
Ġext inct
Ġind estr
ang led
Ġeffect ing
Ġter t
Ġent ers
Ġent rust
Ġreal isation
ĠM otion
hemat ism
Ġfact a
Ġfact o
Ġ[ *]
Ġimp utation
Ġref uses
Ġcomm end
Ġintellig ibility
Ġass ures
experience d
Ġcharacter ized
Ġcharacter izes
Ġi us
Ġill umin
lear ned
ĠCon cept
Ġobser vers
Ġdefin ing
Ġmod us
Ġmod esty
Ġcop ula
Ġsc he
Ġanaly st
ĠJ uly
Ġmethod ology
Ġremark ably
spe ak
Ġdog mas
AP PENDIX
Ġrelations hip
Ġco erc
Ġvar iable
Ġmem ory
ĠK ey
Ġden otes
fa ith
fa iled
ĠY es
des cending
Ġlegisl ator
Ġharmon izes
dif ferences
Ġund isturbed
sim ony
Ġyour selves
Ġaffirm s
ĠAr chitect
_. ]
ĠAn alog
iver ance
Ġdistinct ive
Ġintr insically
Ġlead en
ĠUn iverse
just ification
Ġsur reptitious
Ġorgan isation
imp ression
Ġsupport s
Ġsupport ing
intellig ibility
ĠEx t
ĠIm per
phys iology
Ġra ises
comm end
Ġtest ed
Ġsignific ations
Ġdisp utation
satisf y
Ġaccept ation
Ġoccasion ally
Äłm od
ĠCh ange
origin ates
ĠAN TITHESIS
conform ability
Ġmark et
ante cede
Ġ8 4
real itas
Ġpriv ativum
conce aled
exp ressions
ÄłA n
Ġpract icable
Ġgl orious
discover ing
Ġreciproc ity
Ġcr own
Ġsophist ries
fall acies
Ġmist rust
Ġdest itute
accord ant
Ġqual ification
ĠDe fect
ĠDe pendence
neg ation
Ġstrong est
Ġantecedent ia
Ġstru ck
king dom
Äłe qu
Ġintention ally
Ġdiscern ing
human ity
Ġ200 0
Ġ200 4
Ġnecessit ates
Ġprofess es
pass ages
Ġcontempl ates
por ated
Ġprot otyp
Ġmon archy
Ġguard s
Ġguard ing
Ġgenu ineness
inter pretation
step s
fortun ate
conci lable
Ġcur iosity
ĠÃ¦ sthetical
Ġillustr ating
Ġviol ates
Ġinf lex
Ġprim acy
vers ed
ĠMat thew
ÄłÄłÄłÄłÄłÄłÄłÄłÄłÄłÄłÄłÄłÄłÄłÄł ÄłÄłÄłÄłÄłÄłÄłÄłÄłÄłÄłÄłÄłÄłÄłÄł
Ġanticip ations
ĠPer haps
dedu ctible
transcendent ally
ĠCON CEPTION
.. ..
imper atives
Ġsubstant ia
ra ise
ra ising
restrict ing
Ġhyp ocrisy
Ġli king
ĠPhys ical
ĠPhenomen al
Ġcounter po
Ġtell s
arbitr arily
arbitr ium
Ġann ouncement
progress ion
Ġcommence d
SI ON
organ ised
Ġpremis s
ucid ation
uct ible
affirm ative
ĠEBOOK S
agree ableness
search able
Ġdim ension
Ġentertain ed
bound aries
enlarg ement
Ġdetail s
Ne w
Ġrepe at
continu ation
Ġerect ing
Ġsensib ilis
intu ited
accid ental
conduct ed
Ġwitness es
del s
Ġappropr iated
problematical ly
ĠIntuition s
Ġmund o
Ġhumil iating
qual ities
deser ving
pract ised
ĠSome times
Ġphilosoph ize
Ġirre concilable
Ġstead fast
formul ae
Ġted ious
Ġdetr imental
class ification
Ġcoinci des
Gr anted
dev iate
Ġvac uum
Ġdesc end
ĠANAL OGY
Ġlur king
defect ive
ibr ary
ĠRemark s
Ġcast s
acqu ire
Ġinex tricable
annihil ation
Ġstrengthen s
cosm ical
Ġembrace d
Ġescap ing
support ed
Ġmer its
transc end
proportion ed
PRO JECT
eBook s
merit orious
rept io
Ġfacil itate
Ġcounsel s
ĠCogn ition
Ġip so
confirm s
IG HT
yield ing
Ġincor porated
Ġpet ty
ĠSen suous
Ġtrou bling
Ġsan ction
profess ing
accident ally
ips es
Ġamid st
princip ium
Sy nthetical
dest ination
danger ous
ĠPers on
Again st
Ġtemper ament
Ġstopp ed
ĠAntit hetic
sear ches
ĠCH APTER
smell ing
substr atum
ĠCons ciousness
Ġfanci ed
ĠGosp el
Ġindul ge
ĠDO CTRIN
Ġassertor ically
ĠMonad ists
vell ous
commer cium
omat on
ĠTRAN SITION
Fourth ly
md ash
Ġcurs ory
Ġsear ched
opolit an
intuit us
Ġsystemat ically
WARRAN TIES
ĠDece mber
Ġcush ion
Ġgenealog ical
Ġunanim ously
Ġindestr uctible
Ġprototyp e
ĠCONCEPTION S
Ġcounterpo ise
ĠDOCTRIN E
0 2
4 9
5 1
5 8
5 9
6 0
6 1
6 3
6 5
6 6
7 3
7 8
A nt
A rist
D ING
M y
P art
V II
a ple
d am
f ru
g est
h i
h ind
h yp
i k
i age
l ose
s ought
s ciences
u ff
u ck
v oc
w ater
x ious
Ã ´
Î ¿
Ï Ħ
Ġ ility
he art
Ġa se
on str
Ġo y
it ement
Ġw al
Ġc ing
Ġc ou
Ġc over
Ġp oly
Ġin it
Ġin ess
Ġin structive
Ġin nate
Ġb i
Ġb er
or ter
Ġm ill
Ġm ast
Ġe ff
Ġis hing
Ġre at
Ġre call
st art
om p
om as
ot y
ll ed
Ġex ceed
Ġl ust
Ġl ux
ur p
Äł on
Äł ph
Äł wh
Äł so
Äł ag
Äł reg
Äł dist
Äł RE
Äł att
Äł Pro
Äł gu
ist r
if t
Ġde b
Ġreason ably
il ig
il ibrium
Ġint imate
ab ol
ab iding
Ġr ain
Ġr ude
Ġr iver
est ic
Ġv ig
Ġem otion
Ġtr iang
use ful
ere ct
Ġno bl
Ġab ol
Ġim mortal
Ġper missible
Ġsh ine
ĠA lex
ca re
Ġrel iable
ĠP l
Ġad or
so hn
be ar
ĠS ciences
ĠTh omas
Ġch a
ĠO W
ens ity
Ġsub t
am orph
pre par
pre gn
pre macy
Ġgener ates
ĠC OM
com pl
Ġen e
Ġdes cribes
ĠH istory
Ġpos ed
ac knowled
Ġend uring
Ġdisc ord
ÃĦÅĤ l
Ġind ol
less ly
Ġstr ain
Ġstr iving
Ġnor mal
Ġcomp elling
Ġexpress ing
Ġexpress ly
stru gg
cont empor
Ġconf ident
.âĢĿ ]
Ġpass ion
Ġinfluence d
Ġ3 2
Ġ3 4
ob st
Ġprom ising
Ġregul ated
Ġund es
Ġask ing
Ġpain ful
Ġfore st
Ġcre ative
comp ass
ĠSt aple
icip ations
Ġ6 9
Ġconver ted
Ġdefect s
che son
ST AN
appre hend
Ġstart ing
Ġord in
ĠCa uses
Ġviol ate
Ġtend er
Ġmeant ime
Ġmove ment
Ide as
po seless
Ġimply ing
Ġsettle ment
opp ortunity
ĠGr otius
Ġfam ily
ĠIntrodu ction
circum stances
Ġfacil ity
precept s
ĠSen sibility
ĠMen dels
function s
ĠAbb ott
Ġmislead ing
Ġfals ity
Ġlangu ages
ĠSc hematism
aug ment
Ġpict ure
settle ment
ede utic
Ġtriang les
ĠStaple ton
ĠMendels sohn
7 4
7 6
9 9
; [
E ven
N ature
N atural
O ther
R AP
a ver
b esides
d ing
e th
h itherto
i ently
j oys
l ucidation
o ca
p ain
p iece
r um
s pirit
t re
u gg
v ict
v idence
Â ¢
Â ¼
Ġ Z
Ġ nd
Ġ ener
Ġ ÄłÄł
Ġ izing
Ġ *****
Ġt or
Ġt ies
Ġa u
Ġa the
Ġa we
Ġa ke
Ġa dequacy
in stance
Ġo c
Ġo pt
Ġo cean
it ated
Ġc un
Ġs qu
Ġs we
Ġp tion
ic ing
ic ros
Ġin ation
Ġin estim
Ġin conceivable
Ġb lessed
or able
Ġm ir
Ġf f
Ġf ain
Ġn ed
Ġis hes
le ology
Ġre cur
Ġre searches
Ġd uc
Ġh ide
Ġex change
cept ible
ir ation
Äł ul
Äł act
Äł end
Äł sol
Äł ser
Äł ass
Äł bl
Äł adv
Äł exp
Äł super
Ġor s
Ġor bits
ul og
ch o
con versely
ab ilities
Ġ( =
um m
um at
Ġcom mit
tr od
Ġso ld
Ġnat ive
Ġhe d
Ġtr ies
Ġtr ial
Ġtr aces
su itable
su cceed
Ġper tains
Ġj est
Ġus ion
Ġif ied
ph rase
ĠF airbanks
art en
ĠA CT
Ġrel ax
ĠP le
Ġapp e
Ġy ing
Ġad orn
Ġdis appro
Ġdis advantage
Ġar ous
ĠS pirit
et ched
Ġpre ference
Ġpre mise
ĠC artes
oy ed
Ġgr ou
ign ed
Ġen ces
Ġcontr act
ser vation
ĠR IGHT
pro ves
ĠE L
Ġrational ism
ÃĦÅĤ ex
Ġexp end
Ġexp edient
man n
ass istance
av en
cond itio
Ġappear ing
Ġac y
Ġap od
mediate ly
dis play
dis interested
Ġphys ician
ĠCon ditions
Ġpurpos ively
ĠBe auty
Ġ2 9
Ġsc ale
ĠJ udg
.âĢĿ [
Ġequ ilibrium
Ġsuper ficial
Ġdoubt less
Ġte leology
Ġmis fortune
fa ces
Ġart istic
right eous
Ġpar abol
sh ort
AR Y
Äłc oun
Ġfr ank
Äłp rom
comp ut
ĠÃ İ
Ġthird ly
Ġsepar ates
ĠRE F
char ge
Ġcoun tenance
Äłde v
Ġfavour ite
speci fic
Ġclass ed
Ġwrit er
Ġ8 5
expl icable
ĠSp inoz
Ġaccess ible
Ġturn ed
Ġvent uring
Pr ofessor
Ġexc use
Ġpreser ves
Ġmo ves
Ġsucceed s
say ing
Ġdec ay
Ġsuggest s
Ġhabit ation
jud ici
cr ipt
TR AD
Ġsuff ices
Ġve h
Ġenlarg ing
gener ations
Ġschol ar
second ly
Ġadapt ation
Ġfortun ate
Ġtend encies
Ġvan ish
Ġtrib es
unt arily
Ġundert akes
Ide al
Ġprefer able
mechan ical
agree able
Ġpa use
ocr acy
ĠAm er
Ġbreak s
Ġincomp atible
Ġrun s
Ġtransl ated
Ph ilosophy
Ph ilosophical
Ġtrust worthy
Ġsuffer ing
Ġpubl ish
bal ance
favour able
Ġsust ain
agon ism
ĠMethod ology
Ġinsp ires
recogn ise
Ġfight ing
force ability
Ġrefin ement
cultiv ated
Ġunde cided
Ġsurpass es
Ġtheore ms
Ġmoun tain
Ġmoun tains
Ġdi ame
Ġreport s
fan aticism
Ã¢Ä¢Ä ¿
ĠPER PETUAL
Ġincap acity
cit iz
animal s
Ġsudden ly
adapt ed
ĠSoci ety
bu ild
Ġaver age
Ġaspir ations
Ġcun ning
Ġsqu are
ĠACT UAL
ĠCartes ian
Ġparabol a
A pp
C he
C ategor
D AMAG
E nd
H is
L og
L aw
L ogic
M od
M AL
N ER
P ossib
R I
R even
U S
a use
a edeutic
b ack
b new
c ence
c over
c ible
d imin
f lection
i ers
i ency
k l
l eness
o ples
r on
s plend
w elf
Ï ģ
Ġ &
Ġ q
Ġ ich
Ġ ject
Ġ ern
Ġ icism
Ġ ides
Ġ iving
Ġa me
Ġa equ
in f
in ent
re ceived
it ating
en ment
at he
er v
er um
Ġw ind
Ġw arr
Ġc ert
Ġc odes
Ġp ushed
es ca
Ġm s
Ġf ood
an ci
Ġn is
se curity
se cret
Ġit h
Ġd ial
Ġd ull
Ġd ilig
om it
ar is
ut cheson
as cribed
Ġpr ize
Ġpr ogram
Ġu ally
iv oca
the ning
im mortality
Ġex empl
Ġl oses
de pre
de part
Ġsu premacy
Äł ed
Äł ut
Äł if
Äł ve
Äł not
Äł out
Äł te
Äł form
Äł ha
Äł fa
Äł ap
Äł vol
Äł gl
Äł gener
Äł Ãĥ
og ue
ist ration
and al
ul s
rom ise
Ġall ot
Ġall ied
us y
me t
pl ed
Ġun tr
self ish
tr act
tr adict
Ġr an
Ġsp ort
Ġwor se
Ġv a
ĠB a
Ġtr anqu
ge l
fore ign
su pposing
pr on
Ġj oy
Ġus urp
Ġst ock
Ġst ored
Ġsh orter
ĠF urther
art ic
ĠA re
ex ec
ex ternally
un ted
Ġdis mis
Ġdis pleases
Ġar ouse
ĠO b
ĠN oumen
am m
pre jud
Ġpre decess
ĠC AN
ĠG enius
ĠIn telligence
form ing
Ġow e
we b
we ak
we ck
Ġfound ing
gor y
Ġrem embered
man ently
ĠM ore
Ġhere in
cogn ise
Ġpoint ed
Ġcor por
ĠL I
ĠL L
Ġcomp ulsion
Ġcomp romise
empt y
Ġi um
contr ib
In trod
ĠCon t
Ġsuccess ively
Ġconf using
Ġ2 8
Ġsole mn
Ġcommand ing
Ġmis chief
Ġco at
men se
Ġ3 3
Ġprom pt
Ġoblig atory
Ġaw a
Ġconscious ly
cor poreal
no ble
philos oph
Ġinvol untarily
Ġthree fold
Ġanalys es
Ġcorrect ing
ail ing
Äłc he
Ġoff ence
ap se
Ġvain ly
rem aining
Ġdel ine
Ġexcl usive
ĠKant ian
Ġarbitr ation
Ġinter sect
Ġsepar ating
char m
urs ively
Ġaccept ance
Ġoccasion ed
acc ustomed
ĠCh urch
ru in
origin ated
.) [
Ġreflect ed
Ġproduction s
Ġafford ed
Ġcanon s
Ġexc us
Ġver sion
Ġver bal
Ġhum our
adequate ly
Ġqual ified
che ck
ĠPU BL
Ġdisappear ance
pot ence
ÄłD e
ĠCa usality
Ġguard ed
ÄłE x
infinite ly
Ġve iled
Ġaccompl ishes
difficul t
Ġlar ger
mo ck
addition s
ĠCom mon
ĠMat erial
attrib uting
maintain s
ĠGree ks
Ġlink ed
analys ed
Ġhyper bol
Ġstop s
coun try
Ġthreat ened
Ġcommunic ability
Ġsl ip
ret ched
Ġprospect s
fig ur
Ġentertain ment
Ġsubstit uting
Ġinstruct s
Ġmach ines
apode ictical
De ity
ĠAb out
bles ome
Ġwa it
Ġascertain ing
Ġbind s
imag in
imag ined
Ġdesigned ly
comprehend ed
Ġhealth y
treat ment
exc ited
prob able
Ġreveal ed
disp utes
Ġanx ious
ipp ed
Ġcompr ised
adm iration
Ġdefici ency
CEP T
ĠAGRE EMENT
Ġvalu ed
Ġeduc ational
ĠSU B
sk ill
Ġvision ary
Ġrespon sible
obs cure
Ġreport ed
chie vous
Ġshallow ness
Ġfere nce
exact ly
service able
Ġenv y
Ġwander ing
Ġfant astic
ĠFOU ND
Ġenthusi asm
ĠLat in
Ġauthentic ated
facil ity
noisse urs
Ġsche me
Arist otle
Ġwal ks
Ġlux ury
Ġnobl est
ĠAlex ander
Ġcha os
Ġindol ence
RAP H
ĠPle asant
Ġappe als
TRAD EM
Ġdiame ter
ĠNoumen a
" ),
( $
) ?
. ).
B etween
C ritical
C reating
C riticism
E I
E urope
F ORE
G HT
G ENERAL
N OW
R TH
S THE
T hing
U pdated
U SION
b or
b ur
b ungl
c ob
d rop
e in
e try
f ict
f are
g one
g arten
h op
l ix
m il
m ast
n ull
o ops
r hapsod
s id
s ies
t able
t emper
Â ©
Ġ ived
Ġ utes
Ġ ÄłÄłÄłÄł
Ġ 00
Ġ ibility
Ġ xi
Ġt il
Ġt ears
Ġa ly
Ġa th
Ġa king
in comp
in ternally
in ery
in fluences
re ve
re sem
it us
it atively
is ol
en ry
en cour
en forceability
at ical
at tr
at tel
Ġw ond
Ġw ax
Ġw retched
Ġc ub
Ġs i
Ġs on
Ġs and
Ġp ose
Ġp omp
Ġin form
Ġin sen
Ġin explicable
Ġb al
Ġm over
ce lebrated
Ġf ut
Ġf ect
Ġf ame
Ġf rees
an cial
ed eration
Ġe ulog
Ġit as
Ġre ly
Ġre ward
Ġd u
Ġd rew
Ġcon e
Ġcon cess
Ġcon ducive
st ain
st ud
Ġbe que
Ġbe fits
ar ond
Ġh at
Ġh ing
Ġh ole
ect yp
Ġpr ae
Ġpr oud
Ġu de
Ġu red
iv ae
im m
os oph
Ġan e
Ġan om
Ġl iable
Ġl ibrary
Ġnot es
Ġnot ifies
de velop
ib l
Ġg one
Ġg bnew
Äł par
Äł part
Äł dif
Äł Un
ĠI M
Ġor g
Ġcan st
and i
and o
and ed
per or
Ġde ter
Ġde let
ve red
Ġpro lix
con qu
con sol
ate ful
Ġare d
il ation
il anthrop
Ġint e
em piric
em onstr
id ity
Ġat io
Ġ( "
pl anation
pl aces
pl iance
pl acing
ol ens
Ġun re
Ġun sol
Ġun qual
Ġun usual
dition al
Ġca ution
ans ion
ies tle
tr anqu
Ġr y
Ġr ot
Ġr ose
Ġr ival
Ġnat ura
Ġv on
Ġv ast
Ġse cre
Ġexist ent
Ġtr a
su ff
su pposed
Ġform ative
Ġim pregn
Ġper ish
Ġk at
Ġst ood
Ġsh ame
Ġsh ared
ĠF ull
ĠA K
ĠA P
ĠA ff
ex to
ex ert
Ġqu oted
Ġev ade
our ce
un s
ĠP AR
Ġy p
Ġdis content
Ġdis continue
Ġdis plays
sequ ent
Ġknow able
position s
ĠS cept
ĠS END
ĠS alt
et us
Ġevery body
ys ms
ag ue
Ġph ilanthrop
ĠN early
Ġsub divided
am ps
pre ponder
ness es
ĠC ity
ĠG over
ĠW ILL
ĠW ORK
imit able
ort ing
The ology
Ġen c
ĠH armon
ser v
Ġob sole
Ġdist rust
ish able
der iv
Ġfollow ers
pro posed
ĠE S
ĠE mail
ĠE lucidation
ÃĦÅĤ r
ÃĦÅĤ v
ÃĦÅĤ dis
Ġext ol
Ġext ingu
ear th
Ġind iv
sess ion
Ġout dated
Ġexp orting
Ġam ply
wo ven
Ġent ities
Ġent rance
ĠD irect
ĠD ON
man kind
ass ent
ĠPro vidence
Ġimp ure
determin able
ark s
Ġchar itable
ĠU S
Ġref ute
Ġref used
Ġref using
Ġinterest ing
Ġstr ay
app arent
app eared
Ġpe oples
Ġcomp ilation
ident ical
Ġcl oud
gin ia
contr ast
In asmuch
Ġdedu ctible
Ġpredic ating
Ġpredic ables
Ġpredic aments
Ġfin ancial
Ġder iving
sub scribe
ĠCon trib
fer ing
ĠBe cause
Ġdefin iteness
cont act
Ġbound less
ĠTH OS
Ġconf idently
Ġimag ined
arr ay
Ġsc andal
Ġanaly z
Ġdog ma
ĠPr iestle
Ġut ing
Ġnon propr
Ġmis sed
Ġmis interpretation
Ġdemonstr able
Ġop ens
Ġexpect ing
ĠK ings
dequ ateness
Ġprom inent
Ġident ification
des ired
Ġadd resses
ext ends
requ est
Ġclaim ing
fe es
sim plicity
ont al
Ġ5 3
Ġ5 96
br uary
leg ality
happ ily
oc ate
ĠV attel
go als
Ġdistrib utive
Äłc rit
Ġbl ow
ren ch
ĠEx ec
Äłp ost
Ġappro ved
ometr y
Ġexcl uding
comp ressed
Ġche er
Ġche mist
incl ined
Ġro ck
Ġinter woven
thought s
Ġens uring
Ġprop ension
ĠRE PL
vol unteers
char ities
Ġfl ight
Ġoccasion ing
concept us
Äłd en
ĠCh ief
conf ounded
Ġscept ic
imin ished
ĠPh ilosophical
expl anations
Ġur ges
Ġaccess ed
predic aments
Ġpract ised
Ġopen ly
obser ve
Ġgover ned
Ġsent imental
Ġbest owed
Be yond
Ġmist aking
Ġmo vable
Ġver ify
Ġbeh old
Ġdev iations
Ġstreng thening
Ġoccur ring
maxim um
Ġincre ases
neg lect
ST EM
JEC TIVE
set tled
Ġren amed
Ġren ounced
Ġcontempl ate
LI ABILITY
LI ABLE
Qu od
Ġprot ection
Ġexec utive
Ġmon str
Ġsearch ing
Ġattack ed
unte er
ACE MENT
judg es
Ġve x
ĠWh ole
equ ally
Ġschol ars
Ġpermit s
Ġprep ares
Ġinf ancy
mod i
ĠCom pliance
Ġhind ers
Ġcivil ised
analytical ly
col lect
unt il
correct ly
Ġdepr ived
ĠPer ception
Ġlegitimate ly
ĠAl aska
ra ised
Ġdict ated
person s
Ġdeal ing
Ġomni presence
AG RAPH
Ġcle ared
distrib ution
Ġreplace d
Ġann ounces
Ġann ounced
Ġdecided ly
ĠQu ality
affect ing
cap it
Ġsl ow
design ed
Ġdesp air
sc hemat
individual s
Ġerrone ously
Ġhundred s
Ġstrugg ling
80 1
Ġinc umb
construct ed
INCI DENTAL
remark s
ĠEX CEPT
ĠNew by
ĠDI RECT
Ġaltern ate
18 87
get able
Ġmyst ical
Ġhes itation
sing ular
Ġinstinct s
Ġdece it
class es
throw ing
Ġcompass ion
50 1
exhib it
Ġsolicit ation
bring ing
exc ite
incre ase
Ca usality
Ġrestr ained
ĠBE FORE
Ġvalu able
Ġemploye e
moment a
Ġeduc ation
heter ogeneous
Ġect yp
ĠIND EMNITY
ĠMis sion
Ġpress ure
PRO VIDED
li ability
Ġmass es
maj or
det ect
Ġdenomin ated
Ġsw amp
Ġtransgress ing
creat ures
Ġredistrib ute
Ġparent s
Ġwear iness
Ġparadox ical
het oric
perform ing
Ġtrou blesome
obs curity
Ġinsist ed
Ġsan ct
Ġelucid ate
Ġbenefic ence
fan ci
Ġsedu ced
Ġprolong ed
inc erity
priv ilege
Ġsmo oth
Ġming les
Ġdrop s
ĠPG LA
ĠPost ulates
Ġartic le
ĠRedistrib ution
ĠRedistrib uting
impul ses
ĠDISTRIBUT E
ĠDISTRIBUT OR
hum ili
Ġnet work
Ġunconscious ly
Ġadvers ary
Ġappet ite
Ġdiss ip
Ġsurr ounded
Ġzeal ous
Ġchall eng
ĠED ITION
Ġ99 7
eas ily
ĠAd ditional
fam iliar
warrant ies
Ġnovel ty
ĠPOSSI BILITY
PLEAS E
62215 41
ĠGre gory
Vol unteers
Ġtheolog ians
Ġincompre hensibility
Ġunl ink
ĠIR S
Ple asure
tw ofold
ĠFe bruary
ortun ities
Ġcoerc ion
ĠAnalog ies
Ġ84 116
fru itful
hind rances
ĠOW NER
Ġinestim able
Ġgrou p
ĠREF UND
judici um
DAMAG E
Reven ue
welf are
Ġcorpor ation
ĠCont act
Ġexcus able
ĠPUBL IC
ĠFOUND ATION
TRADEM ARK
Ġinsen sibly
Ġfut ile
Ġgbnew by
Ġdelet ions
Ġunsol icited
Ġunqual ified
ĠPAR AGRAPH
ĠGover nor
ĠHarmon y
Ġobsole te
ĠDirect or
ĠContrib utions
ĠTHOS E
ĠPriestle y
Ġnonpropr ietary
ĠExec utive
ĠREPL ACEMENT
Ġincumb ent
ĠPGLA F
0 4
8 4
B C
C ertain
H uman
H ave
J u
L ove
L ocke
O b
P lato
U pon
U nt
U TION
X I
] [
] ]
a cid
d ent
d oll
e fficient
f ix
f ancy
h omogeneity
i ary
l come
m und
n icious
p ob
p utable
r d
r us
r ont
s in
s ake
s ided
u seless
u pright
u phold
w ished
Â ¦
Ã ¡
Î ±
Ġ ime
Ġ ension
Ġt ib
Ġt rem
Ġt utor
he ad
Ġa ve
Ġa version
in en
in ward
in ning
in ability
in strum
Ġo ub
re ject
re ach
re pe
re commend
en c
er ies
Ġw rest
Ġc rowd
Ġs ion
Ġs ed
Ġs end
Ġs adly
Ġp ill
Ġp ush
al leg
ic ero
Ġin an
Ġin ed
Ġin cur
Ġin compar
es y
or ably
or igination
Ġto w
an imity
se q
Ġit es
Ġit able
Ġre ap
Ġre new
Ġre production
Ġre served
Ġre rum
Ġd ress
Ġd iction
Ġcon dem
st arr
Ġbe aut
om nit
Ġh our
Ġas cribes
Ġu b
iv ial
the ore
the ism
the ile
the ned
Ġan gu
Ġex cess
Ġex hort
Ġl if
Ġl ucid
pt h
Ġfor fe
Ġfor bear
Ġwe ighed
Ġwe lcome
de tr
ib ibl
Ġsu nt
ci ate
ld arond
Äł ce
Äł og
Äł mon
Äł The
Äł med
Äł av
Äł cont
Äł arr
Äł no
Äł comm
Äł prov
Äł supp
Äł commun
og raph
Ġor n
if fe
per mit
per sist
per petual
per plex
per tains
per petually
per suasion
sel s
âĢ ĺ
ve il
ĠT ION
con demn
con junct
Ġal arm
Ġint act
ab ile
Ġun g
Ġun er
Ġun changed
Ġun alter
Ġca utious
min or
ans as
um garten
tr ied
of fer
Ġr andom
Ġsp ot
Ġv en
Ġv ii
Ġtr oops
Ġtr ivial
su ppos
pr ag
pr int
pos its
Ġim proved
Ġper manently
Ġper nicious
ant as
ind ifference
Ġj ugg
Ġif y
Ġst im
Ġreg ret
out set
Ġsh ar
Ġsh ake
ĠF AC
ĠF rench
ex cell
ex haust
un ite
un certain
un necessary
un iting
un certainty
un ceasing
un iform
Ġman hood
Ġacc um
Ġacc used
ĠP ublic
Ġapp end
), [
Ġar s
Ġar med
be ho
ĠS ing
ĠS imilarly
ĠS MAL
ener ally
str ong
Ġch amp
et ting
op en
ens ome
ĠN ame
Ġsub divisions
Ġsub sid
pre fer
du ed
Ġpre fers
Ġpre ponder
oy ing
ĠG enerally
Ġser v
Ġdif f
ĠW ell
Ġcomple ting
com men
Ġcont ending
The oretical
Ġen ess
Ġen unciation
Ġdes ist
ĠH as
ove rer
âĢĿ .
Ġfe at
Ġfe as
Ġfe ature
ÃĦÅĤ C
ÃĦÅĤ D
ÃĦÅĤ pr
par adox
Ġexp ansion
ang ed
ang le
ok ed
ĠM r
ĠM atter
Ġfact i
Ġimp elling
Ġchar ms
Ġkind ness
Ġcomm encing
fl own
Ġstr anger
can on
Ġhand le
Ġcomp atible
ident ity
Ġdiv ides
Ġple ased
dis similar
Ġpresu me
Ġsum s
Ġer t
know ing
rel uct
Ġrul ers
sub ordinate
ath om
Ġed iting
Ġneed ing
Ġarr og
cont end
Ġbound ed
arr ived
arr ogant
Ġexer ted
Ġwant ed
Ġless on
Ġmethod ical
bit ious
amin ation
Ġnon entity
Ġmis use
Ġco ar
Ġco ol
Ġher o
Ġher oes
Ġ3 9
Ġconduct ing
Ġcosm opolitan
Äłs l
Äłs im
Ġart iculation
Ġbr idge
des cribe
Ġce ption
Ġce ased
Äłin f
Ġwar m
requ iring
sim ultaneous
Ġcomb ining
cor rection
some what
no xious
Ġtrans port
Ġendeav or
Ġanalog ical
Ġ4 3
Ġpret ty
Ġpret ends
Ġoper ates
Ġmed itation
IN T
Äłc ol
just ifies
Ġendeavour ing
Ġfr ail
Ġfr ustr
sensuous ly
att ached
Ġfore ver
caus al
ĠEx ist
ĠEx amination
Äłp o
ĠIm mortality
ip id
rem ove
Ġappro bation
RO LL
Ġlet ters
Ġarrang es
respect s
respect ing
respect ive
iter ated
Ġpeace ful
CE DU
Ġinter ference
Ġinter fering
Ġens ure
Ġens ures
Ġprop ag
Ġprop aedeutic
Ġacqu ires
Ġ6 8
ins ipid
think er
Ġir respective
possess ions
Äłd iv
Ġindis putable
gu arante
Ġmet als
Ġclass ification
compre hension
Ġsecure d
ÄłP h
ÄłP er
light enment
first ly
Ġexper iments
ÄłC h
matter s
Ġsk etched
attain ing
Pr ot
Ġate ly
contin ual
Ġdest iny
ug n
Ġcap ital
Ġcommun is
Ġgovern or
neg ations
Äłv ar
Ġenjoy ing
Ġfew er
pret ext
Ġsuggest ions
Ġprofess ions
supp lied
Ġtw ist
Ġguard ian
Ġimit ate
Ġimit ating
ĠEvery one
Ġinj uring
Ġenlarg es
equ ivalent
Ġsym pat
oblig atory
Ġtransg resses
Ġviol ation
Ġpo et
Ġ12 0
direct s
direct ing
Ġroot ed
col lected
Ġobe ys
correct ness
Ġdepr ives
ĠPer fect
advantage ous
Ex istence
Ex amples
Ġrid icule
ĠChrist ians
person al
material iter
abstract ed
ĠCategor ical
need ing
Ġimpart ed
Ġspect acle
ĠMe anwhile
author s
construction s
Ġobscure ly
UL AR
UL TY
result s
Ġous ly
Ġinhere nce
Ġcommunic ate
Ġinstit ution
Ġpropens ities
ĠProble matical
Ġmodel s
small er
opp on
enlarg ing
Ġthy self
Ġreconci le
Ġconceal ment
don ation
Ġmach inery
Ġroad s
pathological ly
Per suasion
del usion
ĠÃĨ STHE
Ġaltern ation
Ġaltern atively
Ġexempt ion
Ġmyst icism
Ġneighbour ing
Ġexcell ence
definite ly
Ġelabor ate
contempl ation
imag ine
Ġheight s
Ġannex es
insepar able
Ġsil ver
dogmatical ly
dev ised
Ġfell ow
convin cing
decl ar
gen ius
hon esty
ĠRel igion
rep ute
introdu ction
Ġinex orably
Ġsurpr ise
Ġaccident ally
Ġvalu es
Ġinvent ed
Ġaston ishing
Ġinstrum ents
Ġbon us
transc ends
Ġencour age
maj esty
confirm ation
prevent ing
Ġvolunt arily
tel lect
Object s
Ġratiocin ant
bre ak
Ġpot ential
Ġdisapp eared
Ġtaut ological
bene ficial
sent iments
Ġtol erate
Ġsal ts
Ġquick ly
Ġarm our
reconci led
abandon ed
plain ly
Ġadmin istration
az ard
Ġsect ions
Ġlat ent
Ġlimb s
elev ated
Ġwis er
Ġdecre ase
architect onic
wr ong
Ġbro ke
prim ary
Ġtreasure s
lab orious
conven ience
embarrass ment
Introdu ction
ĠNeg ation
schol astic
EF IN
Ġconced ed
Ġimpot ence
Ġapper taining
Ġspher ical
Ġtrades man
Ġeloqu ent
Ġpresumpt uous
ĠArchitect onic
Ġsanction s
Part icular
Ġvig our
ĠPl urality
obst acles
vict ory
Ġtor ment
Ġopt ical
ĠAmer ica
Categor ies
Possib ility
cover ably
Ġaequ ivoca
Ġdilig ence
ĠBa umgarten
Thing s
cob web
fict itious
hop es
mast ery
encour agement
Ġanom aly
Ġinte gr
Ġsecre ts
Ġtib i
Ġinan imate
Ġunalter able
ĠFAC ULTY
ĠSMAL L
ĠÃĨSTHE TIC
) -
) [
* (
. =
8 3
A pperception
C osmological
D es
D IC
D ifferent
L E
L ast
L EG
M ichael
N on
S h
T O
T wo
Y es
Y STEM
] ;
_ );
b all
b usy
c s
c overy
c undity
c rowd
c asus
d ata
f ear
g ained
h art
h oliness
i king
j acent
k ed
l aid
m aster
m oments
n iz
o be
p us
p ast
r ash
s cribed
s light
t ask
v estig
v iol
v ocation
w ants
y r
y ers
Ġ )
Ġ hen
Ġ iz
Ġ ensive
Ġ icians
Ġ ician
Ġt ends
Ġt urning
Ġa le
Ġa ken
in stances
in hab
in heres
in conceivable
Ġo mission
Ġthe e
Ġthe ist
re hension
re cisely
re cognize
it itious
it chie
Ġof t
at urn
er on
er ately
Ġw ent
Ġw ound
Ġw ood
Ġc ure
Ġc ath
Ġc ru
Ġc asus
Ġs ad
Ġs ap
Ġs ites
Ġp ect
Ġp ledge
Ġp ious
al ing
al aris
ic ine
Ġin ane
Ġin equality
es ult
Ġth ine
Ġth resh
Ġf ought
Ġf atum
ct ober
an alytic
Ġn es
se verest
Ġis ion
le ft
Ġit her
Ġre ver
Ġre collection
Ġre trace
Ġre capit
Ġd ates
Ġd umb
Ġcon gr
Ġcon vey
Ġcon veyed
st ability
st ones
Ġbe ad
om ination
ent ities
ar ius
ut most
as cribe
Ġh over
Ġas es
Ġas sem
Ġu g
im pose
im poses
im material
im provement
os session
Ġan terior
Ġl ing
Ġl ib
Ġl end
Ġl oth
Ġl iberum
ject ive
Ġfor ge
Ġfor cing
Ġfor sakes
de ceived
de istic
ure ans
ter onomy
Ġg out
Ġg aps
ci ll
ir ginia
Ġwith stand
Äł es
Äł aw
Äł pos
Äł art
Äł sy
Äł man
Äł determin
Äł wor
Äł AN
Äł conce
res ides
ul zer
per ceived
per mission
Ġde com
Ġde arest
Ġde pth
ĠT wo
Ġall ure
ch asm
con veyed
con verted
con ducive
us iveness
Ġint imid
act ed
act ivity
id ger
id night
Ġha ph
Ġat or
Ġat ively
ab yss
Ġ( *
me et
pl ies
pl ausible
ill ain
ol at
ol ina
Ġun sh
Ġun like
Ġun real
Ġun necessarily
Ġun fit
Ġun belief
Ġun exception
Ġun satisfied
Ġun influenced
Ġun restricted
Ġun guarded
Ġun fortunate
Ġun yielding
Ġun conqu
Ġun settled
Ġca el
Ġcom ets
Ġr ust
Ġr aw
Ġsp ur
Ġsp read
ide l
her it
her self
Ġse l
Ġse yn
stand ard
Ġhe redit
Ġexist ential
use ment
ak ed
fore seen
pos al
pos itio
Ġform arum
ad vert
Ġim prov
ori ally
Ġk s
ind ulgence
Ġst it
Ġst em
Ġst ars
Ġsh aken
Ġsh ield
ĠF unction
ĠA ldarond
ex terior
Ġcogn iz
Ġcogn itio
Ġqu e
Ġqu ib
wh ilst
wh olly
Ġide ally
un its
un limited
un true
un changeable
un ciated
un searchable
Ġacc ru
Ġacc redit
ĠP ol
ĠP olit
ĠP lease
ĠP olem
ĠP recisely
Ġapp oint
Ġy aw
Ġy oke
Ġad jacent
Ġad jective
Ġunderstanding s
Ġdis posing
Ġdis continu
Ġdis repute
sequ ence
Ġar k
ĠS enses
ĠS aturn
ĠTh irdly
str ings
str iking
Ġevery day
sp aces
ĠO U
ĠO ctober
Ġsynthe ses
ĠN ations
ĠN ihil
ĠN ovember
Ġsub sequently
Ġsub reptio
Ġsub dued
el en
pre determined
pre hensible
pre pared
ast ical
ast ically
Ġgener atio
Ġpur ified
Ġpre cl
Ġpre posited
Ġpre caution
Ġpre monition
ĠC icero
ĠG reat
ĠG ENERAL
Ġpl ants
Ġgr ief
possib ilities
mon ads
ĠW is
ĠW ould
ĠW ere
ĠW idger
ĠIn cl
ĠIn tellect
Ġcertain ties
Ġcaus ed
condition al
The ological
ĠH itherto
ĠH enry
Ġcontr ari
ro ad
Ġob noxious
ĠR ome
Ġwas hed
Ġdist urb
we aken
we alth
old est
âĢĿ ),
ploy ment
Ġact or
Ġact uating
ink ing
pro cure
with drawn
Ġag ency
ĠE r
ĠE s
ĠE qu
ĠE BC
Ġrational ist
Ġval uel
ÃĦÅĤ S
ÃĦÅĤ w
over look
over step
over throw
par ison
par alogism
med ium
med iable
ne arer
Ġout we
Ġpres iding
Ġter ror
Ġam p
Ġpurpose ly
ĠD est
ĠD ialect
ĠD OM
Ġatt ends
ĠRe ciproc
ass able
Ġreal e
Ġreal itates
Ġbas es
Ġconstit uent
Ġperfect ions
Ġcrit ics
exist ed
exist ences
ĠM ont
ious ness
ult aneity
Ġimp air
Ġimp enetrable
Ġimp aired
Ġimp assable
cogn izing
av a
Th ought
ogit o
ĠU pdated
Ġexpl ication
Ġcomm ences
ĠL est
Ġhand les
Ġcomp ound
Ġrest less
und oubtedly
ev ents
Ġcl ock
Ġi able
Ġcontradict ing
Ġres iding
Ġadv ised
othe ology
reg ulate
reg ulated
dis k
dis junctive
dis appears
Ġtruth fulness
Ġsupp ressed
Ġsum m
bl ances
bl under
Ġphys ica
Ġfin ishing
sub stitution
ĠCon junction
ĠCon tent
Ġclear ing
Ġed ifices
Ġworth less
mis conception
mis apprehension
aim ed
Ġmod erately
Ġperson ified
Ġconf usions
Ġ2 6
gr ace
Ġimper illed
Ġregress ion
Ġregress ively
Ġconting encies
Ġsc ope
Ġless er
Ġless ened
Ġover coming
part e
part ed
ĠSu pposing
Ġmain ly
Ġmean est
Ġassert orial
Ġassert orially
Ġideal izing
Ġequ ipped
Ġremark ing
bit ably
contradict s
contradict orily
ĠBeing s
ĠPr imal
Ġmis ology
Ġmis representation
Ġmis applied
Ġmis leads
Ġmis erably
Ġco in
Ġco ins
Ġprov idence
transcendental ism
ĠK NOW
Ġobl iterated
Ġprom ised
Ġden ying
Ġden omination
Ġpeculiar ly
under taking
Äłs ch
Ġappre ciated
Ġappre hensions
Ġart ifice
Ġbr other
Ġbr utes
Ġbr utum
Ġaw akes
RE M
des cent
Ġargument ative
ave olens
ext reme
cre ation
dif fer
Äłin de
Ġwar fare
Ġmaintain er
Ġund one
Ġund isc
br ain
Ġdesign ates
Ġdesign ating
Ġaffirm ing
connect ing
Ġcirc uit
Ġpar simony
Ġ4 000
leg es
Ġintellectual ized
Ġdistinct ness
pres cribed
Ġconv ict
Ġconv ictions
happ ened
ĠV ery
Ġintr ude
Ġoper ative
Ġcorrect ed
yn ics
Ġign ore
Ġmed icine
Ġstates man
Ġdecl ined
ĠUn philosophical
Ġpain s
Äłre m
categor ically
IS T
Ġfr ames
Ġrefer able
Ġear s
imp enetrable
ft p
caus ed
ific ate
ĠEx ternal
ĠEx tent
ĠEx amples
Ġ* (
Ġprof undity
Ġmeaning s
Ġmeaning less
Ġdynam ics
phys ician
phys iological
rem ote
rem ained
Ġdel ivers
Ġdel usions
Ġdel icate
Ġdel ivered
comp ound
ask ed
Ġagree ably
Ġche mists
constit uted
constit uent
Ġarbitr ium
incl udes
Ġcare lessness
appl ies
Ġ9 3
Ġ9 6
Ġelement al
Ġinter ior
Ġinter rog
oriz ontal
metaphys icians
ven al
consist ing
Ġsignific ancy
Ġfl ower
Ġ7 8
Ġold er
quant a
worth less
mathemat ician
Ġoccasion al
ian a
think ers
Ġgeometr icians
Ġgeometr ician
Ġaut omaton
Ġindis cernib
conf utation
gu ides
Ġhigh way
Ġdogmat a
Ġdogmat ists
origin ator
origin arium
Ġconver ting
sens atio
change ably
cogit able
cogit ating
ĠPh alaris
adv ances
Ġrep ul
Ġrep ress
real ized
real issimum
div isible
Ġspirit uality
ĠSp here
predic ated
gl orious
Ġexper imental
demonstr ations
demonstr atively
Ġaesthetical ly
Ġgl im
Ġprud ential
discover s
investig ating
ĠHere in
Ġdet ection
ref lex
Ġexc iting
Ġsophist ry
Ġestim ates
ĠSe at
Ġdivers ities
Ġconfin ing
Ġbene f
Ġbene fits
Ġasc ends
Ġdec ried
Ġdev iate
Con ceptions
Ġreckon s
Ġfirm ness
ĠPRO CEDU
attempt ing
aff inity
Ġlower ing
examin e
examin ing
examin ed
draw ing
Ġwr ought
ĠEm piricism
ĠEm ployment
Ġ200 3
psych ologia
ĠLog icians
Ġpros yllogisms
Ġren ounces
Äłex tr
Ġteach ings
ĠIN TERNAL
Ġderiv able
Ġauthoriz es
Ġauthoriz ing
Ġmon ogram
Ġmon ads
Ġblind ness
oper ate
oper ative
oper ating
Ġcal culation
Ġil legitimate
regress ive
regress us
Ġhead er
Ġsuff ers
Ġsuff ice
ĠWh ile
Ġinj ured
Ġlar gest
Ġsym path
Ġhard ness
Ġillustr ations
Ġschol astically
mo on
mo vable
defin e
Ġattr actions
Ġaddu cing
ĠLeibnitz ian
inqu ire
depend ing
Ġpo em
show s
show ing
Ġinf ers
Ġinf used
Ġfortun ately
Ġvan ishes
vers a
ĠCom position
ĠEpic ureans
require ment
Ġdeep est
Ġconfused ly
ox ysms
Ġreject s
Ġreject ion
begin s
deg rees
ĠPer mitted
Ġloc ale
ĠTr anscendent
ĠTr ancendent
Ġsubstant ive
ĠDis covery
Ġdict ation
person ality
Ġalter ing
ĠPR INT
Ġpresum ed
Ġcolour ing
Ġomni present
Ġtyp ic
Ġevid encing
ĠCategor y
distrib ute
Ġblame less
concl usio
Ġ19 71
Ġimpart iality
anteced ently
labour s
command s
occup ies
compar atively
err ors
Ġann oying
Ġspect ata
progress us
Ġfulfil s
prom ise
prom ote
Ġresol ves
Ġresol utions
Ġunb idden
Ġprefer red
organ on
Ġgrow s
Ġobscure d
aenomen a
Ġmodern s
commun io
affirm ing
affirm ations
grad uated
cop y
cop ying
Ġsl umber
design ate
indis pensably
Ġ50 1
Ġalleg ing
Ġjoin ing
Ġambig u
EMENT S
Äład m
Ġpropens ions
reciproc ity
Ġfoot path
Ġfoot steps
Ġprincip ally
Ġdesp ising
Ġaugment ative
Ġstrugg les
enlarg es
Ġration e
ĠGr ant
Ġcommer cium
ocr atic
ĠChristian ity
Ġinc itement
haust ible
Ġdr ives
Ġenounce ment
Metaphys ical
Metaphys ics
construct s
Ġerect s
sophist ries
remark ing
CL USION
ĠEX TERNAL
Per manence
Per petual
ĠProof s
Ġflatter s
Ġobstin acy
Ġnull ity
Ġyouth ful
Ġantinom ial
Ġflow ing
Ġspiritual ism
ĠSystem atic
Ġhypostat ize
Ġhypostat ized
sym pathy
deser ve
harmon ize
Ġru ined
Ġsolid ity
Ġirre mediable
Ġelabor ating
contempl ated
pursu it
pursu ed
SEC TION
Ġlic ence
Ġlic et
Ġdetr act
exper iment
disposition s
Ġdem ur
Ġdem erit
comprehend ing
Gr ant
ĠAgain st
ĠDIALEC TICAL
hon oured
Ġperplex ing
exposition s
specif ically
Ġtalk ed
Ġmilit ates
Ca use
Ca ius
rep utation
Ġbetray ed
fr amed
Ġinex haustible
Ġsust ained
adm ixture
Ġard ent
agon al
Ġcritic ize
cosm ology
reckon ing
Ġep is
ĠConcl usion
Produ ce
Ġprime val
forth coming
ton ian
recogn izes
yllogism os
Ġencour ages
Ġanthropomorph ism
det ailed
Ġembarrass ments
Ġpunct ual
Ġpunct ually
anthropomorph ic
test ing
Ġmal i
Ġmal um
Ġprag matic
ĠCan on
ĠCogn itions
42 80
creat ure
ration e
sk etch
Ġincor poreal
Ġmar vellous
Ġredistrib uting
Ġdespot ic
Ġdegr ade
Ġdegr aded
Sp inoz
fici ency
Ġwear ied
Ġconsult ing
attack s
Ġpol es
Ġpol ice
Ġrespon sibility
Ġdi agonal
Ġbeg un
profess es
ĠDetermin e
ĠDetermin ing
Ġimagin arium
Ġfatal ist
Ġprolong ing
Ġric her
Ġshadow s
ĠWolf ian
avail able
ĠSubject ive
Ġdownlo ad
Ġtol erable
Ġmel ts
Ġye a
Ġarchetyp al
Ġarchetyp es
Ġwaver ing
prof itable
ĠWho ever
ĠAbb Ã©
priv ate
indu bitably
Ġsharp en
exerc ising
Mor ality
authoriz ed
Ġsmo ke
Ġincap ac
streng th
streng thened
abandon ing
ĠPost ulate
Ġartic les
Ġtermin is
substant ia
doctr ines
doctr inal
presum pt
impul se
transg ression
ta ire
Ġargu ing
Ġindivid uum
myst icism
ĠOrigin ally
divers ity
divers ities
parent s
tempt ation
tempt ations
Ġcard inal
Ġsoft ware
Ġconfound ing
Ġflat ten
Ġwis est
ĠCertain ly
ĠCosm ical
ĠCosm ology
specul ations
Ġadmire rs
Ġpoison s
Epic urean
Me anwhile
cal culation
unde cided
Concl uding
Ġsignal ize
Ġcourt esy
civil ized
ri ot
conject ured
Ġhast ily
Sub stances
ĠParalogism s
Ġnom inally
Ġconqu ered
Ġforget ting
cade mical
Ġ568 2
Ġ42 80
Ġvers a
Ġsilence d
instruct ed
Ġcond itio
confin es
sensual izing
Ġconcur rence
grant ing
Ġeconom ical
Sto ics
Wolf ian
penetr ating
enumer ate
Ġsag acity
Ġhar sh
threat ens
Ġdep ict
constant ly
ĠCl ue
ĠCar olina
ĠMA Y
ĠOnt ological
Ġdisappoint ment
mother ly
sound ness
Ġcand our
Ġthir teen
Ġthwart ing
omni potence
Ġunquestion ably
Ġsubre ptions
ĠCopern icus
ĠHypothe sis
ĠEv ents
ĠDom ain
consequentia e
Ġastronom ers
ĠFacul ty
Ġincontrovert ibly
Ġecl ipses
Ġret ort
Ġhur t
Ġliqu et
Ġsuppos ititious
Ġalle ge
Ġalkal i
Ġembell ishments
Ġempiric ist
Ġimmedi atae
Ġaccus ation
Ġphantom s
ĠCO ROLL
Ġenig ma
Ġengr aft
accept ation
Ġdiscret um
Ġtert ium
Ġentrust ed
Ġillumin ated
faith ful
Ġsurreptitious ly
ĠImper atives
Ġinflex ible
Ġsteadfast ness
oty pon
Ġrain drop
strugg le
Ġathe istic
Ġduc at
Ġjest ing
ĠEL EMENTS
Ġfrank ness
esca pe
anci ents
Ġnis i
Ġdial etic
Ġpredecess ors
Ġhyperbol ic
resem blances
Ġcub ic
Ġbeque ath
ectyp a
develop ment
Ġorg ans
Ġprolix ity
ĠScept ical
Ġphilanthrop ist
Ġindiv isible
ĠKings mill
Ġectyp al
humili ates
Ġdissip ate
Ju venal
Unt il
doll ars
mund us
pob ox
repe ated
recommend ations
Ġcrowd ed
alleg ed
Ġdiction is
starr y
Ġbeaut ies
omnit udo
theore m
detr imental
ibibl io
persist ed
perplex ity
conjunct io
Ġuner ring
suppos itio
prag matic
excell ent
exhaust ed
beho of
Ġsubsid iary
commen cing
paradox ical
reluct antly
ĠExist ences
Prot otypon
oppon ent
declar ations
Ġarmour y
Ġintegr ity
Ġcath artic
Ġthresh old
Ġrever ses
Ġlib itum
Ġintimid ation
Ġhaph azard
Ġunsh aken
Ġunexception able
Ġunconqu erable
Ġcael o
Ġheredit ary
ĠAldarond o
Ġcogniz ant
ĠPolem ics
Ġcontrari wise
ĠEBC DIC
Ġvaluel ess
ĠDOM AIN
Ġundisc overed
Ġindiscernib les
ĠPROCEDU RE
ĠTrancendent ale
ĠCOROLL ARY
Ġraindrop s
1 00
D oes
L ATION
P ER
Y et
b ted
g overnment
h m
h or
h rung
k ran
m ans
m ult
p g
r if
r ang
Ã ¶
Ġ ]
Ġ ience
Ġ iate
Ġ ires
Ġ ief
Ġ ired
Ġ iding
Ġ izes
Ġ ÄłÄłÄłÄłÄłÄłÄłÄłÄłÄłÄłÄłÄłÄłÄłÄł
Ġt a
Ġt ong
Ġa int
Ġa ins
in n
in determinate
Ġo ll
Ġo ph
Ġo te
Ġo ok
at ag
Ġc ode
al es
Ġin es
Ġb ent
Ġb ur
Ġb ird
Ġf et
Ġf ather
Ġf ool
Ġf fici
ing en
ou is
Ġe min
Ġit ing
ar ising
Ġu ll
Ġu ous
Ġu des
ur ke
Ġg h
Ġg od
Ġg ather
Äł ic
Äł ill
Äł fore
Äł sen
Äł necess
Äł law
Äł do
Äł spe
Äł leg
Äł phys
Äł char
Äł Qu
Äł comb
Äł indis
Äł sym
ĠI T
ver b
qu ie
og en
if ici
Ġde em
Ġpro claim
ch ild
Ġne ut
us eness
Ġat om
ol t
Ġr ough
Ġv ary
Ġsen seless
ad min
Ġj oined
Ġsh r
ĠA C
ĠA TION
un b
un o
Ġcons umm
Ġy n
Ġdis clos
ie g
so ph
be auty
ĠS CI
ĠS cript
te ll
Ġmoral ist
ĠC ong
ĠG overnment
Ġpl ant
Ġgr ass
ĠIn ternational
Ġen ed
ĠH err
ĠR ight
ĠR ussia
ĠR itchie
ke it
ne umat
ha p
ha u
ang ers
Ġquestion ed
Ġwork ed
ĠD EFIN
Ġreal ised
Ġnatural ist
ĠM ain
ĠU N
Ġwhere ver
Ġi or
Ġi gh
Ġcontradict ed
Ġphys iological
EN A
wor king
Ġant s
Ġ2 4
pect s
ĠJ ew
Ġneg lected
Ġpleasure s
Ġindic ations
Ġdoubt ing
Ġut ation
Ġut ions
Ġco here
Ġ3 7
will ing
ĠK ANT
Ġprogress ive
Ġoblig ations
Ġharmon ise
Äłin c
Ġcomb inations
Ġtreat y
Ġmed i
Äłc al
ap ole
produ cing
Ġdestr oys
Ġlet ting
TH IRD
Ġ9 1
Ġ9 4
Ġdeser ved
Ġkingdom s
Ġtest ing
Ġ7 1
Ġir regular
Ġkeep s
au sibility
Ġ. ..
Ġdom in
Ġic es
Ġrep ugn
Ġcheck ing
Ġur s
Ġsever ity
ÄłC om
ÄłS u
Ġstud ied
Ġgl ad
Ġsent ences
eib niz
Be autiful
Ġver b
mind ed
Ġcontrib uted
Ġ10 5
ĠEm peror
judg ment
Ġpo etry
ĠCom munity
Ġdepr avity
maintain ing
ĠGree ce
Ġappeal ing
Äłim ag
err one
Ġthreat ens
Ġtechn ically
Ne g
intu itive
mist ak
ĠX V
Ġtrace d
Ġcharm ing
bring s
Ġserious ness
Ġenem ies
Ch ar
Ġpress ing
ĠÃ¢Ä¢Ä ¿
Princi ples
Ġoun ce
preser vation
ĠPHILOSOP H
ĠArgum ent
put ably
Ġming led
ss ig
ĠSh ould
Ġbeast s
symbol ical
568 3
Ġacknowled ged
Ġabsol ut
Ġsold ier
ĠJudg ments
tradict ion
Ġhat red
Ġanalyz ed
Ġpropag ation
Ġdisclos es
' ll
, -
. âĢĶâĢľ
9 5
C ogn
G E
G e
J ust
M any
T e
a fe
b urd
c ation
f requ
g ner
j ur
l iving
n y
n os
n ations
n ers
o hn
p ol
r oyal
t of
u be
w ide
Î µ
Ï Ĥ
Ï ī
Ġ xim
Ġ icable
Ġt le
Ġt em
Ġt ers
Ġt ast
Ġt empor
Ġa ud
Ġa ces
Ġa ined
in ex
in sp
in stit
Ġo ly
Ġo le
Ġo od
Ġo unt
Ġthe ism
is position
en ance
at om
at ibility
Ġw ards
Ġc el
Ġc oll
Ġs ou
Ġp s
Ġp u
Ġp ens
Ġin ce
Ġin cess
Ġin cogn
Ġm other
Ġf ace
Ġf ine
Ġn er
Ġn ight
Ġe ight
Ġe book
Ġit er
Ġit ive
Ġd angers
Ġcon quest
ut s
Ġh ome
Ġpr on
Ġu ring
Ġu bl
the red
im ination
Ġan ted
Ġon d
Ġl a
Ġl ived
Ġwe igh
ur rection
Ġg ar
ci o
ci p
ir k
Äł X
Äł id
Äł her
Äł fin
Äł mat
Äł ro
Äł with
Äł there
Äł pur
Äł pres
Äł origin
Äł Be
Äł pret
Äł continu
ĠI C
ul us
ul ous
ul ating
Ġde ception
Ġde pre
ĠT ibet
pp ed
il ater
us al
Ġal ism
id ical
Ġat is
Ġat ory
ab und
me l
me asure
Ġun mistak
tr ogress
tr ouble
Ġr hapsod
Ġso il
Ġv ivid
Ġse lected
od ing
ĠB l
ĠB ox
stand es
Ġhe mat
pr a
all a
Ġim ent
Ġim measur
ard ly
Ġk ill
ind irect
cul pt
Ġsh oot
ĠF rance
ex tr
Ġmor t
ĠP RE
ĠP enn
Ġapp ended
Ġdis solution
Ġdis ease
so vereign
be gr
ĠS he
Ġfa re
ĠN AT
el ucid
Ġpur poseless
ĠC E
Ġpl es
Ġgr ace
Ġgr ants
ber t
Ġcont ext
ĠH aving
ĠR O
Ġinde bted
ĠE ffect
ĠE ss
ÃĦÅĤ A
ÃĦÅĤ per
ÃĦÅĤ un
ÃĦÅĤ pre
ke pt
Ġent ion
Ġmat er
Ġ1 10
Ġimp at
av y
determin ant
ĠU nd
Ġac k
fl ow
ĠL eibniz
Ġstr atag
Ġcommon wealth
app oint
Ġi ation
Ġres c
Ġres sed
ER S
ma ment
Ġel astic
ath y
Ġfur thered
Ġmen ace
Ġsuccess ors
Ġgu est
Ġ2 7
Ġsol utions
Ġsc r
Ġing en
Ġphysical ly
Äłs um
Ġart ifici
des p
ext ingu
ull ed
Ġexamin es
Ġ5 7
Ġins ists
Ġcompre hensibility
Ġfield s
Äłc r
Äłc ur
Ġpain ting
Äłre st
Ġcriticism s
Ġoff ended
ific ed
Äłp ass
Ġdel iver
Ġinter rupted
Ġgen esis
Ġprop he
Ġprop ounds
Ġfl o
Ġfinal is
Ġold est
mathemat ically
ins pir
Äłde cl
Ġdown fall
Ġindis putably
Ġpublic ly
Ġpublic ity
Äłb ene
adv antages
Äłh yp
Ġconstruction s
Ġprevent ing
Ġstandard s
ÄłC ON
rest ing
Ġbor n
Ġfail s
Ġearth ly
Äłcon v
Äłcon cl
Ġdev oid
Äłw ar
Ġ15 5
aff ord
Ġbad ly
Ġinquire rs
Ġprot est
supp lies
cr acy
common ly
Ġcent ral
Ġtransg ressed
see king
Ġattr active
mod us
AT ES
OM ENA
af ted
Ġdream ing
Ġcultiv ated
10 9
Ġexerc ising
Ġsacr ifices
Ġsacr ificed
alt ered
Äłsu ff
Ġintuitive ly
Ġinstit utions
Ġreconci lable
Ġaltern ative
Ġaspect s
Ġneighbour s
Ġstead y
Ġyield ing
Ġprepar ing
Ġprepar atory
Ġud ed
gen us
Ġound ed
Ġou ld
Ġspo iled
Ġastr onomy
ĠPsych ological
Ġjur idical
Ġelucid ation
Ġsedu ctive
Ġdwell ing
Ġdeed s
prot ect
Ġgold en
high ly
won der
Ġabund ant
Ġdiss ension
Epic urus
Ġchall enge
Ġbarbar ism
Ġfif ty
Ġ568 3
ĠÎ º
Ġash amed
Ġprocure s
Ãı Ä
Ġshap es
Ġtou ches
ĠPa ul
Ġapod ictical
Ġveh icle
Ġprompt ed
Ġbal ance
slight est
Ġcongr uent
advert ently
ĠDialect ics
kran z
ĠSCI ENCE
ĠScript ure
apole on
ĠPHILOSOPH ICAL
Ġimmeasur able
ĠNAT URE
Ġstratag em
, {
: âĢĶ
; âĢĿ
D em
D ON
D eduction
E X
E d
H ypothe
L ev
M ON
M ILL
P re
P ain
S im
S ol
S olution
_ .âĢĿ
b and
c is
c le
c um
e enth
f ord
f ashion
g old
g over
g ression
g overn
h ast
h tm
h alf
i hi
j us
j et
l iness
m us
m ount
m icros
o is
p ul
p ires
Â ¤
Ä ī
Î ¼
á ¼
Ġ ,
Ġ :
Ġ Äł
Ġ ivers
Ġ edu
Ġ irm
Ġ ization
ı Ä
Ġt rees
Ġa il
Ġa kes
Ġo x
Ġo de
Ġo int
Ġthe me
re ached
it a
it ly
it het
is ters
en ni
at s
er ious
Ġc ate
Ġc id
Ġc um
Ġc hed
Ġs ic
Ġs ong
Ġs ible
Ġs ix
Ġs ibility
Ġp op
ic y
ic um
Ġin cul
Ġin flict
Ġin advertently
Ġb end
Ġb ungl
or f
or um
Ġm ount
Ġm arr
Ġm ihi
Ġf o
Ġf olly
Ġf athom
an c
an ch
an atory
ed ition
ed iency
Ġn our
Ġe c
Ġis ation
Ġis land
le et
Ġit io
Ġre ed
Ġre inen
Ġd are
Ġcon nex
Ġcon strained
Ġcon noisseurs
Ġbe at
Ġbe aten
ent ive
ent ium
Ġh y
Ġas ure
Ġu it
im manent
Ġan ge
Ġon omy
Ġl apse
Ġfor ty
ess entially
de cid
de light
ur ate
ur able
cept ibility
Ġg est
Ġg ame
Äł Y
Äł om
Äł ple
Äł ge
Äł et
Äł op
Äł ens
Äł pe
Äł dom
Äł where
Äł TH
Äł constit
Äł neg
Äł assert
Äł design
Äł acqu
Äł off
ĠI TY
qu a
qu ire
if ting
if iable
Ġpro xim
Ġpro posing
Ġpro verb
ĠT IC
ĠT ABLE
ch all
ch mann
il ious
Ġha ir
Ġat ic
Ġat ure
Ġun ique
Ġun think
Ġun fold
Ġun favourable
Ġun willing
of ficial
Ġr ow
Ġr ib
Ġsp ared
her s
Ġv i
Ġem pt
od ox
ĠB rit
Ġhe tic
Ġhe ars
ak er
su ited
Ġab use
Ġim moral
Ġim prove
Ġim properly
Ġim mense
Ġper verted
Ġnecess ities
Ġj unction
Ġsh ut
Ġsh ines
ĠF l
ĠF ran
ĠA T
un ts
Ġcons cient
Ġtheir s
ĠP L
to ld
Ġdis sol
Ġdis pose
Ġdis miss
Ġar ing
Ġar ily
te chn
et ies
et te
ag ment
Ġfa st
ĠN apoleon
fin e
am a
am med
Ġpre conceived
ĠC ent
ĠC ol
Ġpl ung
ĠW y
ĠW al
ĠW isdom
Ġen joys
Ġen lightenment
ĠH utcheson
ac r
ac ute
Ġfe ared
ĠE d
Ġdisc ursively
ÃĦÅĤ E
ÃĦÅĤ M
ÃĦÅĤ e
ÃĦÅĤ sub
Ġext ensions
Ġhapp ier
Ġout break
Ġexp ounded
oun ted
Ġent ia
Ġmat ical
ĠRe flection
Ġappl ause
ĠM ight
ĠM OD
Ġimp els
Ġhere tof
cons ent
ern al
Ġkind red
Ġexpl anatory
fl amm
ĠL ast
ĠL eg
ĠL ouis
Ġhand ed
Ġcomp uls
Ġcl osing
Ġi ent
Ġi que
Ġmanifold ness
Ġres sion
othe ism
Ġright ful
In t
Ġsupreme ly
Ġphys ic
Ġer y
rel ative
Ġconform ing
Ġed it
Ġleg acy
Ġant ip
Ġant agonism
ĠĠĠĠĠĠĠĠĠĠĠĠĠĠĠĠĠĠĠĠĠĠĠĠ ĠĠĠĠĠ
Ġless en
Ġing ly
Ġmaterial ist
Ġmis ery
Ġvar iation
ĠAs soci
ĠK ing
Ġdialect ics
Ġbeginning s
Ġallow ing
ĠÂ§ Â§
right s
-- _
ĠHe gel
._ )
Ġ5 4
Ġ5 8
br id
ĠAr ithme
ĠAn schauung
where in
Ġ4 4
Ġ4 6
Ġ4 8
ĠV on
Ġspring ing
Ġinfer ior
IS H
Ġintu it
Ġsur faces
Ġdeterminate ly
Ġmechan ics
ynam ical
Ġmoment ary
Ġfore go
Ġfore thought
Ġtranscendent ly
Äłp at
Äłp ain
Ġprof itable
Ġappro aching
Ġul ar
ĠÃ ıÄ
Äłf av
Ġagree ing
Ġlear ning
Ġcare lessly
Ġsignific ant
Ġ6 7
Ġfl owers
Ġ7 3
Ġ7 9
Ġcoun ted
Ġuseful ness
Äłde f
Äłde fin
Ġir ref
Äłm ist
Äłm agn
possess ing
sens us
OR Y
Ġredu ces
Äłh um
Äłh armon
Äłt w
Ġannihil ation
Ġback ward
Ġopen ing
investig ated
ĠSe gner
Ġconfin es
Ġbene ath
atio cin
Ġsubsum ing
Ġdev ised
Ġdev iation
Ġcommun icable
ÄłM e
ĠĠĠĠĠĠĠĠĠĠĠĠĠĠĠĠĠĠĠĠĠĠĠĠĠĠĠĠĠĠĠĠ ĠĠĠĠĠĠĠĠĠĠĠĠĠĠĠĠĠĠĠ
Äłv is
expect ation
Ġmajor ity
Ġ15 0
Äłpr ot
Äłdis p
Ġont ology
Äłex c
ĠIN CI
Ġaccur acy
Ġmon arch
Ġmin er
ÄłE X
Ġil ed
establ ishment
Ġid olat
Ġweak er
Ġconfess es
ĠWh ich
Ġpat ience
Ġpat ches
gener ation
Ġhard er
conv ince
ĠCom p
ĠCom parison
Ġ12 5
Ġast er
.. .
Ġrecomm ends
Äłan im
Äłan aly
concl ude
progress ive
Ġpremis es
Ġdepart ure
commun is
Ġrevol utions
Ġinward ly
cap acity
Ġcommunic ates
Ġcommunic ating
anticip ated
Ġcour ses
Ġaugment ation
Ġdr ive
Ġos m
ativ a
ĠEngl and
Ã© t
Ġmyst erious
Ġchild ish
Ġmil es
Ph ys
ĠWhere as
Ġfam ous
ĠTrans lated
ah r
Ġpraise worthy
introdu ces
Ġct ive
Ġsust enance
accompan ies
POS ITION
Ġou gh
Ġep ithet
Ġencour aged
cultiv ation
Ġastr ay
van ity
Ġredistrib ution
ĠVol taire
Ġcustom s
Ġrig id
Ġapt itude
Ġcut ting
ĠAR TIC
ĠDetermin ation
sent iment
ÃĦÅĤÃĦÅĤÃĦÅĤÃĦÅĤÃĦÅĤÃĦÅĤÃĦÅĤÃĦÅĤ ÃĦÅĤÃĦÅĤÃĦÅĤÃĦÅĤÃĦÅĤÃĦÅĤÃĦÅĤÃĦÅĤ
Ġgrate ful
ĠUT F
Ġantiqu ated
Ġtern al
enge ance
Ġargu es
ĠOrigin al
gy pt
depr ived
Ġabund antly
Ġban ish
Concl usion
igen esis
Ġjuris prudence
oh ammed
Ġpred isposition
Ġindustr y
Ġrapid ly
superior ity
Ver standes
moun tains
Ġsink s
Ġadjust ed
Ġcou pled
Ġeff emin
Ġador ned
acknowled ged
Ġundes igned
Ġforest all
eth ical
Ġmir ror
Ġarous ed
prejud ice
ĠAP PENDIX
Ġenc oding
instrum ent
Ġfeat ures
ÄłPh ys
vestig ation
idel ity
REM ARK
Ġfet ters
Ġgod s
ĠMain e
ĠJew s
Char acter
atom ist
Ġunmistak able
elucid ate
Ġartifici ally
Ġconnex ions
Ġproxim ity
Ġheretof ore
ĠAssoci ation
ĠArithme tical
' ,
0 3
9 2
9 3
? _
A H
A U
A xioms
C an
D is
D el
D ES
D avid
F reedom
F OU
I nd
I ll
L or
L ake
M ont
N or
N ol
O THER
O kl
P un
P ost
P rop
S ubl
T eleology
V anilla
W iz
_ .[
a i
a ign
a ult
b id
b orn
c ate
c hen
c ans
c ens
d r
d ich
d ate
d ism
d iction
e k
e ur
e ternity
f ool
f oot
f ederation
g em
g ments
h int
h ouse
h osp
i end
i unt
k ill
l ay
l iber
l imin
l anguage
l van
m ing
m ar
m ni
n arrow
o ble
p ate
p ode
p upil
r ic
s al
s we
s oft
t ling
u ed
u ber
u fact
v est
v iate
w re
w ind
w hence
y ears
z ard
Â ¶
Ġ /
Ġ ;
Ġ nder
Ġ ertain
Ġ ici
Ġ ider
Ġ ided
Ġ iety
Ġ ibly
Ġt ac
Ġt orn
Ġt ones
Ġa ment
on ant
in er
in ferred
Ġo id
Ġthe at
re str
re fin
re mit
re pet
en em
Ġs ist
Ġs incerity
Ġs kept
Ġp it
Ġp ly
Ġp il
Ġp ie
al d
ic ative
Ġin most
Ġin ert
Ġin sect
Ġin verse
Ġin hab
Ġin heres
Ġin numer
Ġin extingu
Ġin flamm
Ġb os
Ġb ject
Ġb ast
Ġb arr
es crib
Ġth in
or as
or my
or ously
or ters
Ġm our
Ġm arch
Ġto p
Ġto il
Ġf ost
Ġf oun
ou ched
Ġe b
Ġe ffici
se ven
le ments
le aving
le jo
Ġre act
Ġre sem
Ġre versed
Ġd ar
Ġcon st
Ġcon str
st ret
om s
ent er
ot ic
ot omy
ut ary
ut ants
Ġh ate
Ġpr ized
Ġu ity
Ġu ch
Ġu str
iv ating
the tical
im posed
os c
os ed
os pect
Ġan atomist
Ġon ic
Ġon us
Ġl ad
Ġl iar
Ġl iter
Ġl iterary
Ġl abor
Ġl oud
Ġnot ed
Ġwe ary
de re
de ep
Ġsu p
cept s
cept io
Ġg ed
Äł ow
Äł il
Äł um
Äł est
Äł present
Äł ear
Äł object
Äł reason
Äł read
Äł contradict
Äł comple
Äł AR
Äł just
Äł caus
Äł val
Äł expl
Äł obser
Äł legisl
Äł common
Äł Tr
Äł organ
Äł Im
Äł qual
Äł Ãİ
th ir
ver ts
qu ir
res pon
and a
ul ent
per se
per formed
per miss
per ceptio
Ġde fer
Ġde af
Ġpro curing
ĠT R
ĠT ell
ĠT enn
ch ant
ch li
con joined
Ġint us
em an
end orf
Ġat a
Ġat ter
Ġat um
ab ere
Ġun ions
Ġun hes
Ġun sus
Ġun prot
Ġun solved
Ġun sought
Ġun cultivated
Ġca res
min e
cess ary
um en
Ġlaw lessness
Ġr ud
Ġr ouse
Ġsp rang
est ial
Ġv ation
Ġv ouch
Ġv eneration
Ġv engeance
Ġse as
Ġse verest
Ġse vered
Ġse gments
Ġunder gone
ĠB on
Ġhe ard
Ġtr i
Ġtr u
Ġtr ained
ad ise
Ġab stain
Ġim in
Ġim ate
Ġim probable
Ġper f
Ġper tain
ori an
ant it
ant agon
ind ivid
Ġj ew
Ġus ions
Ġif ies
Ġst ant
Ġst ance
Ġst ories
ph arm
Ġsh ift
ĠF ar
ĠF red
ĠF RE
ĠF ailing
Ġnature s
ex empl
Ġqu od
Ġev asion
our ces
Ġrel inqu
un cor
un recogn
un pleasantness
un enforceability
Ġacc ounted
ĠP ur
ĠP lat
Ġapp endix
Ġdis ci
Ġdis sim
Ġdis pensable
Ġdis eng
Ġdis agreement
Ġdis agreeable
cl osing
Ġar bit
be tr
Ġle x
ĠS P
ĠS w
ĠS mall
ĠS ocr
te le
Ġch art
Ġaccord ed
sp ite
ag oras
ĠO M
ens urate
int est
Ġsub serve
el abor
am pl
am big
pre mis
Ġgener ate
Ġpre determined
Ġpre cip
Ġspe lling
ĠIn vestigation
ign s
ivers ity
com ply
com pens
The ory
Ġen n
Ġdes cribing
ĠH oly
ollow ing
Ġow es
Ġob viate
ĠR h
ĠR ather
Ġfound ations
old ing
Ġpos se
âĢĿ ,
Ġend anger
ink s
Ġfollow er
ĠE t
ach use
Ġrational istic
stit utes
Ġdisc our
ÃĦÅĤ en
ÃĦÅĤ im
Ġemploy ments
Ġext rem
Ġind ulg
med iation
med iating
ne y
ne hm
ell en
). [
Ġam pl
Ġent ial
Ġatt entive
ĠRe al
ĠRe ad
ass ured
Ġnatural is
Ġsim ul
Ġdifferent ly
Ġ1 13
Ġcrit ically
ĠPro positions
ĠM a
ĠM ot
ĠM il
ĠM ON
ĠM OM
ĠM AC
ĠM olt
ĠM ohammed
Ġimp utes
Ġinv ari
Ġpoint ing
ĠU r
Ġref usal
Ġexpl icative
Ġac hes
there from
Ġcomm ended
Ġcomm ensurate
fl atter
ĠL a
ĠL ord
ĠL imitation
Ġwhere of
Ġconc ord
Ġconc ert
Ġconc aten
app et
app eal
Ġcomp end
Ġrest or
ident ial
Ġdiv iding
Ġi er
Ġi ld
Ġres pond
Ġremain der
dis content
dis sect
Ġdedu cible
Ġtruth ful
Ġsupp orters
Ġmetaphys icians
ique Sol
TI F
TI TY
irm ative
Ġocc ult
Ġel icit
Ġfin ish
sub mit
sub ordination
Ġset tling
ĠCon tradiction
fer t
fer re
Ġes tr
Ġnum bered
mis chievous
Ġconf use
arr ower
gr own
Ġexer ts
Ġnew ly
Ġwant on
AL IS
ps es
ĠJ e
ĠJ ohn
Ġmethod ically
isl and
Ġequ ivocal
Ġanswer able
Ġprov idential
Ġcontin ent
up ulous
Ġ3 1
Ġ3 6
Ġden ounce
Ġden oted
Äłs us
Äłs atisf
Ġbr igh
pur ch
Ġce ived
Äłin tr
Äłin tellig
Ġwar like
right ful
Ġund iminished
fe as
ix t
ĠHe aven
._ ;
what soever
Ġ5 1
Ġ5 6
br ief
Ġtrans form
Ġtrans ference
ĠAr ts
Ġvol can
Ġpar adise
inde red
inde monstrable
Ġful ness
Ġauthor itatively
Ġtreat ies
Ġcompre hens
Ġpret ending
go es
yn astic
Ġign oble
Ġmed iation
IN ATION
ĠUn ion
Ġpain t
Äłre n
Äłre cogn
just ly
sist ence
Ġfr agment
imp ot
Ġfore seen
Äłp un
Ġabstract s
Ġking s
Ġlear nt
Ġintrodu ctory
Ġpeace able
cur rent
Ġ9 7
Ġ9 8
separ ation
separ ately
Ġdeser ts
Ġmanifest ed
Ġmanifest ation
Ġprop ound
Pro legomena
vol unteer
Ġacqu ies
Ġ6 3
Ġ7 2
Ġ7 50
quant itative
Ġreflection s
Äłde monstr
Ġlight en
Ġlight ly
Ġopp ortunities
Äłd r
Ġadopt s
log ically
Ġation al
Ġmet amorph
presu pposing
Ġclass ical
imin al
den y
Ġdom estic
ÄłP U
ÄłP RO
than k
ĠSo cial
Äłb u
Ġrep etition
Ġ8 3
Ġadm ired
Ġplay ed
Äłl ab
ÄłS p
when ever
ÄłA l
ÄłA m
Ġfan atical
Ġdef ended
Ġdef ensive
." ]
Ġgl or
discover ies
Pr of
ref use
Ġcr iminal
Ġprocess es
super natural
Ġteleological ly
Ġsubsum es
feel s
Äło pp
Äło blig
ĠDe fin
Ġcommun ion
look ing
Ġgovern ments
Con s
An alytical
Ġavail ing
Ġshort ness
Äłv iol
Äłw r
Ġmeasure s
Ġintention al
before hand
view ed
Ġwr ite
ĠEm pire
Ġhabit ual
Ġgrad ations
Qu ant
Äłex cl
Ġeng age
Ġextr aneous
cr ut
Ġmon otheism
Ġcal oric
Ġbold ness
ĠNe cessary
Ġil ities
appro pr
Ġheav ens
establ ishes
Ġsuff icing
Ġve getable
Ġcompl aint
Ġaccompl ishment
Ġpolit ician
Ġ20 16
found ations
mo ved
Ġinf using
17 5
17 8
mod ality
mod ification
ÄłÄłÄłÄłÄłÄłÄłÄłÄłÄłÄłÄłÄłÄłÄłÄł ÄłÄłÄłÄłÄłÄłÄłÄł
Ġast ic
Ġobjection able
Ġsusp ension
Ġcultiv ating
ĠTr ademark
Ġapprehend ing
assum es
ra ft
Äłan n
material s
Ġapproxim ates
Ġcle aving
prop ortions
distrib uted
distrib uting
Ġimpart s
ĠPhys ic
Ġpenetr ated
Ġann ounce
organ ic
Ġ18 8
Ġdepart ments
Sect ions
affect ion
affect ions
osen kranz
chang ing
Ġguarante es
Ġdimin ution
analog on
evol ent
Ġentertain s
understand s
sus ceptibility
Ġ13 0
Ġ13 5
ĠGer mans
ĠIs land
embr ace
ĠApp endix
Ġos s
Ġfix ing
Ġclos est
De fect
St ill
Ġtext s
admit s
Ġcontempt uous
furn ished
ĠÂ ·
Ġphilosoph ically
Ġirre voc
sur face
excl udes
accomp any
Ph ilos
Un ited
Ġboast ful
section s
pursu e
invol ve
Ġdem ocracy
Ġirresist ibly
Ġfat alism
UND ER
Ġud ing
grat ification
enevol ent
accur acy
accur ately
Ġcontrover sies
Ġanim ated
hon est
hon our
Ġish ment
hens io
ah om
acqu ired
Ġcompr ise
Ġimped iment
Ġste el
Äłind u
Ġweakness es
Ġspo ke
ĠSub stant
ĠSub sistence
isc hen
Äłdes p
Ġpunct ilious
test ed
Ġsw allowed
mail ing
van ishes
Ġdegr ading
fal sely
Ġwicked ness
Ġjud ici
Ġconsult ed
keep ing
FL EC
lie u
perform ances
Ġreluct antly
belie ves
Ġhost ilities
Ġsuit ability
Ġ80 9
ĠID E
Ã¢Ä¢Ä ¶
Ġthrow s
Ġsal utary
Ġbes et
conflict ing
Ġpersist ence
Ġquick en
emin ent
emin ence
Ġsharp est
ĠEN T
exerc ised
Ġattract ed
ĠUNDER STAN
dest ined
Ġcrib e
Ġcrib ed
Ġstopp ing
Ġindivid uality
Ġcoal es
carr y
Ġcredential s
Ġincorrect ly
Ġdecre ases
contempt ible
Ġtempt ation
spread ing
Ġbarbar ic
Ġbro ad
Ġmit ted
conject ures
hist orical
Ġfif th
Ġconqu er
Ġunjust ifiable
ĠPOSSI BLE
ĠGe org
ĠGe ometry
Ġsummon ing
Ġade pt
Ġabsor ption
loc ations
Ġsag acious
Ġbit ter
ĠOnt ology
Ġdisappoint ed
Cont ents
Ġstat utes
redistrib uting
Ġtou ched
sec ute
Ġdefeat s
Ġevol ved
Ġcommend able
ÄłÄłÄłÄłÄłÄłÄłÄłÄłÄłÄłÄłÄłÄłÄłÄłÄłÄłÄłÄłÄłÄłÄłÄłÄłÄłÄłÄłÄłÄłÄłÄł ÄłÄłÄłÄłÄłÄłÄłÄł
dam ages
Ġpoly theism
Ġinit ial
Ġmill enni
Ġmast ers
Ġdeb t
Ġsubt ile
prepar ation
Ġordin ances
display ing
Äłcoun ter
comput ers
ĠSpinoz a
ĠSpinoz ism
itating ly
erum nos
Ġprogram me
Ġallot ment
Ġva unted
Ġdismis sed
ĠLL C
Ġwond ers
stud y
Ġprae ter
ĠIM M
Ġunre strained
Ġtra versed
Ġrock s
schemat a
Ġchalleng es
Ġ997 75
rus ius
Ġtow er
Ġorn ament
Ġserv ant
LEG OMENA
Sh ould
viol ates
Ġdepth s
ĠPolit ical
Spinoz ism
Ġemin ent
Ġdomin ant
frequ ently
royal ties
Ġcel estial
Ġgar ment
measure ment
ĠBl unts
extr avag
ĠUnd oubtedly
desp air
DON ATIONS
MILL AN
gover ned
hast y
micros cop
Ġcompuls ory
Ġtac itly
Ġtheat re
Ġpie ces
Ġinnumer able
Ġinextingu ishable
Ġinflamm able
Ġbos om
Ġbast ard
Ġfoun tain
Ġeffici ency
Ġunhes itatingly
Ġunprot ected
Ġjew el
Ġdissim ulation
Ġarbit er
ĠSocr ates
ĠMOM ENT
ĠMAC MILLAN
ĠMolt ke
Ġinvari ably
Ġconcaten ation
Ġbrigh ter
Ġ750 175
Ġmetamorph osed
Ġirrevoc ably
ĠUNDERSTAN DING
Ġmillenni um
ĠBlunts chli
( Â§
A B
A pr
A str
B od
B ole
C OR
D as
D ak
D et
D IS
E dition
E ither
E EN
F UT
G L
G es
G ign
H amps
I P
I ndeed
L ook
L ED
L LI
M ich
M and
M ore
M ast
N un
N umer
N IG
O p
O v
O x
O ne
O nt
O UT
P henomen
P ers
P AR
P lat
S cept
S ach
T ot
T em
T aste
T ec
T ALITY
V ar
W ar
W el
W ell
W IS
Z en
_ ]
b ind
b oast
b orrow
d y
d ur
d ence
d ise
d ro
d ile
d own
d uration
e e
f at
f ol
f oc
f als
f elt
f ourth
f antas
f leet
g ave
g enealog
h ur
h ole
h arm
h alla
i is
i en
i ogn
i ably
i othe
i ogen
j ube
k ak
l ate
l ower
l ively
l ax
l ater
l oss
l aps
l ength
l oric
l aud
l ibet
l band
m ith
m ag
m ole
m Ã¤
n amed
n cret
o v
o ever
o pposes
o ister
p ay
p ered
p overty
p ushed
r ise
r ane
r ip
r ival
r ained
r ho
r uns
s edu
s ident
s af
s igns
s crut
t es
t ol
t ig
t uition
t ension
t ax
t ender
u end
u ine
v is
v il
v ig
v iction
v isible
w is
w es
w aver
x es
y ours
z ing
~ ),
Ã ª
Ã Ĥ
Ã ĸ
Ï Ģ
Ġ <
Ġ Ċ
Ġ âĢĶ
Ġ ),
Ġ irect
Ġ hension
Ġ ield
Ġ idence
Ġ iction
Ġ icious
Ġt ort
Ġt ied
he ard
he aded
he avy
Ġa ter
Ġa qu
Ġa ther
Ġa med
Ġa dequateness
on ten
in it
in complete
in conce
in fall
in compar
in still
in secure
in herence
in determinable
Ġo th
Ġo ys
Ġo pe
Ġo my
Ġo ured
Ġthe w
Ġthe istic
re ce
re ward
re ption
re vel
re vere
re aching
re search
re public
re arrang
re jected
re miss
re inst
re trogress
it ure
is os
is diction
en ables
en joys
at i
at able
at iable
er vation
er gy
Ġw o
Ġw omen
Ġc y
Ġc ited
Ġc hes
Ġc row
Ġs n
Ġs ib
Ġs well
Ġs ick
Ġs atir
Ġs plend
Ġp end
Ġp pos
Ġp all
Ġp position
Ġp pose
Ġp posed
Ġp posing
ic ations
ic acy
Ġin k
Ġin al
Ġin flu
Ġin consider
Ġin serted
Ġin access
Ġin active
Ġin considerable
Ġin imitable
Ġin convenience
Ġb oy
Ġb read
es cap
es quie
or se
or id
or phist
or ibus
Ġm ad
Ġm ild
ce l
Ġf ic
Ġf il
Ġf ond
Ġf ores
an as
an ies
ed s
ed er
Ġn i
ou re
Ġe at
Ġe ur
se a
se ld
Ġis on
le ag
Ġit ions
Ġre now
Ġre pose
Ġre posed
Ġre bell
Ġre acts
Ġd ed
Ġd ition
Ġd aw
Ġd ig
Ġd ra
Ġd inner
Ġd ynastic
Ġcon ic
Ġcon fluence
Ġcon demn
st ory
st amp
st ormy
Ġbe ware
om orphist
ent ance
ent uck
ent angle
ar ice
ar cation
ar mament
ot ing
ot ions
as ide
as hing
as hes
as ym
Ġh al
Ġh indered
Ġas ion
Ġas ing
Ġpr ice
ll ess
Ġu ality
iv ol
the olog
the sis
the tic
the ian
the osoph
im en
im measur
os a
os ition
Ġan a
Ġan k
Ġan ch
Ġan eous
Ġex termin
Ġl ame
Ġl ax
pt ember
pt ivating
ess im
de ter
de gr
de cr
de grad
de cision
de aling
ur ia
ib ilia
Ġsu e
Ġg id
Ġg ard
Ġg erms
ci an
ir ous
ir mat
ir reconci
ir chmann
Ġwith al
Äł Z
Äł ing
Äł os
Äł min
Äł of
Äł ty
Äł less
Äł exist
Äł ident
Äł nat
Äł represent
Äł ep
Äł cre
Äł IN
Äł respect
Äł appl
Äł separ
Äł consist
Äł mathemat
Äł employ
Äł speci
Äł conform
Äł success
Äł Wh
Äł appre
Äł material
Äł need
Äł Ide
Äł abs
Äł intu
Äł class
Äł grat
Äł ideal
Äł circum
Äł preser
Äł express
Äł myst
Äł illustr
Äł philosoph
th read
ver n
qu i
qu od
qu iet
og ony
res ol
ist ingu
ist orical
ul ity
ul ary
per tain
per man
per forms
per dur
ception em
Ġde qu
Ġde tain
Ġde ism
Ġde als
Ġde parts
Ġde posits
ve ill
Ġpro jected
ĠT OR
Ġall oyed
ch ican
con ca
con du
con strained
Ġreason er
il as
il ate
il ful
il ium
Ġal ive
Ġint ol
em s
ple asing
id able
end ure
end less
end owed
Ġha zard
Ġat ives
Ġat ors
ab it
ill er
ill imit
aw aken
ol ix
Ġun te
Ġun ass
Ġun critical
Ġun educ
Ġun intention
Ġun eas
Ġun animity
Ġun changing
min isc
min uend
um p
um mat
um ble
um ni
Ġcom for
tr a
Ġlaw fully
Ġlaw fulness
Ġr ous
Ġr isen
Ġr hetoric
Ġsp at
not her
Ġv iv
Ġv ind
Ġv ote
Ġv arying
Ġse less
Ġse ize
ĠB Y
ĠB ook
ĠThe sis
Ġhe w
Ġdo or
ound ing
Ġtr am
Ġtr ah
su it
su pre
pr ae
Ġno bly
pos sident
Ġform idable
ad ic
ad vers
ad uc
Ġab used
Ġab iding
Ġab leness
all er
Ġim pract
Ġper il
Ġk not
Ġk ai
ant agonism
ind escrib
ind istingu
Ġj eal
Ġj ump
Ġif ying
Ġst ances
Ġst up
Ġst ret
ph or
out ly
Ġsh un
ĠF inal
ĠF isc
art icul
art iculation
ĠA ES
ĠA ges
ĠA pode
ex pon
Ġcogn ate
Ġcogn osc
Ġqu am
Ġev ading
un e
un ge
un ft
un inter
un fit
un fold
un exception
un yield
un veil
un suited
Ġman ners
Ġcons onant
Ġcons ervation
ĠP ress
ĠP oint
ĠP ower
ĠP neumat
Ġad ing
Ġad mis
Ġad hering
Ġdis like
Ġdis proved
Ġle af
Ġworld ly
ĠS ens
here nt
Ġpart is
Ġpart icle
str ive
str iving
str aight
Ġch ose
Ġch air
Ġch ican
et a
et z
et amorph
tern e
ag ent
ag ious
ag matical
ĠO B
ĠO G
ĠO L
ĠO P
ĠO per
ĠO pposed
ens ch
ress ing
Ġsub serv
el le
sol ip
am und
am atic
pre v
pre formation
pre liminary
pre limin
Ġgener ic
Ġpur ify
Ġpre y
Ġpre fixed
Ġpre fix
ĠC L
ĠC o
ĠC OP
oy age
ĠG o
Ġpl ic
Ġgr av
iz ations
mon ogram
ĠW inde
ĠW oh
olog ist
olog ists
solute ly
ort s
rit us
Ġpresent ment
Ġcomple tes
com form
com mit
com pe
com part
com posit
Ġcont agious
Ġen ing
Ġen se
Ġen counter
Ġen ric
Ġen closing
Ġdes irous
ĠH or
ĠH ave
ĠH istorical
form ative
Ġcontr ive
Ġow er
ro bor
ser ious
ĠR om
Ġdist ances
Ġpos es
âĢĿ ?
ac op
ac knowledge
ac erv
Ġend ure
spect ion
spect acle
pro xim
Ġrem orse
ĠE C
ĠE M
ĠE ternal
Ġdisc overer
Ġorder ly
ÃĦÅĤ ad
ke y
icul a
icul ate
over come
over bor
par allel
Ġout look
Ġexp anded
Ġexp ediency
ell ow
Ġeffect ual
). --
Ġam iable
Ġam bitious
ĠD ev
sy non
sy llogistic
sy lvan
Ġatt ending
Ġlog ician
ĠRe public
ass achuse
Ġnatural ists
ble matical
ok o
Ġ1 15
Ġ1 000
reason ed
reason ably
ĠPro per
Ġorigin ality
Ġimp ute
Ġimp el
Ġimp uted
Ġimp uting
Ġimp etus
cogn ised
av ed
av ish
av ages
Ġinv ites
Ġinv ested
cons iders
cons ummat
ĠU L
Ġref rained
Ġac r
there on
there with
ĠL A
Ġwhere on
Ġass ault
Ġcomp anies
Ġap ology
Ġcl o
Ġcl im
Ġdiv er
Ġdiv est
Ġi qu
Ġi ans
Ġi ality
Ġi ating
Ġfree zing
Ġres ses
Ġres ource
Ġadv ent
Ġadv ocate
dis appear
dis appeared
Ġexpress ive
In finite
In no
In corrupt
Ġill imitable
Ġmetaphys ician
pend ant
Ġconsist ed
Ġup per
rel inqu
Ġstand still
sub sequent
sub reption
read er
read ers
ĠCon nect
Ġpurpos ed
ep ing
Ġed ited
sert ation
sert orical
Ġleg is
Ġans cendent
Ġneed y
,âĢĿ [
trib unal
mis appre
ĠTH OU
Ġimag ines
gr afted
ĠĠĠĠĠĠĠĠĠĠĠĠĠĠĠĠĠĠĠĠĠĠĠĠ ĠĠĠ
Ġsc ant
Ġsc ru
Ġsc orn
Ġover throwing
Ġover flow
ĠSu ccess
ck er
ck et
Ġcommand ments
dom ain
ĠPr ior
ĠPr ussia
Ġpass ively
Ġmis apprehension
Ġmis chievous
Ġexcept ing
Ġcontin ents
Ġvar ieg
will ingly
dist ance
Ġpreced ence
Ġden ial
fa hrung
Äłs k
Ġappre ciate
Ġart ists
Ġart ifices
pur poseless
RE ASON
RE FUT
des pot
Ġce ed
Ġce ive
Ġav ow
Ġav arice
ĠĠĠĠĠĠĠĠĠĠĠĠĠĠĠĠĠĠĠĠĠĠĠĠĠĠĠĠĠĠĠĠĠĠĠĠĠĠĠĠ ĠĠĠĠĠĠĠ
Ġregul ation
Ġfurther s
dif fers
Äłin j
Äłin st
Äłin cl
Ġwar ned
AN TITY
Ġsing ly
Ġjustif iable
some one
Ġ5 9
Ġet s
chan ism
Ġtrans formation
Ġendeav ors
ĠAr tic
_. )
Ġins atiable
disc ord
strict ly
strict est
inde monstr
leg itim
pres sible
pres cribing
sh arp
oc ritus
Ġmed dle
Ġmed ley
igh s
Äłc le
ĠUn iversity
Ġpain ters
Äłre vol
All gem
Ġsur mise
Ġorgan izations
Ġcontinu i
att aching
ĠEx planation
Äłp redic
Ġdel iverance
comp el
comp ulsion
ĠÃ Ĥ
Ġlet s
respect ively
incl uded
Ġvarious ly
CE LLI
Ġinter ven
ĠObject ively
system s
ven ged
Ġprop ortions
Pro blematical
Re ality
Ġcol on
ĠRE LATION
ĠRE FLEC
Ġ6 1
perfect ions
Ġdisp elled
Ġdisp utants
Ġ7 6
quant um
satisf actorily
ins om
distingu ishes
Äłde c
Äłde t
Äłde pr
ae tern
Ġdown wards
Ġmagn itudes
Äłm ain
possess ed
Äłd i
Äłd ogmat
Ġvolition s
Ġfavour s
Ġfavour ing
speculative ly
log icians
conf ront
gu iding
soci ety
Ġconver se
.) âĢĶ
OR IES
Ġprob andi
Ġredu ction
ÄłP R
Ġcomparison s
Ġic k
Ġreflect s
Äłb ar
adv isable
adv ocate
ax agoras
Ġrep entance
Äłh and
Ġ8 1
Ġ8 6
Ġ8 9
inv iol
Ġcheck ed
Ġur ge
great ly
Äłl ist
ĠWith in
Ġplan et
content ed
crit ically
non entity
Äłt al
Äłt reat
ustr ation
mark ed
ÄłS U
ÄłS e
vious ly
ÄłA nt
Ġfail ure
Ġpract ise
attain ment
Ġformul as
investig ate
Ġgover ning
through out
ref lect
Ġcr ied
Ġcr ush
ĠSe ptember
struct ure
Ġver ge
Ġchain s
Äłcon c
Äłcon ver
Ġborrow s
Ġqual ifying
Ġsafe guard
Ġfit test
Ġdev ast
truth s
ĠDe g
Ġcommun ities
neg atively
An cient
post pone
che mist
ÄłM A
ÄłM at
Ġenjoy ed
ST UL
conting ently
Äłpr act
Äłpr of
plic anda
view s
pret end
prov ide
prov ision
Ġ10 6
Ġspecif y
Ġreturn ed
Ġunt ouched
pass es
Ġstart ling
Ġum pire
trans fer
trans lated
Ġpromot ed
ĠIN T
ĠCa pe
you th
Ġtw ice
inter vention
inter changed
inter pol
ÄłE m
Ġsound ness
Ġil is
Ġimit ative
Ġair s
Ġ0 2
co acerv
Ġid leness
Ġsuff ered
Ġsuff iced
uel le
Ġpat ched
Ġinj ure
equ itable
equ als
Ġlist ens
Ġelev ate
ATION AL
Ġtransg ressions
see ks
Ġviol ent
Ġconvin ces
Ġpo cket
Ġfaith ful
Äłen deav
Ġadmir ing
Ġvan ishing
17 87
Tr ancendent
12 8
doubt s
Ġvis ited
Ġanticip ates
tal ents
correct ed
14 2
Ġdepr iving
Ġdepr aved
except ing
ĠPer petual
distinction s
Ġrank ed
Ġcultiv ates
Ex position
Ex planation
ĠTr ade
ĠDis junctive
Ġapprehend s
among st
abstract o
abstract s
Ġcle ver
prop ensions
prop ensity
ĠAnt icipations
Ġpenetr ating
Ġcounter act
Ġcounter part
Ġbre vity
Ġann ulled
abs ent
Ġanthrop ological
prom ised
Ġprefer ring
ĠQu od
Ġpra ising
ĠLaw s
ÄłH e
answ ered
OL Y
Ġarchitect onically
affirm atively
coun tries
coun sels
Ġinst ig
Ġsubmit ting
cop ied
design ing
design ations
ret reat
indis cernib
cour t
Äład min
Ġcred ulity
Ar ithmetic
Ġgrat ified
Ġtechn ique
Ġoutward ly
Ġsubstit utes
Ġinc ited
Ġrepro ached
formal iter
educ ation
Ġimperfect ions
Ġfault s
Ġreconci ling
continu ance
sophist ry
remark able
Per haps
del ay
del iverance
Ġog ene
Ġaltern ating
Ġmulti plicanda
Ġmyst ery
sym pat
THE TICAL
Ġwid ening
Ġru pt
Ġru ins
ĠSome thing
Ġ14 0
Ġforbid ding
ĠÂ ¢
Ġphilosoph ic
Ġirre pressible
sur faces
sur theile
excl ude
excl uded
contempl ate
Ġconven iently
dogmat ic
Un iversal
Ġboast s
fav orable
que en
bar ism
bar barism
Ġpubl ication
Ġdem arcation
Ġsil ently
Ġfat ality
Ġnarrow ly
Ġnarrow est
Ġomit ting
Ġud g
Ġell ed
exhib its
Ġvag aries
prob ably
Ġ178 8
ones elf
Ġanim ality
Ġanim ates
defect s
OGIC AL
Ġobey ed
gen uine
Ġband s
Ġprohib itive
Ġdispens es
Ġguarantee ing
destroy ing
Not withstanding
POS SI
allow s
remo val
Ġburd ensome
advance d
numer ical
spont aneous
spont aneously
Ġeduc ators
process es
Ġrepeated ly
ran ks
asm us
Ġship wre
ĠMETAPHYSIC S
Ġanthropomorph ically
uss ure
Ġembarrass ment
Ġsimpl ify
ĠLOGIC AL
Ġsurpass ing
Ġcens or
ĠCogn itive
ignor ant
last ing
war ning
Ġmar iner
Ġweaken ed
soon er
prevent ed
Ġcontrol s
Ġharmonious ly
preser ve
preser ving
MP H
popular ity
Ġpol icy
Ġwithdraw s
Ġreluct ance
Ġrespon sibilities
Ġinsist ing
belie ved
Ġratiocin atae
bre aking
Ġcut s
Ġpot entially
Ġappell ations
Ġimagin ing
Ġimagin able
Ġselect ing
Ġshadow y
intention ed
avail ing
Ġ199 7
Ġcount s
Ġcount less
Ġmel anch
Ġcircul ate
Ġparallel ism
Ġomnis cience
ey es
prof ound
Ġquick ened
Ġarm ies
ste in
Ġsharp ened
Ġcontest ed
coinci dence
authoriz e
Ġecon omy
substant iae
transg ress
Ġhor se
Ġhor ses
impl ies
impl ied
Ġlangu or
Äłir re
ĠSc ott
Ġindivid ually
ĠAntit hesis
Ġcul pable
Ġlat est
Ġunden iably
Ġsymbol ical
book s
Ġwild est
depr ive
suggest s
suggest ion
pros pects
regular ly
Ġsurr ounds
Ġfanci ful
Ġmock s
Ġpragmatical ly
cal m
Ġremind ed
ĠSh all
ĠSch open
ĠSch iller
unde ter
Trans ition
false hood
inst inct
sever ity
Ġlack s
Ġwander ings
Ġfant astical
Ġnom adic
chimer a
ĠFOU RTH
redu ced
prohib itiv
ERN IC
Ġsupplement ing
Ġsummon ed
Ġspoil s
Ab b
cher ished
ĠQU ALITY
ĠQU ANTITY
ascertain ed
Ġhearer s
Ġacknowled ges
Ġconcur rent
Ġabsor bed
ĠNeg ative
Com munity
itiv um
asc end
Ġlament ed
Ġcomfort able
Ġtriumph ant
ĠCl ass
Ġimpot ent
Ġcorrection s
Ġapper tain
Ġelimin ate
Ġelimin ated
accompl ish
polit ical
polit ics
Ġcand id
Ġthir ty
Ġthwart s
Ġfier ce
Ġreign s
phil odox
Ġshap ing
Ġsubre ption
ĠCopern ican
ĠHypothe tical
fulfil ment
subsum ed
subsum ption
Ġbrief ly
school s
Ġstriking ly
ĠFacul ties
astr ay
astr ology
inj ure
Ġfort uitous
Ġevol ve
Ġadjust ing
Ġarch ives
Ant icipations
ik lejo
uff endorf
Ã´ r
Ġcou ple
Ġbi as
Ġeff icacy
Ġexceed ing
Ġexceed ingly
Äłreg ul
Ġabol ish
Ġador ation
Ġsubt lest
compl aint
Ġene tr
Other wise
spirit ual
tre ated
Ġener gy
ĠÄłÄł Äł
Ġrecur s
cho ose
cho osing
Ġdisappro ved
Ġdisappro val
short ening
balance d
citiz en
citiz ens
Che seld
Log ical
Law s
inf lex
Ġwarr ants
secret ly
omit ted
depre ciation
depart ure
Ġuntr ained
Ġva cill
Ġusurp ed
Ġusurp ation
exec ution
contrib uted
Ġawa it
Ġawa its
Ġdeline ated
Ġintersect ing
mock ing
bur st
Ġxi ii
Ġwretched ness
Ġconcess ion
Ġconcess ions
suff er
ĠAff irmative
deriv ation
Ġextingu ished
contrast ed
Ġcheer ful
Ġslow ly
XI OM
enc ro
Ġincompar ably
Ġcondem ned
Ġforfe it
âĢĺ _
print ed
Ġjugg l
Ġshar ply
Ġaccum ulation
ĠSing ular
Ġchamp ions
Ġpreponder ance
Ġfeas ible
Ġcoar se
Ġfrail ty
Ġfrustr ate
Ġsympat hetic
ĠPerfect ion
Ġratiocinant is
obe y
yr in
Ġoft ener
Ġappoint ment
elen ch
ĠEr asmus
Äłsch ol
hor rence
Ġbird s
Ġffici ent
Ġproclaim ed
unb roken
soph istic
hau er
Neg ative
ssig keit
jur isdiction
wide ly
Ġtempor al
Ġaud ience
Ġsou lless
Ġincess antly
Ġvivid ly
begr iffe
Ġmater ially
appoint ed
Ġscr upulous
Ġingen ious
Ġflo at
ĠPaul sen
Ġapodictical ly
Dem ocritus
htm l
pul ch
Ġsix ty
Ġbungl er
decid es
delight s
qua est
Ġproverb ial
chall enge
ĠBrit ain
ĠCol umb
ĠMOD ALITY
consent ient
Ġantip athy
Ġirref utable
Ġminer als
Ġidolat ers
Ġeffemin ate
FOU RTH
Ill ustration
Mont aign
Okl ahom
Wiz en
dich otomy
fool ish
swe et
uber ance
Ġinhab ited
Ġdar ling
permiss ive
Ġrud eness
pharm acop
exempl ary
uncor rupted
Ġdisci ples
Ġdiseng age
betr ays
elabor ation
Ġextrem es
dissect ing
Ġestr anged
ALIS M
brief ly
Ġcomprehens ive
Ġacquies ce
Quant ity
honour able
Ġcoales ce
erumnos iqueSol
Ġcrow ning
Ġsatir ical
Ġsplend id
Ġinaccess ible
Ġfores ight
Ġgid dy
Ġuneduc ated
Ġuneas iness
Ġvind ication
Ġimpract icability
Ġjeal ous
Ġstup idity
ĠFisc her
ĠAES THETICAL
ĠApode ictical
Ġadmis sibility
Ġsubserv ient
Ġgrav itation
ĠWinde lband
ĠWoh l
Ġenric hed
proxim ate
ĠTHOU GHT
Ġvarieg ated
Ġinterven ing
Ġshipwre ck
Ġmelanch oly
ĠSchopen hauer
Ġvacill ating
! *
! ).
! **
! *****
" :
" ).
( #
) âĢĿ;
) ?"
) :âĢĶâĢľ
) ":
* :
4 109
6 55
9 8
: _
A re
A part
A utonomy
B enevolence
B EF
C reator
C opyright
C ogito
C ynics
C rusius
D uty
D onations
E Y
E ach
E OL
E thics
E PEND
E lements
F E
F OR
F airbanks
F ailing
G eneration
H art
H istory
H utcheson
H olding
I RE
I ENCE
I UM
J us
K Ãĸ
L AT
M B
M uch
M ark
M oney
M idnight
N ay
N ovember
P e
P olit
P ortions
P ossession
P MB
R el
R ead
R esult
S END
S BERG
S ummum
S atirae
S hort
S imilarly
S etting
S YSTEM
S ulzer
S ocratic
T M
T hen
T able
T ell
U nder
U BL
U ITION
V irginia
W here
W ANT
W HAT
W EEN
Z weck
] -
a per
a ii
a version
a dequateness
a cademical
b ent
b ow
b end
b ations
b led
b ases
b ank
b idden
b irth
b attle
b lessed
b oldest
b enevolent
c ut
c ard
c art
c ently
c ost
c ode
c ited
c ope
c ibly
c ub
c odes
d ers
d ness
d read
d atum
d ouble
d umb
d entity
d abilis
d abile
e es
e led
f as
f ate
f usion
f utation
f iles
f ictions
f lying
f idelity
g ical
g un
g reement
g izing
g ardly
h ire
h ated
h ollow
h io
h undred
h iatus
h ateful
h orizontal
i atives
i ased
i works
j ack
j uries
k ansas
l s
l ich
l ation
l ical
l ary
l ant
l ays
l ost
l ives
l ude
l iable
l oses
l orn
l iberum
m r
m ut
m ish
m med
m ma
m arch
m ier
m illion
m ometer
m idnight
n il
n um
n aked
n arrower
o of
o ism
o ved
o ppose
o ins
o pposites
p ith
p ute
p sis
p age
p resses
p ub
p Ã©t
r act
r ous
r ality
r ose
r ived
r ange
r ises
r ia
r andom
r idge
r avages
s ic
s ive
s ace
s ine
s ize
s aken
s ides
s ending
s cribes
s inking
s acr
t ly
t end
t ics
t son
t ts
t itle
t resses
t itles
t ah
t lest
t urning
t useness
u o
u ers
u cl
u ided
v in
v us
v ature
v ii
v icious
v ogue
v illain
w ither
w ider
w anted
w hel
w atch
w arks
w inning
y ourselves
y ms
z es
Â °
Â ±
Â ¿
Ã Ģ
Î ¹
Î ¾
á ¿
ĉ ĠĠ
Ġ henomen
Ġ endent
Ġ irst
Ġ uth
Ġ uty
Ġ ).
Ġ ike
Ġ icular
Ġ ird
Ġ iveness
Ġ ivity
Ġ ensions
Ġ ival
Ġ idden
Ġ 000
Ġ ibus
Ġt ion
Ġt ab
Ġt uition
Ġt ute
Ġt ear
Ġt ang
Ġt reason
Ġt ween
Ġt ending
Ġt aint
Ġt aining
Ġt urb
Ġt imid
he at
he ment
he alth
Ġa res
Ġa uth
Ġa ving
Ġa ward
Ġa cid
Ġa vers
Ġa cademical
Ġa iothe
Ġa erumnosiqueSol
on or
on os
on ism
on set
in form
in sensible
in sist
in ctive
in sensibility
in fit
in ternational
in validity
in admissible
in hering
in uating
in structive
in experienced
in security
in convenience
in herit
in cogitable
in terne
Ġo min
Ġo cul
Ġo ption
Ġthe ft
Ġthe osoph
re action
re wards
re ap
re turn
re straint
re lease
re taining
re coverably
re prehensible
it ality
is ect
is que
is sed
is pered
en ame
en ounce
en large
en ounced
en closed
en lightened
en ouncement
en ouncing
en unciated
at ant
at ived
at ists
at orial
at ernal
er ce
er ving
er io
er ick
er iality
Ġw in
Ġw ire
Ġw ast
Ġw aste
Ġw aged
Ġw rests
Ġc c
Ġc ies
Ġc tr
Ġc ise
Ġc ree
Ġc ious
Ġc ern
Ġc ash
Ġc aring
ion ate
ion ette
Ġs in
Ġs or
Ġs ar
Ġs ore
Ġs now
Ġs atis
Ġs can
Ġs wor
Ġs eduction
Ġs ling
Ġs ieve
Ġs inner
Ġs culpt
Ġp ic
Ġp iv
Ġp um
Ġp ud
Ġp our
Ġp ates
Ġp ond
Ġp ique
Ġp ick
Ġp icked
Ġp uff
al ent
al ities
ic ut
ic ide
ic ty
ic uity
Ġin ion
Ġin im
Ġin ci
Ġin ch
Ġin con
Ġin ca
Ġin action
Ġin consequently
Ġin consist
Ġin super
Ġin completely
Ġin co
Ġin completeness
Ġin formed
Ġin applicable
Ġin fects
Ġin off
Ġin ops
Ġin experienced
Ġin cogitable
Ġin appropr
Ġin organic
Ġb k
Ġb ul
Ġb ide
Ġb reat
Ġb ane
Ġb ull
Ġb ung
Ġb oister
Ġb isect
es see
es pecial
es pun
es igned
es cence
Ġth rif
or k
or st
or ned
or icians
Ġm ess
Ġm ob
Ġm utation
Ġm alle
Ġm icros
Ġto ll
Ġto ur
Ġto to
ce les
ce ased
Ġf t
Ġf og
Ġf iled
ct ic
an a
an um
an tern
an archy
ed o
ed ant
Ġn ig
Ġn igh
Ġn ug
Ġn aming
Ġn aked
Ġn Ã´r
ou rer
Ġe is
Ġe ction
Ġe ty
Ġe uth
Ġe ade
Ġe get
Ġe rection
se ated
Ġis able
Ġis ible
le te
Ġit ate
Ġit um
Ġit ious
Ġit ems
Ġre i
Ġre es
Ġre ar
Ġre am
Ġre cede
Ġre taining
Ġre tains
Ġre vert
Ġre versely
Ġre prim
Ġre converted
Ġre plies
Ġre prehensible
Ġre commencing
Ġre minisc
Ġre printed
Ġd ab
Ġd ally
Ġd ro
Ġd atis
Ġd ug
Ġd aring
Ġd urable
Ġcon fer
Ġcon ger
Ġcon ferred
Ġcon grat
st o
st all
st age
st ains
st umbling
st amps
Ġbe ll
Ġbe atis
Ġbe ating
Ġbe think
Ġbe ckon
Ġbe fit
Ġbe held
om ing
om istic
om ists
ent ers
ent uring
ent angles
ent angled
ar gue
ar ithmetic
ot a
ot o
ot istic
ut ans
ut ations
ut ability
as er
as ive
as hed
as pect
as serted
as cent
ich ard
ich te
Ġh om
Ġh ib
Ġh ath
Ġh ood
Ġh unt
Ġh ours
Ġh unted
Ġh anged
Ġh orizontal
Ġas ed
Ġas semble
Ġpr ies
Ġpr imit
Ġpr ating
Ġpr ison
Ġpr ius
Ġpr hole
Ġu es
Ġu phold
iv ion
iv ized
iv ocation
iv abilities
the st
the me
the sin
ation is
ation ary
im us
im ality
im acy
im properly
im perfectly
im mense
im parted
os ities
ition ers
Ġon wards
Ġex ul
Ġex pos
Ġex cogitate
Ġex ponent
Ġex cogitating
Ġl ent
Ġl un
Ġl owers
Ġl oft
Ġl aug
Ġl antern
Ġnot ation
Ġnot ably
Ġnot io
Ġnot iced
Ġnot icing
pt oms
pt otic
Ġfor cibly
Ġfor lorn
Ġfor saken
ow a
ow ing
ow ner
Ġwe ed
de ed
de tain
de ceive
de jected
de posit
de veloped
de ficiency
ur o
ur ity
ur ists
ur mount
ib ule
ence ment
Ġsu pe
Ġsu aveolens
Ġsu icide
ter able
ter ror
cept ivae
Ġg es
Ġg ate
Ġg aming
Ġg athe
Ġg allows
Ġg onos
ci a
ci le
ir pate
ir recoverably
Äł x
Äł ess
Äł and
Äł ide
Äł ord
Äł here
Äł imit
Äł ign
Äł der
Äł are
Äł ful
Äł know
Äł ma
Äł subject
Äł mor
Äł happ
Äł go
Äł limit
Äł produ
Äł metaphys
Äł perfect
Äł quant
Äł possess
Äł presu
Äł compre
Äł character
Äł occ
Äł attain
Äł contin
Äł expect
Äł correct
Äł imper
Äł distrib
Äł occup
Äł compar
Äł anticip
Äł analog
Äł deser
Äł contempl
Äł pursu
Äł discus
Äł guard
Äł deriv
ĠI mit
ĠI dent
ĠI dentity
ĠI owa
th ither
th rown
ver itable
ver bal
qu acious
qu ando
og ance
Ġor ation
Ġor ical
Ġor ies
Ġor ious
res set
res urrection
Ġme cum
ist inct
Ġcan onic
if old
and eur
ul ly
ul are
per ate
per ous
per ceptive
per ceptible
per versa
Ġde ceptions
Ġde taining
Ġde bar
Ġde cade
Ġde lete
ve to
ve getable
Ġpro ps
Ġpro pter
ĠT I
ĠT od
ĠT ex
ĠT yp
ĠT ext
ĠT IM
ĠT err
rom ising
Ġall o
Ġall ures
Ġall ured
pp et
ch ism
ch ains
ch loric
con om
con cert
con join
con noisseurs
Ġobject or
Ġobject ivized
Ġreason ed
Ġreason ableness
Ġne fas
ust eron
Ġbut tresses
ore st
us ic
us age
Ġal t
Ġal get
Ġint ends
Ġint emper
em bers
em inently
ple te
ple ading
act ly
act ments
act io
id dle
id icule
end um
Ġha ps
Ġha ste
hen sibilities
ab ond
ab asis
ab ilia
ab stain
ab ama
ab ulary
Ġ( )
Ġ( ~),
pl urality
pl ausibility
ill ains
aw e
aw ful
aw aii
Ġun i
Ġun ction
Ġun be
Ġun reason
Ġun wise
Ġun ten
Ġun read
Ġun gr
Ġun att
Ġun comp
Ġun ison
Ġun ification
Ġun soci
Ġun common
Ġun true
Ġun seen
Ġun concerned
Ġun utter
Ġun attained
Ġun popular
Ġun won
Ġun holy
Ġun accompanied
Ġun ri
Ġun warrant
Ġun worthiness
Ġun filled
Ġun aware
Ġun searchable
Ġun practised
Ġun supported
Ġun righteous
Ġun skill
Ġun enforceability
Ġun happily
Ġun veil
Ġun convincing
Ġun perceived
Ġun prepared
Ġun caused
Ġun changeably
Ġun authorized
Ġun civilized
Ġun instructed
Ġun faithful
Ġun ilater
Ġun altered
Ġun compens
Ġun named
Ġun waver
Ġun satisfactorily
Ġun advisable
Ġun favorable
Ġun ascertained
Ġun sophistic
Ġun instructive
ig an
ig ably
ig uous
ig uity
min ently
âĢĶ _
âĢĶ âĢĺ_
um n
um ans
Ġcom ment
tr ain
tr action
tr aces
tr ying
tr ains
tr ades
Ġlaw su
Ġlaw giving
Ġlaw yers
Ġr og
Ġr out
Ġr ays
Ġr aking
Ġr ick
Ġr het
Ġsp end
Ġsp aring
Ġsp acious
Ġsp inning
Ġso ber
Ġwor st
Ġwor ms
Ġother where
Ġnat isque
Ġv ider
Ġv ult
Ġv indic
Ġv otes
Ġv ogue
Ġv illain
Ġv oyage
Ġv illains
Ġse q
Ġse ated
Ġunder to
Ġunder line
Ġunder goes
Ġem ended
Ġem power
ĠB k
ĠB ose
ĠB ON
ĠB ru
ĠB AC
ĠB ET
ĠB urke
ĠThe ory
ĠThe ological
ĠThe oretic
ĠThe oric
Ġhe t
Ġhe ark
Ġhe ap
Ġhe mmed
Ġdo st
Ġdo ve
Ġdo cile
Ġtr ail
Ġtr ade
Ġtr ains
Ġtr ick
Ġtr illion
Ġtr amples
Ġtr aduc
use um
ud ent
ge red
ge tic
fore going
fore gone
su n
su es
su ing
su aveolens
pr it
pr imal
pr ior
pr ising
pr avity
pr olix
pr udent
ere t
Ġno vo
Ġno ogony
Ġno eta
pos ses
pos als
Ġform ations
Ġform less
ad a
ad ays
ad ology
ad icated
ad orned
Ġab ound
Ġab ort
Ġab ides
Ġab les
Ġab omin
Ġab ounds
Ġab lest
Ġab horrence
Ġab ridge
Ġab stains
all ation
all oyed
Ġim manence
Ġim proving
Ġim movable
Ġim minently
Ġim prudent
Ġper sp
Ġper pend
Ġper version
Ġper vert
Ġper sever
Ġper dere
Ġper verts
Ġper secute
Ġper juries
Ġk ins
ant ibus
Ġj oc
Ġj ury
omen cl
Ġus ers
Ġst ar
Ġst ag
Ġst atis
Ġst ating
Ġst umble
Ġst outly
Ġst ationary
cul pable
cul ae
cul prit
Ġreg imen
ph antom
ph aenomena
out ward
Ġsh ores
Ġsh rew
ĠF ight
ĠF ree
ĠF requ
ĠF als
ĠF ried
ĠF ollowing
ĠF onten
Ġsy ch
Ġsy ncret
art ifices
ĠA ve
ĠA RE
ĠA way
ĠA nother
ĠA MPH
ĠA XIOM
ĠA greement
ord s
ord ain
ex pose
ex ceptions
ex poses
ex ico
ex ponent
Ġcogn itable
Ġcogn izable
Ġqu iet
Ġqu ibus
Ġqu ando
present ly
Ġev asions
Ġev oked
Ġev asive
wh ispered
actical ly
ca ptivating
Ġrel ie
Ġrel ish
Ġrel iance
Ġrel apse
Ġrel ativa
Ġide m
un ary
un als
un connected
un pleasant
un essential
un fortunately
un fair
un mixed
un happy
un usual
un influenced
un attempted
un fortunate
un yielding
un righteous
un selfish
un fruitful
un animity
un changeably
un profitable
un authorized
un alloyed
Ġman ent
Ġman ual
Ġman ufact
Ġcons ole
Ġcons erv
ty pic
Ġmor ose
Ġacc use
Ġacc using
ĠP ut
ĠP ay
ĠP ha
ĠP ope
ĠP ages
ĠP owers
ĠP OP
ĠP rep
ĠP lain
ĠP ossession
ĠP uffendorf
Ġphenomen ized
Ġphenomen ization
Ġapp osition
for get
for sakes
for bid
Ġy llogism
Ġad verse
Ġad herence
Ġad junct
Ġad monition
), --
ĠFor bidden
Ġdis use
Ġdis may
Ġdis regarding
Ġdis closed
Ġdis figure
Ġdis arrang
Ġdis favour
Ġdis proportion
Ġdis close
Ġdis solved
Ġdis united
Ġdis proving
Ġdis union
Ġdis join
Ġdis allowed
Ġdis involved
Ġdis agreeableness
Ġdis posal
Ġdis grace
Ġdis honest
Ġdis quiet
Ġdis inherit
Ġdis concert
Ġar ies
Ġar mist
Ġar cs
ces ilas
be quest
be gun
Ġle ction
Ġle vity
nthe sis
ĠS ever
ĠS oph
ĠS pect
ĠS IM
ĠS ource
ĠS etting
ĠS YSTEM
ĠS ulzer
ĠS kill
ĠS ully
ĠTh ou
ĠTh ree
ĠTh ousand
here in
here with
here after
Ġpart aker
ener gizing
ener getic
te ger
te acher
te lling
Ġch at
Ġch ase
et uous
ys ical
sp it
sp end
sp oke
sp arks
op oly
op ening
ĠO ut
ĠO reg
ĠO pposition
ĠO hio
Ġmoral ized
Ġfa de
Ġfa cia
ens ate
ens oribus
Ġph this
Ġph aenomena
ĠN D
ĠN on
ĠN il
ĠN ev
ĠN umber
ĠN ames
int end
int imate
fin ished
fin itude
fin iteness
fin espun
Ġsub joined
Ġsub verted
Ġsub divisibility
Ġsub scribe
Ġsub altern
Ġsub sequent
el an
el ater
el lex
sol ar
am ur
am bitious
am usement
am bert
pre condition
pre ference
pre determine
pre conceived
pre cision
pre ferred
pre rogative
pre miss
ast s
Ġgener is
Ġgener ating
mat ron
mat eriality
Ġpur a
Ġpur se
Ġpur port
Ġpre ception
Ġpre ten
Ġpre posit
Ġpre judge
Ġpre lude
Ġpre mier
Ġspe ck
ĠC oun
ĠC lear
ĠC AT
ĠC rown
ĠC ogito
ĠC ynics
Ġfar thest
ĠG ive
ĠG ute
ĠG AL
ĠG aining
ĠG OD
ĠG entium
ĠG uided
Ġpl ate
Ġpl aster
Ġpl unge
Ġgr ave
Ġser ially
mon t
mon opoly
ĠW ise
ĠW OL
ĠW erke
ĠW ashing
imit s
imit ative
Ġma zes
ĠIn herence
ĠIn cert
ĠIn teger
olog ize
sis mus
Ġcaus as
Ġbel oved
Ġpresent able
Ġpresent ations
ign ant
ign ia
ign ava
ost atic
ost ensive
Ġcomple mental
com pose
com posed
com positio
Ġcont iguous
The tic
ism a
Ġen coun
Ġen force
Ġen semble
Ġen ouncing
Ġen acted
Ġen unciated
Ġen actments
Ġen sues
Ġdes ider
Ġdes pond
Ġdes perate
ĠH ope
ĠH oliness
ĠH OP
ĠH aller
ĠH onor
ĠH awaii
ĠH umans
form arum
ro ot
ro od
ro amatic
ser ving
Ġob edient
Ġob tuseness
ĠR AN
ĠR ules
ĠR ober
ĠR esult
ĠR ATIONAL
ĠR idicule
Ġshould st
Ġshould ers
âĢĿ âĢĶâĢľ
ploy ee
ish ables
der ives
Ġconcept as
Ġinde fat
Ġact um
Ġfe cundity
Ġrespect ed
Ġrespect ability
with hold
Ġag endum
ĠE T
ĠE ast
ĠE lectronic
ĠE ng
ĠE duc
ĠE MP
ĠE gypt
ĠE sto
Ġground work
oph ysical
Ġdisc ard
Ġdisc ourse
Ġunivers itas
ine ar
ine fficient
ĠâĢľ _
ÃĦÅĤ n
ÃĦÅĤ an
ÃĦÅĤ st
ÃĦÅĤ ch
ÃĦÅĤ su
Ġext ant
Ġext remit
Ġext orts
Ġext irpate
Ġsci re
ear ning
xim ately
over turn
over powers
par able
par aded
par simony
par oxysms
Ġind istinct
Ġind ignant
ne ighbour
Ġexp ends
ang es
Ġpres cription
ell i
ell ipse
rough ness
Ġter restr
). "
Ġhuman ly
ile ction
Ġam ple
Ġam az
Ġam usement
Ġquestion able
wo e
Ġent is
Ġent al
Ġent angles
Ġent reating
ĠD ialectical
ĠD ifferent
ĠD atur
ĠD istr
ĠD emonstr
ĠD ynamical
ĠD iogen
ĠD EPEND
Ġmind ed
Ġmat hema
Ġmat urity
Ġatt ested
Ġmaxim a
ĠRe formation
ĠRe ven
ĠRe quire
ass on
ass ure
ass ures
ass ionate
Ġreal ist
Ġreal issim
Ġreal itas
Ġreal itatis
Ġnatural istic
sen ess
Ġappl ications
Ġsim ultaneity
Ġpossess or
ÄłÄł Äł
Ġperfect s
Ġperfect ibility
ĠPro cess
ĠPro ceed
ĠM S
ĠM ED
ĠM air
ĠM AD
ĠM etamorph
ĠM assachuse
ĠM iddle
ĠM useum
ĠM exico
ĠM elan
edu ces
ice berg
Ġorigin arium
Ġorigin arius
Ġimp iety
Ġimp ug
Ġimp utable
Ġimp eret
cogn itio
Ġbet ake
Ġbet imes
Ġuniversal itas
Ġinv iting
Ġinv inc
cons in
cons ilia
Th ree
Th ales
Ġsensuous ness
ĠU s
ĠU bel
ĠU NITY
ĠU tah
Ġref lex
Ġref uge
Ġref utations
Ġcor ner
Ġcor relates
Ġcor pus
Ġcor relative
Ġcor robor
Ġexpl icable
Ġshow er
Ġac hed
Ġac roamatic
Ġsens itivum
Ġcomm ends
fl ing
fl ashed
ĠL e
ĠL ake
ĠL ove
ĠL ambert
ĠL imits
ĠL earning
Ġstr ife
ties t
ner vus
necess itates
Ġwhere upon
ange lical
Ġrequire st
Ġhand iworks
Ġintellig ently
Ġintellig ibilia
Ġass ists
Ġcomp act
Ġcomp ute
Ġcomp ressed
Ġcomp iled
Ġrest ores
und oubted
und iminished
Ġap ologize
ught s
Ġquant itas
Ġcharacter ize
Ġcharacter ization
ev iating
ev angelical
Ġcl ay
Ġmost ly
Ġdiv inity
Ġi ol
Ġi ance
Ġcontradict ories
Ġres ort
Ġres ists
Ġres ources
Ġremain ders
Ġadv ises
reg ion
reg ions
reg ister
reg ulating
reg num
dis like
dis claim
dis connected
dis pleasure
dis regarded
dis solution
dis regarding
dis appearance
dis figure
dis claims
dis continue
dis plays
dis sertation
Ġsatisf actions
ER UM
Ġnow ise
Ġnow adays
phenomen ization
contr ol
contr action
contr acted
In experienced
Ġtruth fully
Ġnotion al
Ġsupp ress
Ġsupp ression
Ġsupp lant
Ġconcl usio
Ġconcl usiveness
Ġsum mit
lear nt
bl er
bl ock
Ġpredic ata
Ġphys iogn
Ġconsist ence
Ġproble matic
Ġmathemat a
Ġmathemat ic
Ġer ation
Ġer go
Ġer adicated
represent able
represent atio
Ġaff ixed
Ġaff irmat
rel ating
rel iminary
Ġcontent less
Ġel ude
Ġel uded
Ġel angu
Ġel icited
Ġel imination
flu idity
intuition al
Ġtot um
Ġfin itude
Ġconform ability
sub mitted
sub species
sub serve
sub divis
sub reptio
sub stitutes
sub tlest
sub traction
wor se
Ġconcern ment
read ily
Ġmot to
ĠCon stitution
ĠCon viction
ĠCon fusion
Ġparticular ize
Ġhypothe sin
Ġed ifying
ĠBe come
hes itate
hes itation
Ġleg ion
Ġleg ibus
ather s
Ġsuccess ions
law giver
Ġnum eration
come ts
mis p
mis conceptions
cont iguity
Ġmod ify
Ġconsequ ens
Ġconsequ ential
ention alism
Ġconf uted
Ġconf uting
Ġconf utation
Ġconf ront
hence forward
arr ogance
opher s
oubt ingly
Ġspeci erum
Ġspeci osa
gr oss
gr uity
gr oping
gr image
gr andeur
Ġsol ar
Ġsol us
Ġsol icited
Ġexer tion
Ġless ens
Ġless ness
Ġover take
Ġover throw
Ġover sight
Ġover takes
Ġover charge
Ġover balance
Ġover grown
Ġover turning
Ġover thrown
Ġing u
part ies
Ġlong ings
ĠJ ure
ĠJ erse
ĠJ uno
ĠJ urists
subject ing
Ġmean ness
Ġmean while
Ġneg atives
Ġneg atio
.âĢĿ âĢĶ
Ġideal e
Ġequ ity
Ġequ ations
Ġequ ivocation
Ġbelie ving
Ġimport unity
nature d
Ġhold est
do cs
Ġhence forward
Ġdog s
Ġsuper fici
Ġsuper ann
Ġsuper sensual
Ġsuper subtle
mor row
ĠPr ince
ĠPr agmatical
ĠPr imacy
Ġvirt ues
Ġvirt uously
Ġess endi
Ġformal iter
Ġlogic arum
Ġut ive
Ġpass io
Ġnon entities
Ġmaterial e
Ġmis used
Ġmis fortun
Ġmis employment
Ġmis application
Ġmis conceived
Ġmis understand
Ġmis carr
Ġprev ention
Ġprev alent
Ġco ars
Ġco hering
Ġco heres
Ġco erce
Ġher ald
Ġpost hum
Ġpost erio
Ġprov able
transcendental is
nt ial
Ġvar iet
Ġvar iations
Ġvar ieties
Ġ3 000
ĠAs k
ĠAs sertorical
ĠK ansas
ĠK entuck
dist ract
Ġcosm icus
Ġcosm otheology
Ġobl ivion
Ġprom inently
under take
under value
under mine
Äłs w
Äłs he
Äłs an
Äłs il
Äłs ignif
Ġident atis
Ġident ified
Ġident itas
aut ia
aut omaton
ĠY ear
ĠY ork
Ġdialect ically
Ġdialect icians
Ġdialect ician
Ġprogress es
Ġprogress ively
Ġoblig andi
Ġoblig antibus
Ġaw ful
io cracy
pur ity
des iring
des cribing
Ġce ptions
Ġargument ation
Ġargument um
For mal
Ġav owed
Ġfall ible
Ġfal seness
ave lled
Ġlegisl ators
Ġharmon ises
Ġharmon izing
Ġregul ates
cre ate
Äłin vol
Äłin trodu
ull itions
Ġwar n
right fully
Ġseek est
ting ence
Ġexamin ing
Ġund a
Ġund o
Ġund ivided
Ġund emonstr
Ġund eviating
Ġund oubtingly
fe res
fe cundity
sim ultaneity
Ġsing ulare
Ġcomb ative
ĠHe teronomy
ĠHe cub
Ġimperative ly
cor ner
cor relate
cor ruption
br aska
br utum
no ologists
no bler
Ġdesign ations
Ġcontingent ia
moral ists
ĠAr bitr
ĠAr kansas
ĠAr rived
ĠAr ctic
_. âĢĻ
Ġins ured
Ġins incerity
Ġins inuating
Ġins urmount
Ġins ensate
ĠAn ne
ĠAn nihil
ĠAn axagoras
ĠAn imality
Ġanalog ously
Ġvol o
Ġvol unteer
disc redit
disc ursively
disc overer
where fore
Ġpar ading
Ġpar oxysms
Ġpar cel
inde xes
Ġ4 7
Ġ4 9
Ġtreat ises
Ġintellectual ists
pres cribe
sh ut
sh ore
sh ield
sh ifting
Ġconv ulsion
ĠV oid
ĠV au
ĠV irtue
ĠV irginia
ĠV ERUM
Ġconj oins
Ġintr usive
Ġintr ospect
Ġcorrect s
go at
Ġign ava
Ġmed ical
Ġmed itate
Ġmed itating
Ġdistrib utor
ail able
Ġke en
Ġke ys
IN CLUDING
Äłc op
Äłc reat
Äłc osm
ĠUn question
Äłre strict
limit less
Ġcompar ationis
All ow
All heit
sist ency
Ġfr actions
Ġfr ug
Ġfr aming
Ġfr ivol
Ġfr aternal
Ġsur moun
Ġsur veill
Ġsur gical
Ġexhib iting
Ġbl end
bel ow
world s
sensuous ness
ren ounce
Ġoff spring
Ġcontinu a
Ġcontinu ation
Ġcontinu ations
imp se
imp elled
imp els
imp etus
imp etuous
att end
att ending
att aches
Ġrecogn izing
Ġrecogn izable
Ġignor ing
Ġignor atio
ap pertains
ap hers
ap pertain
Ġge ogr
rational istic
intellig entia
intellig ibilis
Äłp al
ĠIm materiality
phys ically
phys ica
rem ember
rem embered
rem embers
univers itas
Ġcre de
Ġdel uding
Ġdel udes
Ġappro ves
Ġappro ving
Ġappro ached
Ġappro bations
Ġinfin itude
Ġinfin itus
Ġul ate
Ġexcl usions
Ġ(_ )
comp etent
ĠÃ Ģ
Äłf ig
Äłf all
general ness
Ġpursu its
TH IS
Ġche ated
Ġche ats
sum ma
Ġlear ner
Ġanteced ens
Ġcosmological ly
Ġpsych ologist
cur y
cur ities
cur iosity
cur sive
cur vature
Ġ9 000
separ ated
separ ating
Ġro of
Ġinter fered
Ġinter feres
system a
system atical
Ġsimilar ities
Ġcircum scribe
Ġcircum scribed
Ġcircum spection
Ġcircum scribes
Ġmanifest ly
Ġsepar ations
Ġcreat es
Ġcreat ors
Ġens ured
comm encement
Pro position
Re flection
Re futation
Re alities
Ġtest is
consist ence
apt ation
apt itudes
Ġline ar
Ġ6 2
Ġ6 6
Ġ6 000
perfect issimum
Ġfl ap
Ġfl uct
Ġdisp uted
Ġdisp assionate
Ġpostul atum
Ġ7 7
quant i
quant itatis
quant orum
Ġaccom mod
purpose ly
mathemat ic
ins ured
ins ignia
Ġaccept able
acc ustom
ae que
Ġdown ward
Ġgain er
Ġmagn et
Ġmagn ified
Ġmagn etic
Äłm o
Äłm ult
possess or
Ġtask s
Äłd og
Äłd ict
Äłd edu
Äłd ialect
Äłd own
ĠCh ina
Ġindis cern
Ġindis solu
Ġindis soluble
Ġsure r
conf ounding
Ġutter s
Ġutter ing
gu ide
gu ided
Ġdogmat izing
question es
origin ate
Every body
Ġforth with
OR TALITY
ĠAN TIC
Ġsubl unary
empl oys
Ġschool man
should ers
cogit ation
cogit ates
Ġprob ity
conform s
conform ing
conform ed
?âĢĿ âĢĶ
den ies
tot o
belong ed
Ġic o
Ġwrit es
Ġdat ae
universal itas
Ġtal ks
Äłb ound
adv enturing
Ġrep ud
Ġrep el
Ġrep elled
Ġrep ressed
Ġrep aired
Ġrep utans
Äłh on
Äłh or
Äłh ind
Äłh ypothe
Äłh yper
Ġ8 7
Ġ8 8
real ize
real izes
fic ence
Ġshe er
Ġur y
div ine
div inity
div ested
Ġpriv ation
success ions
Ġadm ixt
Ġadm oto
Äłl ic
Ġfear fully
predic able
gl impse
Ġaccid ens
non entities
ater al
Äłt re
Ġtransc ended
rest ed
Ġplain er
Ġplain est
occ urs
occ asions
demonstr able
demonstr ates
demonstr ating
far ther
ÄłS t
ÄłS ch
claim ants
ÄłA b
ED OM
Ġabsurd ities
Ġsk ilful
Ġdef ences
Ġdef ensoribus
TIC S
TIC ULAR
Ġturn spit
Ġpract itioners
Ġgl ances
Ġfour fold
ĠOR IG
Äła uthor
play ed
correspond ence
Pr udence
particular ity
As k
uit ously
ref und
ref utation
ref lected
since re
turn s
Ġsa ves
Ġsa fer
Ġprocess ion
Ġprocess ors
Ġsophist s
super human
ĠAt qui
ĠAt omistic
Ġestim able
contin uity
fall ing
fall acious
Ġmist ress
ĠSe a
Ġpreser ver
Ġpreser ving
Ġdivers a
Ġdivers ified
Ġver ification
Ġver ifying
Ġver acious
Ġassign ing
Wh ich
Wh oever
Ġobs curities
Ġhum bly
pet u
pet itio
Ġperform ances
mot us
Ġcap abilities
ert ius
Ġbeh oof
Ġqual ifies
Ġsubsum ptions
Ġdec ry
Ġdev ises
Ġdev iating
Ġdev oting
truth ful
truth fulness
Äło per
proceed ed
ĠDe ceived
ĠDe fects
ĠDe ficiency
ĠDe uts
Ġcommun io
Ġweight iest
Ġgovern s
Con junction
Con tingence
Con sistency
Äłr atiocin
neg atived
Ġdomain s
post erity
post poned
Ġpay able
Ġpay ment
ÄłM on
ÄłM or
Ġshort en
ĠPRO VIDED
ĠPRO LEGOMENA
expect ing
Äłw ant
Äłw rit
IL EI
Ġ15 2
appre ciate
Äłpr a
Äłpr os
Äłpr ogress
Äłpr ofess
aff irmed
aff air
Ġenter pr
Ġproportion ately
human ae
Ġaxiom atic
Ġpopular ly
indic es
indic ations
indic ative
pret ension
pret ended
prov ides
lat ent
lat est
draw s
Ġwr ote
Ġont otheology
Ġsuggest ing
Ġsuggest ive
ank ly
Ġhabit a
Ġhabit ually
Ġbu ys
Ġbu yers
consequ ent
Ġnecessit as
Ġnecessit ating
pot entially
Ġpersu ading
pass age
Ġpros cribed
Ġpros yllogism
Ġstart le
Ġstart les
Ġren ouncing
Ġbad ness
Ġinquire r
Qu ality
Ġprot uberance
Ġum er
Ġum pires
Ġexec utes
Äłex er
Äłex per
Ġeng ages
Ġeng agement
Ġextr action
Ġextr aneously
Ġextr amund
Ġord aining
trans form
trans fers
Ġaggreg ated
Ġaggreg ates
assert io
assert orical
assert orial
ÄłD IS
ĠIN G
ĠCa ird
Ġderiv ativ
IR ICAL
Ġmon as
Ġmon adology
Ġguard ians
inter change
inter preted
Ġmin ute
Ġcal umni
Ġbold est
ĠNe braska
rist ian
scept ical
scept ics
ĠNot ions
ĠNot withstanding
Ġcausal itatis
conscious ly
appro ves
appro val
appro ximately
Ġair less
Ġ0 1
Ġextensive ly
OG IES
co exist
co existent
dog ma
Ġcur o
Ġcur ta
Ġcur vil
Ġweak ens
Ġve y
Ġve hement
Ġconfess ing
ĠEvery where
ĠNO THING
Ġexperiment ing
Ġexperiment ed
equ ivocal
gener ated
gener ating
Ġlist ing
Ġlist ed
Ġlist ener
Ġlist ened
Ġget s
Ġsym ptoms
Ġendless ness
Ġcharge able
Ġelev ations
Ġ20 13
Ġ20 20
15 1
15 4
find ing
signif y
Ġhard ens
Ġhard ware
Ġillustr ative
Ġillustr ated
Ġillustr ates
Ġconfirm ations
found s
second ary
conv ictions
conv entionalism
Ġviol ating
Ġaddu ces
PL E
Ġpo ets
Ġpo orest
Ġperi uria
Ġfruit fulness
Ġfruit lessness
Ġpsychological ly
intellectual is
Ġinf use
Ġfortun ae
fact itious
lead ing
Ġtrib ute
13 7
17 39
17 81
mod ern
mod eration
mod ifying
Ġinner most
ĠCom put
Ġ12 3
Ġ12 9
Ġ12 40
Ġesteem s
Ġesteem ing
,-- _
preced ed
rupt ible
comb atant
12 0
direct or
doubt ing
doubt fulness
Ġvis ions
Ġvis ibly
Ġanticip atory
tal ks
anthrop ological
PR INCIPLES
col oured
col umn
Äłst ud
Äłst art
Ġprofound ly
positive ly
correct ing
af oresaid
cent red
ĠAuthor s
except ivae
ĠPer manent
ĠPer ceptions
ĠPer manence
ĠPer suasion
ĠOr der
ĠCON CLUSION
.. .âĢĿ
Ex ternally
Ex tension
Ex actly
ĠTr illion
unal tered
unal terable
acher s
eng aging
Ġred ness
Ġsubstant iate
Ġsubstant iality
ĠInt ensive
ĠDis pute
ĠDis cursive
Äłg en
ĠAl most
ĠAl sace
ĠAl abama
Ġmut ilate
Ġdict et
Ġist is
Ġrecomm ending
Ġdeal t
Ġdeal er
Ġapproxim ations
Ġapproxim ating
restrict s
restrict ions
method ical
method ology
clear ing
Ġcit abere
Ġcle ment
Ġcle aves
Ġhyp ophysical
Ġli ked
prop ose
prop Ã¦deutic
need s
need less
concl uded
concl udes
concl usiveness
anteced es
anteced ens
ĠPhys iology
ĠPhys iocracy
occup ying
compar ative
compar atio
Ġcounter s
Ġcounter bal
Ġcounter acts
analys ing
analys ation
Ġminor ity
Ġtell us
Ġbre ast
Ġbre aking
arbitr ation
Ġann ual
add ing
add ressed
add ressing
Ġhyper physics
Ġanthrop omorphist
SI US
prom o
prom ising
prom otion
Äłpre v
Ġunb iased
ĠMe iklejo
long est
ĠQu id
ĠQu est
organ um
organ ized
Ġconject ured
Ġdisclaim s
Ġdisclaim ed
Ġ18 2
deduction s
sour i
mechan ics
commun e
po em
Ġrevol ve
Ġrevol ves
Ġrevol ved
result ed
affirm ation
affect ation
render s
Ġinst ability
Ġinst inctive
Ġthreat s
Ġindetermin able
Ġindetermin ateness
grad ation
grad ations
grad ual
grad uation
Ġsl ips
Ġsl avish
Äłtr ansc
Ġnumer o
Ġnumer ically
var iance
var iations
var ieties
Ġfashion able
search ing
anticip ations
anticip ating
OND ON
ÄłG r
Äłsu ggest
Ġalleg es
Ġalleg ation
analog ies
analog ous
analog ue
analog ously
Ġuniform ly
Ġprincip ii
Ġprincip iis
Ġdesp ite
Ġdesp ises
Ġdesp ised
Ġdesp icable
evol ved
Ar cesilas
Äłsub stant
Ġgrat ifies
Ġgrat iae
Ġgrat uitous
Ġgrat uitously
Ġentertain ing
Ġaugment ing
Ġaugment ed
lo quacious
80 9
Im possibility
Im manent
bes ide
opp ortunities
Ġhorizon s
Ġsun ny
Ġoverstep s
metaphysic a
Ġrepro aches
ĠAm phiboly
educ ators
sus ceptionem
Ġdr iest
Ġdr inks
Ġdoll ar
Ġfault less
Ġten or
Ġinstruct ors
Ġrepe ating
term ing
Ġconceal ing
account s
continu ing
continu ed
Ġcalcul ations
Ġcalcul ating
don ations
embr aces
Ġrad ius
Ġrad iating
Ġrad ii
ĠApp rehension
accid ens
remark ed
remark ably
imental ism
ĠEX IST
ĠEX PER
Ġ16 2
ĠMan ifold
ĠNew slet
ĠNew sletter
ĠNew tonian
Per ception
Per fect
del ivered
ĠTot um
destr u
destr oys
ĠArt ist
Ġappropr iation
Ġappropr iating
St ars
Ġog n
Ġmid way
Ġmund i
Ġreview s
Ġreview ing
Äłpro b
ĠAb solute
ĠAb ove
Ġfair ness
Judgement s
Ġnull a
Ġnull o
Ġnull ifying
admit ting
Ġcontempor aneous
Ġoverlook ing
Ġflow s
Ġspiritual e
Ġspiritual ist
ĠSystem s
Ġmulti plies
Ġhypostat ization
Ġhypostat izes
aesthetical ly
Ġwa ited
Ġexempt ed
qual itas
qual ifies
Ġmyst ics
Ġmyst icum
Ġenumer ated
Ġenumer ating
Ġcompens ated
Ġcompens ates
deser ves
deser ved
deser ted
THE OREM
furn ishing
Ġwid en
Ġ14 5
apply ing
anim a
Äłth reat
Ġhes itates
Ġphilosoph ies
Ġphilosoph ized
Ġphilosoph izing
Ġstri pped
Ġirre coverably
Ġirre parable
sur render
sur veyed
sur prising
Ã¦ sthetic
excl usion
contempl ates
contempl ating
Ġkey stone
dogmat a
dogmat ist
dogmat ists
dogmat izing
Un conditioned
Un iverse
Un fortunately
Ġain ing
Ġboast ing
Ġround ness
Ġround about
Ġtrust ees
aggreg ation
aggreg ates
Ġ25 00
pursu ing
pursu its
Ġbirth place
imag inary
Ġlic enses
Ġdece ives
Ġcoinci ding
Ġcombat ant
Ġfancy ing
He aven
He teronomy
secure d
Äłat tr
Ġattach ments
Ġsuffer ance
Ġsuffer ings
Ġinvalid ate
soul s
Ġty ran
seem ing
Ġsil ly
Ġlive liness
Ġlab oured
Ġlab oure
Ġlab yrin
Ġdefend ers
psychological ly
Ġsubstantial e
meaning less
Gr ace
IB OLY
dev ote
dev ices
Ġvac ans
ĠST AH
peculiar ly
grat ified
grat ifying
grat uitous
Ġsketch ing
Ġach ing
Ġell ipses
essential ia
ĠANAL OGIES
Ġrevolution ized
treat ise
Ġpupil age
Ġlur k
Ġvag um
Ġvag abond
exc iting
exc uses
arrang ed
fault iness
Ġstruct ures
Ġ178 1
Ġ178 5
Ġsophism a
Ġanim i
Ġanim am
Ġanim advers
decl are
Äłal tern
ĠMORAL ITY
ĠTrans gression
Ġrecommend er
Ġrecommend ations
EG ORIES
incre ment
Ġdark est
entia e
Ġanx ieties
Ġperplex ities
Ġmistaken ly
Ġmilit ant
First ly
infin itude
rep ulsion
Ġine fficient
Ġissu es
Ġcast ing
discus sing
Leibnitz io
Leibnitz ian
fr ame
fr iend
fr ankly
rain e
rain bow
Ġound s
Ġsust ains
adm ired
adm irable
access ions
Ġcritic ized
Ġcritic ised
Ġcritic izing
Ġimped es
Ġimped ing
Ġassist ing
Ġassist entiae
evil le
Ġdefici encies
destroy ed
accompan iment
cosm ologia
Ġep igenesis
Ġste ward
ĠConcl uding
contest s
remo ves
remo ving
rupted ly
did actically
Ġvict ors
Ġvict ories
ĠBE AU
Ġsuperfluous ness
advance ment
support ing
Ch ange
Ch anges
numer o
numer ically
numer ica
text s
Ġnihil o
Ġnihil um
Ġunexpected ly
Ġsubter rane
assign s
ĠMis souri
Ġinvent ory
Ġinvent ors
Ġ45 57
Ġinduce ment
Ġhinder ances
circum stance
circum scribed
Ġmer cury
Ġexagger ations
Ġexagger ates
transc ending
Ġencour agement
occasion al
occasion ing
Ġsacred ness
cultiv ating
Al ways
li king
merit o
ĠAfter wards
Ġspecul ate
Ġspecul atists
maj estic
Ġflu ency
absurd ity
Em ployee
ino is
det ected
uss ian
Ġsevere ly
Ġembarrass es
Ġsynon ym
Ġsynon yms
Ġsimpl er
Ġsimpl ifying
occur red
observ able
observ ance
Ġpunct uation
TRIB UTION
spr ings
test s
enjoy ing
enjoy ments
Ġci ated
Ġcens ura
Ġsw im
Ġsw ift
Ġmal evolent
ĠCan st
ĠEnd s
ĠMon th
requis ites
requis ita
ĠMoral ists
Ġvisual ization
Ġridicul es
creat ing
last ly
oe ia
ration ally
van ishing
war n
writ ings
ĉĉ ĠĠ
ĉĉ ĉĉ
ĉĉ ĉĠĠ
Ġrom anc
Ġoun ced
Ġincor ruptible
Ġmar red
Ġmar ionette
Ġlo ved
Ġlow ered
ĠIll usion
ĠIll inois
ĠRoyal ties
ĠVol unteers
Ġfigur atively
Ġfigur ae
ĠAmong st
mer ge
mer chant
revol t
revol ve
revol ution
revol ved
revol utions
Ġced e
Ġpet itio
Ġrig our
IND EMNITY
attack ing
ĠQuant ities
ban ished
dict ation
dict um
dict ates
dict atorial
pat tern
Ġapt ness
Ġapt itudes
Ġwithdraw ing
Ġunpleasant ness
Ġconsent iunt
Ġposit ives
controver sies
Ġratiocin atio
Ġratiocin ati
bre vity
fund raising
Ġpot ens
Ġmus ician
close ly
Ġelucid ations
Ġimagin arius
pun ishes
pun ishment
pun ishable
tow ard
wit nesses
intr insically
Ġsedu cing
Ġprolong ation
Ġquit ting
fort ified
avail s
Ġcollected ness
Ġextravag ances
Ġinfring es
Ġinfring ed
Ġ199 1
Ġ199 4
Ġ199 8
Ġ199 9
Respect ing
bene fit
bene ficence
sent imentalism
tent h
Ġtol erably
Ġrevel ata
Ġmel ius
chief ly
Ġgross ly
ĠEle a
hypothetical ly
Ġarchetyp a
Ġcatalog uers
Ġsal es
Äłac cept
conflict s
prof it
Ġpersist ed
Ġeleg ant
particip ation
particip ate
particip ant
particip ating
discern ed
discern ment
Ġconvers io
signific ancy
ĠEpicurean ism
Mathemat ical
ste pping
ste eled
Ġhit ting
Ġproject ile
indu ction
indu ced
ĠPER CEPTION
ĠPER SIUS
Ġcontest s
ĠEN CE
Ġfals ification
Ġfals ify
coinci de
coinci des
coinci dent
exerc ises
comparison s
Mor al
Mor als
Sy nthesis
authoriz ing
fixed ly
reconci ling
Ġcrib es
Ġsensual ized
Ġsensual ists
ĠPers ius
Ġadmin ister
Ġtermin ation
ĠMod eration
substant iality
presum ption
mem ory
Ġtemper ance
Ġpon ens
Ġincontest able
Ġble mish
ann ouncement
ann ouncing
Ġdread s
impl anted
Ġrob bed
prot ensive
indifferent ism
indifferent ists
Ġadvers ity
Ġadvers aries
Ġargu ed
Ġleap ing
ĠThought s
ĠOp inions
Ġremed ies
Ġinviol ability
corrupt s
myst ical
carr ied
fil ings
fill s
fill ing
horizon s
Ġsoft ness
Ġfere n
sear ched
Ġlof tiest
Ġappet ites
Ġappet imus
elev ating
critic izes
manifest ly
manifest ations
Ġsymbol s
Ġthreaten ings
Ġloose ly
won dered
hetical ly
Ġbow s
Ġball s
depr ives
Äłcontr ib
Ġuninter fered
Ġunansw ered
suggest ed
pros yllogismos
pros perous
Ġabund ance
exact ness
ĠCons idered
specul ators
Ġprovision ary
fail s
fail ing
fail ure
Ġblood less
Ġmock ing
Ġpoison er
Me thod
Ġtempt ed
Ġak in
Ġwatch ing
Ġinstant ly
Ġinstant aneous
Ġban ishes
Äłob st
Ġunfair ly
Ġundermin e
Ġundermin es
Ġundermin ing
Ġundermin ed
Ġdispar ate
Ġdispar age
Ġdispar ata
Ġdispar aging
ĠSh allow
ĠGosp els
Ġindul ged
Ġresist ing
Ġguess es
Ġsignal ized
Trans lated
Ġcitizens hip
ĠMonad ology
wr ought
inst abilis
Ġhast ens
ĠAd aptation
Ġenv ying
propr iety
Ġcorrupt ing
Ġ38 655
Sub tract
Ġfriend ship
Ġepoch s
AIN ING
fam ily
hist orian
Ġpal pable
Ġpal ingen
alter ations
Ġrect ification
Ġrect ify
Ġhint s
chimer as
chimer ical
illustr ate
illustr ations
redu ction
weight iest
prohib ition
prohib iting
Ġsupplement ed
Ġsummon s
ĠVer mont
Ġsurrender ing
ĠSoci eties
PLEAS URE
Among st
62215 4
568 2
Ab solutely
cher ishes
lab ourer
instruct ress
Ġther mometer
Ġwarrant ies
Ġsit us
Ġsit uation
Ġpred ilection
Ġmag ical
confin ed
conven iently
embarrass ing
cast ic
cast les
Ġdisgust ing
ĠSect ions
ĠGre cian
Ġindustr ial
Ġindustr ious
ĠLat ins
Introdu ctory
obvious ly
indefinite ly
Ġabsor bent
Ġearnest ly
Ġwholes ome
Ġauthentic ity
Ġextract ed
schol ar
Ġruin ous
Ġeconom ize
Com plete
Sto ic
aud ible
cert ificate
eg otistic
loc ated
penetr ate
sure ly
touch ing
touch stone
Ġtheolog ian
enumer ated
Ġincompre hensibilities
Ġconced ing
asc ension
Ġhar ass
Ġlament able
thy self
threat ening
Ġdep ressed
Ġprocure d
Ġunl uck
trace able
Ġelimin ating
Äłaff irm
accompl ishment
endeavour ing
Cont act
custom ary
firm ly
Ġfier i
Ġfier y
Ġdeposit or
Ġunquestion ed
track s
Ġspher oid
Ġvicious ness
Ġstat ute
phil autia
redistrib ution
Ġthank ful
Ġthank fulness
ĠEv il
fulfil s
necessitate m
blind ing
Ġbrief est
invent ed
colour ing
school men
Ġpresumpt uously
Ġastronom er
CON CLUSION
inj ury
altern ately
Ġincontrovert ible
Ġnought s
Ġecl ipse
Ġliqu id
Ġfort itude
Ġsuppos able
Ġalkal is
Ġvit ally
Ġvit am
Ġvit ium
Ġembell ishing
Ġempiric ists
Ġabut s
Ġabsol ves
Ġimmedi ata
Ġaccus er
ĠPO STUL
ĠOTHER WIS
Ġenig matical
Ġdiscret a
Ġtert io
Ġillumin ations
ĠConcept s
Ġanalyst s
ĠExt ension
ĠExt ensive
ĠExt reme
ĠImper ative
Ġcrown s
Ġcrown ed
Ġmistrust ful
Ġinflex ibly
New tonian
Ġdescend ants
ĠPerson s
ĠPerson ality
dam age
hi oko
hyp ocrisy
hyp ostatic
voc abulary
Ġcover ing
Ġcover tly
Ġpoly syllogistic
Ġinit iation
Ġbi ograph
Ġmast ered
start ed
Ġlust ful
Ġdeb atable
erect ing
erect ed
Ġabol ished
care fully
prepar ations
ĠCOM MON
ĠCOM POSITION
compl acent
acknowled ges
contempor aneous
contempor aneously
Ġundes erving
compass ion
STAN CE
apprehend ed
tre asure
Ġblessed ness
Ġmir acle
Ġrecur ring
Ġcommit s
succeed s
succeed ing
Ġarous es
ĠSpirit uality
Ġapod ictic
short est
comput er
Ġveh icula
Ideal ist
App endix
App rehension
Che mists
Log ically
Mod o
Mod ality
RI CELLI
back wards
dimin ution
dimin ishes
splend our
splend ours
athe ism
Ġwind y
Ġwarr anted
Ġcert ify
Ġcert ificate
Ġdull est
Ġexempl ification
Ġexempl ifies
depre ciated
depart ment
met abasis
Ġuntr avelled
Ġtranqu il
Ġtranqu ility
pron ounce
pron ounces
exec uted
Ġdismis sing
ĠOb servation
ĠOb viously
weak ens
weak nesses
ĠLI ABILITY
ĠLI FE
contrib ute
Ġmischief s
philosoph ize
Ġdeline ate
charm ing
ruin ous
check s
mock ed
figur ative
figur ae
imagin able
imagin arium
ĠSUB JECTIVE
ĠSUB STANCE
EI THER
Europe an
bungl ers
bungl ingly
ein heit
mil king
null ity
null ifies
rhapsod y
rhapsod istic
temper ate
temper ament
Ġtil de
incomp etent
incomp atible
reve als
reve aled
isol ate
isol ated
attr action
attr actions
Ġwond rous
Ġpomp ous
Ġeulog ies
Ġeulog ize
Ġprae ferre
Ġproud ly
imm ensity
imm utability
consol ing
consol ation
empiric ist
empiric ists
Ġunre venged
tranqu il
tranqu ility
Ġrot ten
Ġrot eron
Ġimpregn ation
Ġimpregn able
Ġshame less
ĠAff inity
exto lling
exto lled
exert ions
uns afe
Ġyp othe
preponder ate
preponder ance
Ġdistrust ful
Ġextol s
Ġextingu ishing
ĠDON ATIONS
Ġstray ed
Ġcloud ed
Ġblow s
Ġcheer fulness
Quod libet
Ġmonstr osities
Ġvex ing
Ġvex ed
collect s
Ġdeceit fully
detect ing
Ġsanct ity
Ġsanct ification
fanci ed
fanci ful
Ġchalleng ed
Ġ997 12
Certain ly
Ob servation
acid s
upright ness
uphold ers
Ġtrem ble
Ġtrem bles
head er
inward ly
reject ion
Ġpill ow
Ġpill ars
Ġincur able
Ġincur red
Ġincompar able
Ġreap ed
Ġrenew ed
Ġcondem ning
Ġub i
Ġangu ish
Ġexcess es
Ġexcess ive
Ġexhort ation
Ġlif ts
Ġlif eless
Ġforfe its
condemn ation
Ġjugg ling
Ġshar per
unceasing ly
uniform ity
Ġaccum ulated
ĠSing le
strong er
Ġchamp ion
Ġpreponder ate
Theoretical ly
Ġfeas ibility
Ġarrog ate
Ġarrog ates
arrogant ia
Ġcoar ser
Ġcool ness
Ġhero ic
Ġhero ism
Ġwarm est
correction s
Ġtransport s
Ġfrustr ated
guarante es
Ġtwist ing
Ġsympat hetically
Ġratiocinant es
Ġtorment ed
Ġtorment est
cobweb s
Des pite
Ġale theian
inhab its
Ġcru cible
Ġsap io
Ġnes cit
Ġnes cio
Ġrecapit ulate
Ġrecapit ulation
Ġhover s
Ġhover ing
Ġassem bled
Ġforge ts
Ġgout y
Ġdecom pose
Ġdecom positio
Ġallure ment
Ġallure ments
Ġ(* )
Ġunguarded ly
Ġimprov ising
Ġimprov idently
Ġque en
Ġquib ble
Ġquib bling
Ġaccru ing
Ġaccru ed
Ġyaw n
Ġyaw ning
Ġdiscontinu ing
Ġdiscontinu ed
ĠOU GHT
Ġprecl ude
Ġprecl udes
ĠWis est
ĠWis consin
ĠIncl ination
ĠIncl uded
ĠEs se
ĠEqu ator
ĠEqu ivocal
Ġoutwe ighed
Ġoutwe ighs
Ġamp utation
ĠDest ination
ĠDest itute
ĠReciproc al
ĠReciproc ity
ĠMont esquie
ĠMont ana
Ġimpair s
Ġadvised ly
Ġsumm ary
Ġsumm un
ĠKNOW LED
Ġinterrog ation
Ġinterrog ate
Ġrepul se
Ġrepul sed
Ġglim mer
Ġglim pses
reflex io
Ġbenef ited
Ġbenef iting
Ġsympath ize
Ġsympath izing
Ġambigu ities
Ġambigu ae
Ġincitement s
Ġdemur red
Ġepis yllogisms
Ġepis yllogismos
Ġincapac itate
Ġincapac itates
presumpt uously
Ġflatten ing
Ġflatten ed
Ġharsh ness
Ġdepict s
Ġdepict ed
Ġretort ed
Ġhurt ful
100 00
ĠÄłÄłÄłÄłÄłÄłÄłÄłÄłÄłÄłÄłÄłÄłÄłÄł ÄłÄłÄłÄł
Ġta uro
Ġtong ues
inn abilis
Ġbur nt
Ġfool ed
Äłnecess it
Ġneut rality
Ġatom us
admin isters
Ġshr ink
ĠAC COR
Ġconsumm ate
Ġyn am
tell s
ĠCong ress
ĠDEFIN ITION
ĠUN UM
Ġmedi ates
Ġrepugn ance
Ġverb iage
errone ously
Ġabsolut a
Cogn ition
Ge ometry
Te achers
burd ensome
Ġtem ere
Ġtast es
inex orable
insp ire
instit ute
Ġcoll ateral
Ġpu ppet
Ġincogn izable
Ġeight eenth
Ġconquest s
irk some
Ġdepre ciated
abund ant
mel ior
Ġrhapsod ically
pra ises
Ġshoot s
Ġmort ification
ĠPenn sylvan
sovereign ty
ĠEss ential
Ġimpat ient
Ġresc ue
Ġdeliver y
inspir ing
Ġbalance d
Hypothe ses
Pre cepts
Sim ply
cle arest
govern ments
Ġcate chism
Ġpop ulation
Ġincul cate
Ġinflict s
Ġmarr ied
Ġfo il
Ġnour ishing
Ġisland ers
Ġhy dro
Ġgest iculate
Ġunthink ingly
Ġunfold s
Ġimprove ments
ĠFl orid
ĠFran cis
Ġconscient iousness
Ġdissol ves
ĠCent ral
Ġplung es
ĠWy oming
ĠWal halla
ĠLast ly
ĠLeg al
ĠLouis iana
Int ending
ĠKing dom
brid le
ĠINCI DENTAL
ĠComp elled
Ġaster isk
Phys ics
ahr nehm
Verstandes wes
instrument ality
Del aware
DES IRE
Ind iana
Lor raine
Nol int
Pun ishment
Post ing
Prop Ã¦deutic
Subl ime
cans on
cens ura
dr iven
dism issed
foot ed
liber ate
mar vellous
narrow ness
sal ts
soft ware
vest ibule
refin ed
repet ition
enem ies
Ġpit iful
Ġpil grimage
Ġinert iae
Ġbarr iers
Ġmour ns
Ġfost ers
Ġeb ullitions
Ġresem bles
Ġconst ans
Ġconstr aining
stret ch
Ġlad der
deep ly
Ġsup ellex
thir teen
respon sibilities
perse vered
ĠTenn essee
Ġintus susceptionem
eman ating
Ġunsus ceptible
Ġvouch saf
ĠBon net
Ġtri ad
Ġtru est
Ġperf ume
antit hetic
antagon istic
individ uo
ĠFar ther
ĠFred erick
ĠFRE EDOM
Ġrelinqu ishing
unrecogn izable
ĠPur suing
ĠPlat onic
ĠSP ACE
tele ologia
intest ine
ampl ify
ambig uity
premis ses
Ġprecip itated
ĠRh ode
Ġdiscour aging
Ġindulg ent
ĠRead able
assured ly
ĠMot ives
ĠMil an
ĠMON EY
ĠLa ertius
Ġconcord ant
appet ites
Ġcompend ium
Ġrestor ing
Ġrespond ed
TIF UL
fert ility
Ġwanton ness
purch aser
feas ibility
Ġvolcan o
Ġfragment ary
impot ently
Ġdomestic ae
Ġglor ifies
ĠDefin itions
Cons ciousness
Philos ophers
ĠSubstant iality
Ġjudici i
ĠIDE ALISM
Ġconquer or
ĠGeorg ia
Ġadept s
ĠIMM ORTALITY
extravag ance
despair ing
microscop ical
AB OUT
Apr il
Astr onomy
Bod ies
Bole yn
Dak ota
Det ection
DIS TRIBUTION
Gign i
Hamps hire
IP ATIONS
Look ing
Mich igan
Mand eville
Mast ers
Nun c
Numer us
NIG SBERG
Ov id
Ox ford
Ont ologia
Phenomen a
Pers ius
PAR TICULAR
Plat onism
Scept icism
Sach heit
Tem pus
Tec um
Var iety
Wel come
Zen o
boast ing
dise ase
dile mma
fol k
foc us
fals ity
fantas y
fleet ing
genealog y
hur ry
harm less
jube o
kak ov
lax er
laps us
laud atur
mag ic
mole culae
rip ened
rho pon
sedu ced
scrut iny
tol erably
vig orously
wis er
ĠâĢĶ >
Ġtort uous
Ġaqu am
init ial
inconce ivabilities
infall ibly
incompar ably
instill ing
rece iving
reward ing
revel ation
revere ntial
rearrang es
remiss io
reinst allation
retrogress ively
isos celes
Ġsn ares
Ġswell ing
Ġpall iatives
Ġinflu encing
Ġinconsider ateness
escap ed
Ġmad ness
Ġmild est
Ġfil ename
Ġfond ness
anas ia
Ġeur hioko
leag ued
Ġrenow ned
Ġded icated
Ġdaw ned
Ġdig ressions
Ġdra ughts
asym ptotic
Ġhal ved
theolog ians
theosoph ists
immeasur ably
Ġanch or
Ġextermin ation
deter rent
degr ade
decr ied
degrad ed
irreconci lable
resol ved
perman ency
perdur abile
ĠTOR RICELLI
chican eries
conca ve
condu ce
Ġintol erable
illimit ableness
awaken ed
Ġunass ailable
Ġunintention al
minuend ae
Ġcomfor ting
Ġrous ed
Ġspat ii
Ġviv endi
Ġtram pled
Ġtrah or
supre mum
prae ceptivae
possident is
indescrib ably
indistingu ishables
Ġjump ing
Ġstret ches
Ġshun ned
articul atio
expon ents
Ġcognosc endi
uninter ruptedly
unfit ness
unexception ably
unyield ingly
unveil ing
ĠPoint s
ĠPneumat ism
ĠSens ations
Ġpartis ans
Ġchican es
ĠOB JECTIVE
ĠOper ative
solip sismus
prev ailed
prelimin aries
ĠCo existence
ĠCOP ERNIC
ĠGo al
monogram ma
comform able
compe te
compart ments
composit a
serious ly
ĠRom ans
overbor ne
parallel ism
ĠDev oid
synon ymous
ĠProper ty
consummat um
ĠLA W
Ġclo ak
Ġclim ax
Ġdiver ted
Ġadvent ures
Inno cence
Incorrupt ibility
relinqu ish
subreption is
ĠConnect icut
misappre hensions
Ġscant y
Ġscru ple
ĠSuccess ion
REFUT ATION
despot ism
indemonstr abilia
legitim ation
Allgem einheit
ĠREFLEC TION
insom uch
aetern itas
confront s
inviol able
ĠDeg ree
chemist ry
ĠINT UITION
interpol ation
coacerv atio
Trancendent al
ĠTrade Mark
Ġinstig ations
indiscernib ilium
sympat hetic
POSSI BILITY
ĠScott ish
undeter red
prohibitiv ae
Ġconcurrent ly
ĠClass ification
philodox y
Cheseld en
inflex ible
encro aching
Ġjuggl ery
elench i
Ġscrupulous ness
quaest io
ĠColumb ia
consentient ia
Montaign e
Oklahom a
Wizen mann
pharmacop oeia
BEF ORE
KÃĸ NIGSBERG
pÃ©t uelle
Ġtab ular
Ġtute lary
Ġtang ible
Ġturb ulent
Ġauth rhopon
Ġavers amur
Ġaiothe ta
ĠaerumnosiqueSol ones
Ġocul ar
Ġtheosoph ic
Ġwast ing
Ġcree p
Ġsor ry
Ġsar castic
Ġsore ly
Ġscan ning
Ġswor n
Ġpiv ot
Ġpum ice
Ġpud ori
Ġpuff ing
Ġinim ical
Ġincon gruity
Ġinca utious
Ġinconsist encies
Ġinsuper able
Ġinco herent
Ġinoff ensive
Ġinappropr iate
Ġbul warks
Ġbung les
Ġboister ous
Ġthrif ty
Ġmess age
Ġmalle ability
Ġmicros cope
Ġtoll ens
Ġtour ney
Ġnig gardly
Ġnug atory
ĠnÃ´r is
Ġeuth anasia
Ġeade m
Ġrevert i
Ġreprim anded
Ġreminisc ence
Ġdab ble
Ġconger ies
Ġcongrat ulate
Ġbeckon ing
Ġbefit ting
Ġpries ts
Ġprimit ively
Ġprhole psis
Ġexpos ure
Ġlun ar
Ġloft iness
Ġlaug hed
Ġsupe resset
Ġgathe red
ĠImit ation
ĠIdent ification
Ġdebar red
ĠTod ay
ĠTex as
ĠTyp ic
ĠText s
ĠTIM E
ĠTerr asson
Ġintemper ance
Ġunbe coming
Ġunreason able
Ġunten able
Ġungr ateful
Ġunatt ended
Ġuncomp romising
Ġunutter able
Ġunwon ted
Ġunri pe
Ġunwarrant able
Ġunskill ful
Ġunilater ally
Ġuncompens ated
Ġunwaver ing
Ġunsophistic ated
Ġlawsu its
Ġrout e
Ġrick tig
Ġrhet oricians
Ġvider i
Ġvindic ated
Ġunderto ok
ĠBON UM
ĠBru cker
ĠBAC ON
ĠBET WEEN
Ġheark ened
Ġtrail er
Ġtraduc ers
Ġabort ive
Ġabomin able
Ġpersp icuity
Ġperpend icular
Ġpersever ance
Ġkins folk
Ġjoc ose
Ġstag gered
Ġshrew dness
ĠFrequ ent
ĠFals us
ĠFonten elle
Ġsyncret istic
ĠAMPH IBOLY
ĠAXIOM S
Ġrelie ving
Ġmanual s
Ġmanufact ures
Ġconserv ative
ĠPha edo
ĠPOP ULAR
ĠPrep ared
Ġapposition em
Ġdisarrang ing
Ġdisproportion ate
Ġarmist ice
ĠSever al
ĠSoph isma
ĠSpect ators
ĠSIM PLE
ĠThousand s
ĠOreg on
Ġphthis is
ĠNev ada
Ġpreten ces
ĠCoun sels
ĠClear ness
ĠCAT EGORIES
ĠGAL ILEI
ĠWOL F
ĠWashing ton
ĠIncert aeque
Ġencoun ters
Ġdesider atum
Ġdespond ing
ĠHOP E
ĠRober tson
Ġindefat igably
ĠEduc ation
ĠEMP IRICAL
ĠEgypt ians
Ġextremit ies
Ġterrestr ial
Ġamaz ement
ĠDistr ict
ĠDemonstr ations
ĠDiogen es
ĠDEPEND ENCE
ĠReven ue
ĠRequire ment
Ġrealissim a
ĠProceed ing
ĠMED IUM
ĠMair an
ĠMAD E
ĠMetamorph oses
ĠMassachuse tts
Ġimpug ned
Ġinvinc ible
Ġcorrobor ating
Ġphysiogn omists
Ġaffirmat ives
Ġelangu escence
subdivis io
ĠJerse y
Ġsuperfici ality
Ġsuperann uated
Ġmisfortun es
Ġmiscarr iage
Ġcoars est
Ġposthum ous
Ġvariet ates
ĠKentuck y
Ġundemonstr ated
ĠHecub a
ĠArbitr ation
Ġinsurmount able
ĠAnnihil ate
ĠVau canson
Ġintrospect ions
ĠUnquestion ably
Ġfrug ality
Ġfrivol ity
Ġsurmoun ted
Ġsurveill ance
Ġgeogr aphers
Ġfluct uating
Ġindiscern ible
Ġindissolu bly
ĠANTIC IPATIONS
Ġadmixt ures
ĠORIG INATION
ĠDeuts ches
Ġextramund anum
Ġderivativ us
Ġguardians hip
Ġcalumni ators
Ġcurvil inear
ĠComput ers
Ġcounterbal ancing
Ġanthropomorphist s
ĠMeiklejo hn
ĠEXIST ENCE
ĠEXPER IENCE
ĠNewslet ters
Ġlaboure rs
Ġlabyrin th
ĠSTAH L
Ġanimadvers ions
friend ship
ĠBEAU TIFUL
Ġsubterrane an
Ġswift ness
Ġromanc ers
Ġadminister ing
Ġpalingen esis
Ġunluck ily
ĠPOSTUL ATES
ĠOTHERWIS E
Ġpolysyllogistic a
Ġbiograph ies
ĠMontesquie u
ĠKNOWLED GE
ĠACCOR DING
ĠPennsylvan ia
Ġhydro chloric
ĠFlorid a
Ġvouchsaf ed
ĠCOPERNIC US
! âĢĿ
) --
1 13
2 00
8 9
9 0
9 4
9 7
C ERN
E r
E s
F ESS
H om
H obbes
H OW
I DU
P PL
R ousseau
S en
S LAT
T E
T reat
W erke
] --
_ âĢĿ
a very
a ussure
b t
b on
b ach
b are
c f
c en
c as
c let
g ar
i hood
j ug
l angu
m ove
m ach
n orm
p her
p op
p ubl
r ag
s il
y ard
y lo
z oism
Â ´
Â º
Ã ¢
Ã ¢Ä
Ġ iori
Ġ ilos
Ġ igin
Ġ iven
Ġ uthor
Ġ ivid
Ġ iverse
Ġ llogism
Ġ iber
Ġ icip
Ġ icense
Ġ hensible
Ġ eduction
Ġ igion
Ġ ivil
Ġ ieve
Ġ jected
Ġ ictions
Ġ izable
Ġ ÏĦ
Ġ âĢĺ
Ġ á¼
Ġt on
Ġt ired
Ġt ains
Ġa h
Ġa cious
on x
in as
in ces
Ġo k
Ġo res
Ġo ol
Ġo du
Ġo ted
Ġo ck
Ġo men
Ġo ses
Ġo cr
Ġo tt
it hesis
is che
en b
en ned
en stein
at ori
at te
er ing
Ġw age
Ġc as
Ġc ience
Ġc ities
Ġc ulation
Ġc iousness
Ġs le
Ġs hed
Ġs way
Ġp se
Ġp able
Ġp poses
Ġp essim
Ġp edant
Ġin ct
Ġin ity
Ġin cid
Ġin herit
Ġin hosp
Ġb id
Ġb less
Ġb roken
es ch
Ġth od
Ġth ro
or ks
Ġm n
Ġm and
Ġm um
Ġm all
Ġm ix
Ġf ers
Ġf ici
Ġf fect
Ġe w
Ġe al
Ġe termin
le hr
Ġit al
Ġit ates
Ġit atis
Ġre nt
ar us
ot ten
ut ens
ich t
Ġh il
Ġh osp
ect ures
Ġas on
Ġpr inces
Ġu x
Ġu ct
Ġu ition
Ġu man
Ġu cid
the il
Ġan cy
Ġan archy
Ġon y
ow per
Ġwe en
Ġg g
ir g
ir s
Äł ol
Äł ans
Äł stand
Äł ud
Äł our
Äł ast
Äł ke
Äł ang
Äł can
Äł phenomen
Äł stru
Äł lear
Äł EN
Äł trib
Äł aut
Äł right
Äł requ
Äł every
Äł connect
Äł rational
Äł univers
Äł ground
Äł system
Äł consider
Äł think
Äł ru
Äł ele
Äł effect
Äł non
Äł examin
Äł indic
Äł set
Äł judg
Äł preced
Äł anthrop
Äł assum
Äł IM
Äł method
Äł add
Äł cir
Äł cap
Äł grad
Äł purpos
Äł Ne
Äł formul
Äł estim
Äł cultiv
Äł belie
Äł presum
Äł transg
Äł elev
Äł manifest
Äł Trans
Äł redu
Äł accompl
Äł omni
Äł New
ĠI L
ĠI TION
ĠI ES
Ġor m
Ġor ic
Ġor iz
ay ers
Ġde cor
Ġpro sec
Ġpro posal
ĠT EL
Ġall udes
ch ts
Ġare st
Ġne x
ust an
act uality
Ġat iv
me tr
Ġun to
Ġun belie
ies er
Ġr us
Ġr op
Ġr ivers
Ġv ibr
Ġse eds
Ġunder lying
Ġem er
Ġem per
cc les
ĠB ILITY
ĠB ERN
ĠB enth
ĠB elli
ĠThe ism
Ġhe res
Ġtr odu
ak ens
ud den
Ġim er
Ġim al
Ġim ents
Ġim ental
Ġj un
Ġus s
Ġif ice
Ġif ices
ph icty
ĠF ichte
ff y
ĠA esthetical
ome ters
Ġcogn ising
Ġev olution
Ġman ence
ĠP age
ĠP hil
ĠP reliminary
for ced
Ġy ellow
Ġad o
Ġad ed
Ġdis armament
Ġar ma
Ġle ase
ĠS E
Ġch n
Ġch an
tern et
ĠO S
ĠN atur
Ġpre face
ĠC riticism
ĠC hap
ĠC owper
Ġpl ausibility
ĠW ars
The sis
ĠH ague
ĠH ellen
Ġow ers
Ġpos ing
ac is
Ġend ow
pro ject
Ġag ing
Ġag ed
ĠE th
ĠE MENT
ĠE ucl
ÃĦÅĤ O
ÃĦÅĤ sh
ell ung
Ġam es
ĠD ante
ĠRe v
Ġreal ise
Ġreal ism
Ġ1 19
Ġest y
Ġac le
Ġac ity
ĠL EG
ĠL ectures
Ġstr ained
Ġcommon place
und esigned
_, [
Ġcl ing
Ġcl ergy
Ġi ers
Ġi ally
In quir
Ġill ed
bl imity
EN ESS
Ġer a
Ġer able
Ġes is
ĠTH ER
Ġant ly
Ġsol ute
Ġing red
Ġess ays
Ġut able
Ġte en
ĠK uno
ĠK irchmann
Äłs ing
Äłs ent
Äłs ci
Äłs ome
Äłs how
Äłs pirit
Ġaw akens
Ġfurther ing
AN D
AN S
AN ATION
ĠAr ithmetic
_. --
Ġins pir
Ġconstitution al
AR D
Ġanalys ed
EC T
Äłc it
Äłc our
Äłc red
Äłc ens
Äłc ogit
Äłre mark
Äłre conci
Äłre main
Ġbl ade
Äłp olit
Ġfurn iture
Ġcre t
Ġul ation
Ġul sion
ĠÃ ¡
Äłf it
Äłf al
Äłf an
Äłf ound
Äłf am
Äłf ollow
Äłf urn
Äłf ru
TH EM
Pro jet
Ġcol or
Ġ7 4
Äłde m
Äłde ce
Ġir on
Ġir ing
Äłm er
Äłm ar
Äłm ot
Äłm il
Äłm ark
ÄłP ar
ÄłP ers
Ġic a
Ġic ability
Äłb re
Äłb as
Ġrep ulsion
Äłh ard
real isation
Ġshe ll
Ġur d
Ġur n
Ġur ious
ÄłC a
ÄłC OM
Äłt est
Ġafford ing
ÄłS T
ÄłS y
ÄłS ub
Ġsequ ently
ÄłA s
ÄłA pp
Äła str
Äła ffect
Äła ccord
Ġexc itement
Ġate gor
Ġver se
Ġang er
Äłcon j
Äłcon sequ
Äłr a
Äłr ul
Äłr id
Äłr ad
ĠĠĠĠĠĠĠĠĠĠĠĠĠĠĠĠĠĠĠĠĠĠĠĠĠĠĠĠĠĠĠĠ ĠĠĠĠĠĠĠĠĠĠĠĠĠĠĠĠĠĠĠĠ
Äłv ent
Äłw a
Ġ15 7
Ġwr ath
Ġ10 7
Ġ10 8
Ġ10 9
Ġren ce
Äłex hib
Äłex haust
ÄłD is
cr y
Ġve il
Ġtre acher
Äłen g
Ġ12 8
Ġast e
ĠPer pÃ©tuelle
ĠOr igen
10 1
Äłn um
ra el
ĠMe chanism
organ isation
Ġ18 99
ĠLaw rence
OL UTION
Ġsl avery
ÄłG e
Ġol it
Äłper form
Äłsub stit
Äłsub sum
ÄłO r
inom ies
Ġ13 7
Ġos ing
Ġos sib
Äłar chety
Ġ16 7
Ġclos ed
Ġog it
Ġog ress
ĠHart enstein
ĠX XI
Ġincomp atibility
Ġtransl ates
Gr otius
Ġland s
19 9
Ġolog ia
Äłas c
Äłcom pl
Ch ristian
Ġmer cen
Ġci proc
Ġsav age
Äłj ur
Ġoun ces
Ġoun cing
TIN G
ĠÄ ¢
Äłme l
Äłme t
Äłam big
Ã¢Ä¢Ä ¾
Ġress ions
Ġort ions
Ġcrib ing
Ġfer red
Ġadmin istered
Ġtern ally
EL L
á½ °
á½ ¹
Ġgrasp ed
Ġix ed
Ġust om
substr ate
Äłinv estig
Ã¤ t
Ġfriend ly
Äłappro xim
Ġlect ed
Ġenthusi astic
Äłtrans l
ĠDom inion
CON T
ĠPa ix
Ant ithesis
Ã´ n
Ġoy al
ĠZ weck
Ġswe eping
Ġrelax ation
Ġadorn ment
ĠJudg ment
Äłprom ot
Ïģ Î¿
inf ra
Ġith me
Ġane ously
Ġrival ry
Äłcrit ic
Äłpost ul
Ġoub ted
Äłcommun ic
Ġstim ulate
.= --
Ġsad ness
Ġassem bly
Ġspread s
Ġsel ves
ĠEs say
Ġbrother hood
mult i
Ã¶ n
Ġconsumm ation
ĠCong resses
ĠDEFIN ITIVE
Ġrepugn ant
ĠXV III
Ġabsolut ism
Ïī Î½
Ġpron ounced
Ġubl ic
ĠPRE FACE
Äłhyp ostat
ĠARTIC LE
wind ed
Ġskept icism
Äłjust if
ÄłÃİ Âº
Äłsus p
mÃ¤ ssigkeit
Ġrebell ion
Ġunte ers
Ġplic ity
Ġacr oss
ĠArtic les
Ġcolon ies
Äłbar bar
EOL OGICAL
Rel igion
tend ency
omencl ature
ĠQuest ion
ahrnehm ung
Verstandeswes en
Ã¢Ä ¢
ĠTEL EOLOGICAL
ĠBERN ARD
ĠBenth am
ĠEucl id
Ġmercen ary
1 15
1 17
1 12
1 14
1 10
5 28
8 2
8 5
8 6
8 8
9 1
9 22
: [
? ),
C RITIQUE
D I
E ngl
E spr
G er
G ree
J ug
K onx
L ES
O per
O LI
P l
P o
P sych
P AN
P reface
R ep
R hetoric
R osenkranz
T A
T D
T RAN
U r
V om
W orks
W ahrnehmung
a us
a ily
b iv
b est
b ility
b read
c iv
c us
d p
d ays
d ream
e ber
e ine
f athom
h re
h ost
h yper
h istory
i ens
[...]
