{"<s>":0,"<pad>":1,"</s>":2,"<unk>":3,"<mask>":4,"!":5,"\"":6,"#":7,"$":8,"%":9,"&":10,"'":11,"(":12,")":13,"*":14,"+":15,",":16,"-":17,".":18,"/":19,"0":20,"1":21,"2":22,"3":23,"4":24,"5":25,"6":26,"7":27,"8":28,"9":29,":":30,";":31,"<":32,"=":33,">":34,"?":35,"@":36,"A":37,"B":38,"C":39,"D":40,"E":41,"F":42,"G":43,"H":44,"I":45,"J":46,"K":47,"L":48,"M":49,"N":50,"O":51,"P":52,"Q":53,"R":54,"S":55,"T":56,"U":57,"V":58,"W":59,"X":60,"Y":61,"Z":62,"[":63,"\\":64,"]":65,"^":66,"_":67,"`":68,"a":69,"b":70,"c":71,"d":72,"e":73,"f":74,"g":75,"h":76,"i":77,"j":78,"k":79,"l":80,"m":81,"n":82,"o":83,"p":84,"q":85,"r":86,"s":87,"t":88,"u":89,"v":90,"w":91,"x":92,"y":93,"z":94,"{":95,"|":96,"}":97,"~":98,"¡":99,"¢":100,"£":101,"¤":102,"¥":103,"¦":104,"§":105,"¨":106,"©":107,"ª":108,"«":109,"¬":110,"®":111,"¯":112,"°":113,"±":114,"²":115,"³":116,"´":117,"µ":118,"¶":119,"·":120,"¸":121,"¹":122,"º":123,"»":124,"¼":125,"½":126,"¾":127,"¿":128,"À":129,"Á":130,"Â":131,"Ã":132,"Ä":133,"Å":134,"Æ":135,"Ç":136,"È":137,"É":138,"Ê":139,"Ë":140,"Ì":141,"Í":142,"Î":143,"Ï":144,"Ð":145,"Ñ":146,"Ò":147,"Ó":148,"Ô":149,"Õ":150,"Ö":151,"×":152,"Ø":153,"Ù":154,"Ú":155,"Û":156,"Ü":157,"Ý":158,"Þ":159,"ß":160,"à":161,"á":162,"â":163,"ã":164,"ä":165,"å":166,"æ":167,"ç":168,"è":169,"é":170,"ê":171,"ë":172,"ì":173,"í":174,"î":175,"ï":176,"ð":177,"ñ":178,"ò":179,"ó":180,"ô":181,"õ":182,"ö":183,"÷":184,"ø":185,"ù":186,"ú":187,"û":188,"ü":189,"ý":190,"þ":191,"ÿ":192,"Ā":193,"ā":194,"Ă":195,"ă":196,"Ą":197,"ą":198,"Ć":199,"ć":200,"Ĉ":201,"ĉ":202,"Ċ":203,"ċ":204,"Č":205,"č":206,"Ď":207,"ď":208,"Đ":209,"đ":210,"Ē":211,"ē":212,"Ĕ":213,"ĕ":214,"Ė":215,"ė":216,"Ę":217,"ę":218,"Ě":219,"ě":220,"Ĝ":221,"ĝ":222,"Ğ":223,"ğ":224,"Ġ":225,"ġ":226,"Ģ":227,"ģ":228,"Ĥ":229,"ĥ":230,"Ħ":231,"ħ":232,"Ĩ":233,"ĩ":234,"Ī":235,"ī":236,"Ĭ":237,"ĭ":238,"Į":239,"į":240,"İ":241,"ı":242,"Ĳ":243,"ĳ":244,"Ĵ":245,"ĵ":246,"Ķ":247,"ķ":248,"ĸ":249,"Ĺ":250,"ĺ":251,"Ļ":252,"ļ":253,"Ľ":254,"ľ":255,"Ŀ":256,"ŀ":257,"Ł":258,"ł":259,"Ń":260,"Ġt":261,"he":262,"Ġa":263,"on":264,"in":265,"Ġo":266,"Ġthe":267,"re":268,"it":269,"Ġof":270,"is":271,"en":272,"at":273,"er":274,"Ġw":275,"Ġc":276,"ion":277,"Ġs":278,"Ġp":279,"al":280,"ic":281,"Ġin":282,"nd":283,"Ġb":284,"es":285,"Ġth":286,"or":287,"Ġm":288,"Ġto":289,"ce":290,"Ġf":291,"ing":292,"ct":293,"an":294,"ed":295,"Ġn":296,"ou":297,"Ġe":298,"se":299,"ly":300,"Ġis":301,"ĠĠ":302,"le":303,"Ġit":304,"Ġre":305,"Ġand":306,"Ġd":307,"Ġcon":308,"st":309,"Ġbe":310,"om":311,"ent":312,"Ġwh":313,"ar":314,"ot":315,"ut":316,"as":317,"ich":318,"Ġh":319,"ect":320,"Ġas":321,"Ġpr":322,"ll":323,"Ġu":324,"iv":325,"Ġwhich":326,"the":327,"Ġthat":328,"ation":329,"im":330,"os":331,"ition":332,"ity":333,"Ġan":334,"Ġon":335,"Ġex":336,"Ġl":337,"Ġnot":338,"ical":339,"ĠĠĠĠ":340,"pt":341,"ject":342,"Ġthis":343,"Ġfor":344,"ow":345,"ith":346,"ess":347,"Ġwe":348,"de":349,"ur":350,"ib":351,"ure":352,"bject":353,"ence":354,"Ġsu":355,"ter":356,"cept":357,"Ġg":358,"ci":359,"ld":360,"ir":361,"Ġwith":362,"Äł":363,"ĠI":364,"th":365,"ver":366,"qu":367,"og":368,"ive":369,"Ġor":370,"res":371,"ay":372,"gh":373,"Ġme":374,"ist":375,"ain":376,"Ġcan":377,"if":378,"ason":379,"Ġby":380,"and":381,"ul":382,"per":383,"ception":384,"sel":385,"âĢ":386,"Ġde":387,"sib":388,"ve":389,"Ġpro":390,"ĠT":391,"rom":392,"Ġall":393,"pp":394,"ch":395,"con":396,"ate":397,"Ġare":398,"Ġobject":399,"Ġreason":400,"il":401,"Ġne":402,"Ġfrom":403,"ust":404,"Ġbut":405,"ore":406,"us":407,"Ġal":408,"Ġits":409,"ther":410,"Ġint":411,"em":412,"ple":413,"act":414,"id":415,"end":416,"Ġha":417,"ossib":418,"Ġat":419,"hen":420,"Ġonly":421,"ab":422,"Ġ(":423,"me":424,"pl":425,"ill":426,"aw":427,"ol":428,"ould":429,"nder":430,"Ġun":431,"ough":432,"ig":433,"self":434,"ĠĠĠĠĠĠĠĠ":435,"inci":436,"Ġconception":437,"dition":438,"Ġca":439,"min":440,"ans":441,"Ġour":442,"tain":443,"Ġthere":444,"âĢĶ":445,"cess":446,"ies":447,"um":448,"Ġcom":449,"tr":450,"Ġlaw":451,"of":452,"termin":453,"Ġr":454,"Ġmust":455,"Ġsp":456,"est":457,"not":458,"ide":459,"Ġpossib":460,"resent":461,"Ġso":462,"Ġprinci":463,"ous":464,"Ġwor":465,"ality":466,"her":467,"Ġhave":468,"Ġother":469,"Ġnat":470,"ience":471,"Ġv":472,"Ġse":473,"Ġunder":474,"Ġem":475,"perience":476,"od":477,"Ġpure":478,"cc":479,"ĠB":480,"stand":481,"ĠThe":482,"Ġmere":483,"Ġhe":484,"Ġexist":485,"Ġsen":486,"Ġdo":487,"ound":488,"ogn":489,"Ġtr":490,"use":491,"ak":492,"ud":493,"Ġdetermin":494,"ge":495,"ction":496,"fore":497,"very":498,"su":499,"pr":500,"ime":501,"ere":502,"Ġany":503,"Ġno":504,"Ġthem":505,"Ġmay":506,"pos":507,"Ġform":508,"ad":509,"Ġab":510,"Ġwill":511,"all":512,"ary":513,"Ġim":514,"Ġper":515,"ard":516,"Ġitself":517,"Ġthey":518,"standing":519,"Ġnecess":520,"ori":521,"Ġthing":522,"ose":523,"Ġcondition":524,"Ġk":525,"ant":526,"ind":527,"Ġj":528,"able":529,"omen":530,"Ġexperience":531,"ame":532,"Ġus":533,"Ġif":534,"ility":535,"Ġst":536,"henomen":537,"cul":538,"Ġreg":539,"ph":540,"ace":541,"pir":542,"out":543,"Ġsh":544,"ĠF":545,"Ġsy":546,"iori":547,"Ġnature":548,"uition":549,"art":550,"ment":551,"ff":552,"ations":553,"ĠA":554,"Ġtime":555,"ord":556,"ex":557,"ght":558,"Ġone":559,"ome":560,"pirical":561,"Ġcogn":562,"Ġcannot":563,"Ġhas":564,"Ġqu":565,"Ġbeing":566,"present":567,"ance":568,"ves":569,"ĠBut":570,"Ġthese":571,"endent":572,"Ġpossible":573,"Ġev":574,"wh":575,"actical":576,"ca":577,"ire":578,"now":579,"our":580,"Ġrel":581,"Ġide":582,"un":583,"Ġman":584,"Ġcons":585,"Ġpriori":586,"ty":587,"Ġtheir":588,"Ġgiv":589,"Ġmor":590,"Ġacc":591,"ĠP":592,"Ġwould":593,"ement":594,"ers":595,"udg":596,"Ġphenomen":597,"thing":598,"Ġintuition":599,"ite":600,"Ġapp":601,"ative":602,"one":603,"Ġsuch":604,"ples":605,"for":606,"ally":607,"Ġempirical":608,"Ġy":609,"Ġtherefore":610,"ight":611,"Ġad":612,"ansc":613,"pon":614,"Ġunderstanding":615,"to":616,"Ġprinciple":617,"Ġsubject":618,"),":619,"Ġregard":620,"ĠFor":621,"Ġdis":622,"sequ":623,"Ġcognition":624,"red":625,"cl":626,"ie":627,"selves":628,"tical":629,"ute":630,"Ġar":631,"so":632,"Ġexistence":633,"ong":634,"Ġpractical":635,"ces":636,"anscendent":637,"Ãł":638,"be":639,"Ġle":640,"fere":641,"ently":642,"Ġgiven":643,"ions":644,"Ġknow":645,"position":646,"Ġworld":647,"Ġmerely":648,"nthe":649,"ĠS":650,"ĠTh":651,"which":652,"feren":653,"here":654,"Ġwithout":655,"Ġrepresent":656,"Ġobjects":657,"Ġconceptions":658,"ict":659,"Ġpart":660,"ener":661,"cause":662,"udgement":663,"te":664,"str":665,"Ġch":666,"Ġthings":667,"et":668,"ĠÃł":669,"Ġsame":670,"Ġsome":671,"ertain":672,"Ġevery":673,"ys":674,"anscendental":675,"Ġaccord":676,"tern":677,"sp":678,"Ġmeans":679,"Ġ_":680,"ise":681,"ĠĠĠĠĠĠĠĠĠĠĠĠĠĠĠĠ":682,"op":683,"ought":684,"ag":685,"Ġprinciples":686,"ĠO":687,"atter":688,"Ġwhat":689,"ake":690,"Ġmoral":691,"Ġhis":692,"hing":693,"Ġhow":694,"Ġwho":695,"ated":696,"ays":697,"Ġeven":698,"Ġfa":699,"Ġphenomena":700,"ens":701,"sequently":702,"Ġph":703,"ress":704,"Ġmy":705,"Ġsynthe":706,"led":707,"ĠN":708,"int":709,"fin":710,"Ġsub":711,"el":712,"sol":713,"Ġnecessary":714,"==":715,"am":716,"pre":717,"Ġunity":718,"Ġlaws":719,"Ġcase":720,"ness":721,"Ġthan":722,"that":723,"ternal":724,"ast":725,"though":726,"du":727,"ever":728,"Ġgener":729,"ppos":730,"Ġmore":731,"ree":732,"mat":733,"Ġpur":734,"Ġpre":735,"Ġspe":736,"Ġbecause":737,"ĠC":738,"Ġfar":739,"oy":740,"ĠG":741,"Ġpl":742,"Ġgr":743,"possib":744,"Ġser":745,"Ġjudgement":746,"iz":747,"Ġdif":748,"mon":749,"ced":750,"ĠW":751,"imit":752,"ber":753,"reat":754,"Ġalso":755,"Ġupon":756,"Ġma":757,"Ġdoes":758,"Ġrelation":759,"ĠIn":760,"Ġcertain":761,"Ġcontain":762,"Ġidea":763,"Ġaccording":764,"Ġnothing":765,"olog":766,"sis":767,"ways":768,"ilos":769,"solute":770,"Ġcaus":771,"ort":772,"ĠIt":773,"Ġbel":774,"Ġuse":775,"ledge":776,"Ġinto":777,"rit":778,"Ġpresent":779,"ign":780,"ost":781,"Ġaction":782,"nect":783,"Ġpossibility":784,"Ġcomple":785,"Ġthen":786,"condition":787,"irst":788,"Ġsense":789,"Ġwhen":790,"ivers":791,"Ġnever":792,"com":793,"ational":794,"Ġcont":795,"The":796,"ism":797,"Ġconditions":798,"Ġgo":799,"oll":800,"ffect":801,"ial":802,"Ġen":803,"hether":804,"Ġdes":805,"Ġcause":806,"ue":807,"ĠH":808,"ollow":809,"Ġtranscendental":810,"form":811,"cious":812,"Ġcontr":813,"Ġhim":814,"Ġgeneral":815,"Ġproposition":816,"Ġfacul":817,"Ġow":818,"ates":819,"uch":820,"ither":821,"Ġrequ":822,"ro":823,"Ġthought":824,"ser":825,"Ġthemselves":826,"Ġconsequently":827,"Ġproper":828,"Ġob":829,"Ġalone":830,"ĠR":831,"Ġwas":832,"Ġalways":833,"Ġdist":834,"stem":835,"Ġspace":836,"ove":837,"Ġshould":838,"Ġcould":839,"Ġown":840,"we":841,"Ġfound":842,"gor":843,"old":844,"Ġfirst":845,"ategor":846,"Ġabsolute":847,"ily":848,"aph":849,"Ġcall":850,"Ġlimit":851,"Ġpos":852,"âĢĿ":853,"ploy":854,"ish":855,"âĢľ":856,"other":857,"Ġconnect":858,"Ġsay":859,"Ġknowledge":860,"ici":861,"ac":862,"Ġobjective":863,"Ġend":864,"der":865,"Ġconcept":866,"Ġbeen":867,"spect":868,"pose":869,"possible":870,"Ġinde":871,"Ġact":872,"ink":873,"reed":874,"fect":875,"Ġfollow":876,"pro":877,"Ġfe":878,"Ġalthough":879,"Ġphilos":880,"ied":881,"Ġquest":882,"Ġrem":883,"Ġdifferen":884,"Ġrespect":885,"with":886,"reedom":887,"ĠThis":888,"Ġag":889,"ics":890,"ĠE":891,"ach":892,"conception":893,"Ġthus":894,"Ġground":895,"Ġfaculty":896,"Ġrational":897,"oph":898,"stit":899,"are":900,"Ġdisc":901,"uth":902,"Ġseries":903,"Ġunivers":904,"ÃĦ":905,"Ġval":906,"Ġcomplete":907,"Ġsystem":908,"ine":909,"ĠâĢľ":910,"Ġbelong":911,"ÅĤ":912,"Ġorder":913,"Ġwere":914,"ÃĦÅĤ":915,"Ġemploy":916,"Ġwhether":917,"Ġlatter":918,"Ġext":919,"ual":920,"Ġsci":921,"Ġvery":922,"ke":923,"Ġformer":924,"icul":925,"ĠNow":926,"uman":927,"ear":928,"Ġmake":929,"Ġsomething":930,"xim":931,"Ġhapp":932,"Ġhowever":933,"by":934,"over":935,"ural":936,"Ġprodu":937,"mit":938,"par":939,"nderstanding":940,"Ġind":941,"med":942,"Ġfind":943,"less":944,"iness":945,"ne":946,"Ġreality":947,"Ġplace":948,"sess":949,"Ġwhole":950,"Ġthose":951,"Ġcategor":952,"ha":953,"Ġyou":954,"Ġout":955,"ination":956,"Ġfreedom":957,"Ġnecessity":958,"culative":959,"Ġgood":960,"Ġthink":961,"Ġexp":962,"Ġcausality":963,"ang":964,"Ġpres":965,"Ġyet":966,"ell":967,"Ġeffect":968,"suous":969,"adict":970,"rough":971,"ciousness":972,"sible":973,"ode":974,"uty":975,"igin":976,"Ġter":977,"oun":978,"Ġsynthesis":979,").":980,"Ġjust":981,"Ġhuman":982,"ile":983,"Ġam":984,"Ġquestion":985,"wo":986,"Ġpow":987,"oint":988,"Ġpurpose":989,"lect":990,"object":991,"Ġgreat":992,"Ġstate":993,"Ġent":994,"Ġwork":995,"ĠD":996,"ike":997,"preme":998,"Ġmind":999,"ution":1000,"Ġmat":1001,"ophy":1002,"uten":1003,"sy":1004,"ication":1005,"Ġrepresentation":1006,"Ġatt":1007,"ory":1008,"berg":1009,"hed":1010,"Ġlog":1011,"man":1012,"Ġmaxim":1013,"utenberg":1014,"ĠRe":1015,"ass":1016,"Ġreal":1017,"Ġnatural":1018,"sen":1019,"ble":1020,"arily":1021,"rib":1022,"ĠIf":1023,"Ġbas":1024,"Ġanal":1025,"Ġappl":1026,"ok":1027,"erest":1028,"Ġvalid":1029,"Ġsim":1030,"ological":1031,"Ġdifferent":1032,"Ġpossess":1033,"ived":1034,"ince":1035,"iew":1036,"ÄłÄł":1037,"Ġ1":1038,"Ġconstit":1039,"this":1040,"Ġperfect":1041,"Ġscience":1042,"reason":1043,"Ġcrit":1044,"Ġthrough":1045,"ible":1046,"====":1047,"exist":1048,"Ġexam":1049,"Ġdetermined":1050,"ĠPro":1051,"aphys":1052,"ĠM":1053,"ious":1054,"hemat":1055,"ider":1056,"Ġsynthetical":1057,"ful":1058,"Ġtwo":1059,"edu":1060,"Ġfact":1061,"ceed":1062,"Ġname":1063,"Ġ[":1064,"ult":1065,"Ġfeel":1066,"ice":1067,"Ġcalled":1068,"stance":1069,"ond":1070,"lf":1071,"Ġorigin":1072,"Ġimp":1073,"Ġhere":1074,"ffici":1075,"Ġsubjective":1076,"cogn":1077,"ook":1078,"finite":1079,"Ġspeculative":1080,"av":1081,"Ġshall":1082,"ule":1083,"Ġbet":1084,"Ġperception":1085,"Ġuniversal":1086,"Ġinv":1087,"ĠWe":1088,"Ġinternal":1089,"cons":1090,"Ġpoint":1091,"Th":1092,"atis":1093,"determin":1094,"Ġword":1095,"yond":1096,"ern":1097,"Ġduty":1098,"Ġway":1099,"Ġsphere":1100,"Ġview":1101,"Ġideas":1102,"ĠReason":1103,"Ġmanif":1104,"oth":1105,"ved":1106,"ark":1107,"Ġest":1108,"Ġsensuous":1109,"Ġself":1110,"ogit":1111,"Ġquite":1112,"Ġchar":1113,"Ġanother":1114,"ĠU":1115,"Ġdetermination":1116,"Ġincl":1117,"princi":1118,"Ġkind":1119,".,":1120,"cond":1121,"ments":1122,"ents":1123,"Ġref":1124,"action":1125,"Ġcor":1126,"Ġappear":1127,"atisf":1128,"ted":1129,"Ġexpl":1130,"acter":1131,"Ġshow":1132,"Ġhig":1133,"usion":1134,"Ġac":1135,"Ġsens":1136,"yp":1137,"there":1138,"Ġlike":1139,"ances":1140,"Ġphilosophy":1141,"taphys":1142,"Ġcomm":1143,"Ġrule":1144,"fl":1145,"sibility":1146,"iate":1147,"understanding":1148,"ĠL":1149,"Ġhimself":1150,"age":1151,"conditioned":1152,"sion":1153,"Ġinterest":1154,"ĠProject":1155,"Ġwell":1156,"Ġstr":1157,"Ġexample":1158,"Ġpower":1159,"Ġleast":1160,"can":1161,"ference":1162,"Ġexternal":1163,"Ġnecessarily":1164,"Ġabsolutely":1165,"ires":1166,"Ġbeyond":1167,"ties":1168,"wise":1169,"ner":1170,"Ġstill":1171,"Ġimpossible":1172,"Ġeach":1173,"Ġconsciousness":1174,"Ġeither":1175,"irect":1176,"necess":1177,"Ġwhile":1178,"Ġdetermine":1179,"Ġwhere":1180,"Ġmode":1181,"Ġconc":1182,"ĠGutenberg":1183,"Ġgive":1184,"ange":1185,"Ġrequire":1186,"Ġcommon":1187,"Ġhand":1188,"abl":1189,"redic":1190,"Ġsee":1191,"app":1192,"Ġindeed":1193,"Ġadmit":1194,"ating":1195,"ellig":1196,"Ġintellig":1197,"Ġpe":1198,"Ġnor":1199,"its":1200,"Ġass":1201,"Ġourselves":1202,"ring":1203,"Ġconsider":1204,"ology":1205,"Ġphenomenon":1206,"Ġconnection":1207,"Ġcomp":1208,"ished":1209,"Ġrest":1210,"ident":1211,"experience":1212,"akes":1213,"ween":1214,"Ġfeeling":1215,"Ġproof":1216,"Ġcontains":1217,"tic":1218,"und":1219,"Ġdetermining":1220,"Ġap":1221,"ught":1222,"Ġboth":1223,"empt":1224,"Ġhad":1225,"_,":1226,"Ġcogit":1227,"Ġquant":1228,"Ġactions":1229,"But":1230,"icular":1231,"Ġmatter":1232,"ingu":1233,"Ġcharacter":1234,"ev":1235,"ten":1236,"Ġcl":1237,"Ġhappiness":1238,"Ġmost":1239,"Ġdiv":1240,"Ġproceed":1241,"Ġi":1242,"Ġfree":1243,"Ġcontradict":1244,"Ġterm":1245,"Ġmanifold":1246,"Ġres":1247,"Ġremain":1248,"ĠThus":1249,"Ġadv":1250,"ably":1251,"Ġcategories":1252,"Ġlimits":1253,"Ġnamely":1254,"Ġple":1255,"gin":1256,"othe":1257,"reg":1258,"Ġmight":1259,"Ġable":1260,"asure":1261,"Ġrepresentations":1262,"Ġright":1263,"Ġregards":1264,"mediate":1265,"dis":1266,"Ġsatisf":1267,"idered":1268,"Ġsecond":1269,"ER":1270,"Ġmuch":1271,"ĠAnd":1272,"fficient":1273,"Ġconce":1274,"ccess":1275,"gum":1276,"pendent":1277,"Ġbetween":1278,"Ġsince":1279,"ences":1280,"fter":1281,"Ġnow":1282,"Ġdistin":1283,"Ġmade":1284,"Ġexpress":1285,"Ġpresu":1286,"phenomen":1287,"Ġregarded":1288,"aid":1289,"Ġmorality":1290,"Ġthough":1291,"Ġbeings":1292,"contr":1293,"Ġtrue":1294,"Ġcontrary":1295,"ypothe":1296,"In":1297,"iqu":1298,"from":1299,"Ġdedu":1300,"pposition":1301,"pe":1302,"Ġtruth":1303,"Ġnotion":1304,"ize":1305,"Ġsupp":1306,"Ġfollows":1307,"Ġbefore":1308,"Ġill":1309,"Ġtake":1310,"Ġconcl":1311,"Ġsupreme":1312,"Ġsum":1313,"ited":1314,"Ġmetaphys":1315,"stru":1316,"Ġsensibility":1317,"Ġought":1318,"lear":1319,"pend":1320,"icism":1321,"Ġparts":1322,"bl":1323,"much":1324,"Ġpredic":1325,"ccord":1326,"Ġphys":1327,"Ġconsist":1328,"Ġattain":1329,"nat":1330,"ives":1331,"Ġproble":1332,"Ġmathemat":1333,"ving":1334,"existence":1335,"Ġup":1336,"Ġothers":1337,"Ġlogical":1338,"EN":1339,"but":1340,"Ġmanner":1341,"estig":1342,"ique":1343,"Ġer":1344,"Ġsubstance":1345,"Ġjudgements":1346,"represent":1347,"TI":1348,"Ġbegin":1349,"tm":1350,"conceptions":1351,"oretical":1352,"oid":1353,"hest":1354,"oub":1355,"irm":1356,"crib":1357,"know":1358,"Ġconsidered":1359,"Ġdirect":1360,"ision":1361,"ĠĠĠ":1362,"Ġagain":1363,"ON":1364,"ude":1365,"Ġaff":1366,"Ġocc":1367,"rel":1368,"ma":1369,"son":1370,"Ġabove":1371,"Ġcontent":1372,"Ġel":1373,"flu":1374,"ward":1375,"intuition":1376,"pposed":1377,"Ġtot":1378,"Ġfoundation":1379,"ene":1380,"Ġfin":1381,"Ġrul":1382,"Ġder":1383,"Ġstand":1384,"Ġconform":1385,"sub":1386,"Ġset":1387,"ath":1388,"osm":1389,"wor":1390,"Â§":1391,"Ġconcern":1392,"Ġmany":1393,"Ġaim":1394,"Ġdiscover":1395,"ount":1396,"ĠOf":1397,"read":1398,"pond":1399,"Ġpropositions":1400,"Ġmot":1401,"Ġfur":1402,"asmuch":1403,"Ġele":1404,"ĠCon":1405,"monstr":1406,"fer":1407,"Ġargum":1408,"Ġparticular":1409,"Ġpurpos":1410,"Ġseem":1411,"ĠOn":1412,"respond":1413,"Ġdeg":1414,"thod":1415,"ep":1416,"tle":1417,"odu":1418,"Ġclear":1419,"Ġhypothe":1420,"Ġexists":1421,"utes":1422,"aken":1423,"Ġdesire":1424,"Ġed":1425,"sert":1426,"Ġestabl":1427,"atic":1428,"ife":1429,"ĠBe":1430,"only":1431,"hes":1432,"Ġunconditioned":1433,"Ġcauses":1434,"Ġconditioned":1435,"Ġquantity":1436,"Ġleg":1437,"ialect":1438,"Ġmen":1439,"ĠGod":1440,"Ġbased":1441,"ather":1442,"empirical":1443,"pable":1444,"Ġsour":1445,"omy":1446,"Ġans":1447,"Ġneed":1448,"Ġworth":1449,"principle":1450,"cise":1451,"Ġarr":1452,"Ġrules":1453,"ning":1454,"Ġjudg":1455,"Ġsuccess":1456,"stances":1457,"Ġanything":1458,"Ġobser":1459,"Ġconcepts":1460,"Ġextend":1461,"ĠPure":1462,"raph":1463,"Ġhighest":1464,"being":1465,"law":1466,"Ġafter":1467,"Ġ\"":1468,"ignif":1469,",âĢĿ":1470,"Ġes":1471,"Ġsimple":1472,"cy":1473,"Ġdefin":1474,"Ġgrounds":1475,"ccording":1476,"Ġdistingu":1477,"trib":1478,"Ġnum":1479,"come":1480,"mis":1481,"Ġimmediate":1482,"agraph":1483,"Ġansw":1484,"unction":1485,"practical":1486,"matical":1487,"ized":1488,"cont":1489,"them":1490,"aim":1491,"OO":1492,"ase":1493,"Ġbound":1494,"Ġcognitions":1495,"Ġmod":1496,"ĠTH":1497,"Ġbelongs":1498,"Ġperson":1499,"Ġrequires":1500,"Ġlife":1501,"It":1502,"Ġconsequ":1503,"ention":1504,"Ġconf":1505,"Ġcompletely":1506,"Ġvalidity":1507,"Ġant":1508,"Ġgu":1509,"must":1510,"Ġ2":1511,"hence":1512,"certain":1513,"Ġimag":1514,"arr":1515,"ourse":1516,"ficul":1517,"Ġmaxims":1518,"opher":1519,"oubt":1520,"Ġeverything":1521,"cognition":1522,"Ġspeci":1523,"gr":1524,"Ġsol":1525,"Ġimper":1526,"This":1527,"Ġexer":1528,"Ġentire":1529,"Ġread":1530,"ĠĠĠĠĠĠĠĠĠĠĠĠĠĠĠĠĠĠĠĠĠĠĠĠ":1531,"Ġresult":1532,"theless":1533,"Ġnew":1534,"iven":1535,"perception":1536,"ood":1537,"Ġwant":1538,"Ġcop":1539,"Ġinfinite":1540,"Ġinvestig":1541,"Ġemployed":1542,"Ġmyself":1543,"erial":1544,"pect":1545,"itive":1546,"Ġaccordance":1547,"AL":1548,"Ġbod":1549,"Ġchange":1550,"fluence":1551,"Ġregress":1552,"Ġconting":1553,"Ġsc":1554,"Ġless":1555,"ĠIde":1556,"Ġrather":1557,"Ġsole":1558,"ps":1559,"Ġover":1560,"Ġattempt":1561,"Ġing":1562,"Ġeas":1563,"part":1564,"aking":1565,"Ġconnected":1566,"Ġbasis":1567,"Ġlong":1568,"Ġapplication":1569,"necessary":1570,"Ġproblem":1571,"ection":1572,"ually":1573,"oul":1574,"irt":1575,"mere":1576,"ĠSu":1577,"'s":1578,"Ġanaly":1579,"ÄłÄłÄłÄł":1580,"ĠJ":1581,"Ġpresented":1582,"Ġemployment":1583,");":1584,"therefore":1585,"Ġinasmuch":1586,"Ġmain":1587,"Ġends":1588,"Ġtheoretical":1589,"subject":1590,"Ġintuitions":1591,"If":1592,"Ġmean":1593,"Ġneg":1594,"Ġthereby":1595,"ck":1596,".âĢĿ":1597,"Ġmethod":1598,"Ġabout":1599,"possibility":1600,"ĠHence":1601,"Ġpleasure":1602,"phenomena":1603,"isl":1604,"ope":1605,"Ġreference":1606,"Ġreally":1607,"uthor":1608,"Ġassert":1609,"Ġotherwise":1610,"Ġideal":1611,"Ġsenses":1612,"Ġequ":1613,"mum":1614,"ĠThere":1615,"Ġbelie":1616,"We":1617,"ities":1618,"raw":1619,"Ġremark":1620,"how":1621,"Ġimport":1622,"Ġphysical":1623,"nature":1624,"ĠOF":1625,"itself":1626,"Ġhold":1627,"ases":1628,"bit":1629,"anation":1630,"do":1631,"iar":1632,"ctr":1633,"spe":1634,"without":1635,"Ġsystematic":1636,"amin":1637,"========":1638,"OOK":1639,"onum":1640,"Ġside":1641,"Ġcorrespond":1642,"Ġdegree":1643,"Ġhence":1644,"ready":1645,"Ġindic":1646,"ises":1647,"Ġintelligible":1648,"contradict":1649,"Ġdog":1650,"ogress":1651,"Ġcommand":1652,"Ġever":1653,"sume":1654,"Ġindependent":1655,"ension":1656,"Ġcontained":1657,"Ġremains":1658,"Ġtotality":1659,"atever":1660,"unity":1661,"manent":1662,"ĠBeing":1663,"Ġsuper":1664,"Ġexplain":1665,"cid":1666,"Ġphilosopher":1667,"BOOK":1668,"dom":1669,"mor":1670,"Ġaccount":1671,"AP":1672,"Ġattrib":1673,"Ġsensible":1674,"duct":1675,"ency":1676,"ĠPr":1677,"Ġsoul":1678,"Ġvirt":1679,"Ġess":1680,"ides":1681,"Ġwords":1682,"Ġsignif":1683,"Ġdoubt":1684,"CH":1685,"Ġneither":1686,"Ġformal":1687,"Ġdifficul":1688,"Ġanswer":1689,"conditions":1690,"Ġlogic":1691,"Ġut":1692,"Ġnumber":1693,"Ġrelations":1694,"ĠThat":1695,"Ġsaid":1696,"ane":1697,"Ġgives":1698,"Ġte":1699,"ised":1700,"Ġbecome":1701,"mand":1702,"Ġthinking":1703,"sensible":1704,"Ġentirely":1705,"Ġpass":1706,"Ġforms":1707,"culiar":1708,"Ġnon":1709,"Ġmaterial":1710,"Ġmis":1711,"Ġprev":1712,"armon":1713,"Ġerr":1714,"Ġco":1715,"Ġmakes":1716,"Ġexcept":1717,"Ġbonum":1718,"Ġdemonstr":1719,"Ġher":1720,"Ġlies":1721,"ĠII":1722,"Ġpost":1723,"Ġdepend":1724,"Ġalready":1725,"rect":1726,"Ġinfluence":1727,"Ġabstr":1728,"any":1729,"Ġprov":1730,"Ġop":1731,"Ġdistinction":1732,"Ġelse":1733,"Ġcontin":1734,"although":1735,"synthe":1736,"transcendental":1737,"men":1738,"ritique":1739,"ĠTHE":1740,"mall":1741,"nt":1742,"Ġexpect":1743,"Ġinqu":1744,"Ġproperly":1745,"hension":1746,"Ġtoo":1747,"ceive":1748,"Ġvar":1749,"ceived":1750,"up":1751,"Ġmem":1752,"TER":1753,"Ġperfectly":1754,"Ġ3":1755,"Ġwhose":1756,"Ġsufficient":1757,"comple":1758,"paragraph":1759,"ability":1760,"Ġassume":1761,"ĠAs":1762,"Ġcourse":1763,"will":1764,"Ġtaken":1765,"Ġprove":1766,"priori":1767,"ield":1768,"ĠK":1769,"dist":1770,"Ġlook":1771,"Ġproduce":1772,"Ġconduct":1773,"Ġ{":1774,"Ġcosm":1775,"dequ":1776,"Ġdetermines":1777,"lectual":1778,"ob":1779,"Ġobl":1780,"Ġassum":1781,"Ġ^":1782,"Ġprom":1783,"Ġpreced":1784,"Ġden":1785,"Ġexplanation":1786,"Ġsummum":1787,"ament":1788,"Ġpeculiar":1789,"Ġaffect":1790,"eneral":1791,"Ġmetaphysics":1792,"fa":1793,"uted":1794,"ivid":1795,"ranscendental":1796,"oundation":1797,"Ġcopy":1798,"Ġexercise":1799,"under":1800,"Äłs":1801,"Ġappre":1802,"Now":1803,"Ġart":1804,"ia":1805,"Ġident":1806,"Ġbr":1807,"APTER":1808,"Ġvirtue":1809,"imate":1810,"aut":1811,"Book":1812,"deav":1813,"pure":1814,"ĠY":1815,"Ġdialect":1816,"Ġprogress":1817,"Ġoblig":1818,"reement":1819,"Ġrender":1820,"ically":1821,"because":1822,"inations":1823,"cedure":1824,"Ġdeduction":1825,"Ġpredicate":1826,"Ġaw":1827,"Ġconstru":1828,"io":1829,"pur":1830,"antage":1831,"Ġbring":1832,"regard":1833,"RE":1834,"des":1835,"Ġce":1836,"they":1837,"Ġcontradiction":1838,"Ġbeginning":1839,"Ġargument":1840,"For":1841,"Ġagainst":1842,"Ġav":1843,"Ġfall":1844,"Ġconsists":1845,"gan":1846,"Ġapply":1847,"Ġadd":1848,"CHAPTER":1849,"onic":1850,"Ġfal":1851,"Ġdraw":1852,"ave":1853,"ĠĠĠĠĠĠĠĠĠĠĠĠĠĠĠĠĠĠĠĠĠĠĠĠĠĠĠĠĠĠĠĠĠĠĠĠĠĠĠĠ":1854,"have":1855,"cannot":1856,"Ġlegisl":1857,"Ġallow":1858,"ppose":1859,"ered":1860,"aste":1861,"Ġworks":1862,"Ġshown":1863,"time":1864,"Ġharmon":1865,"Ġlimited":1866,"Ġhigher":1867,"sych":1868,"ext":1869,"Ġerror":1870,"own":1871,"Ġconscious":1872,"ctrine":1873,"hib":1874,"ĠÂ§":1875,"ack":1876,"Ġwhatever":1877,"Ġaid":1878,"Ġregul":1879,"Ġfurther":1880,"cre":1881,"Ġly":1882,"Ġquestions":1883,"Ġapplied":1884,"âĢĻ":1885,"Ġfollowing":1886,"dif":1887,"Äłin":1888,"Ġdivision":1889,"these":1890,"Ġwithin":1891,"Ġillusion":1892,"**":1893,"Ġcapable":1894,"Ġcogitated":1895,"wards":1896,"ull":1897,"Ġwar":1898,"Ġchang":1899,"haps":1900,"ĠSupreme":1901,"right":1902,"Ġseek":1903,"Ġmaintain":1904,"requ":1905,"their":1906,"objects":1907,"consequently":1908,"merely":1909,"dequate":1910,"would":1911,"Ġunderstand":1912,"Ġexisting":1913,"ting":1914,"Ġdone":1915,"Ġexamin":1916,"consciousness":1917,"according":1918,"Ġcir":1919,"Ġrepresented":1920,"principles":1921,"aly":1922,"Ġclaim":1923,"Ġund":1924,"pposite":1925,"Ġdifference":1926,"AN":1927,"Ġanalytical":1928,"--":1929,"fe":1930,"Ġaddition":1931,"sim":1932,"ĠUnderstanding":1933,"Ġseems":1934,"ont":1935,"Ġhope":1936,"ix":1937,"Ġsing":1938,"Ġnevertheless":1939,"objective":1940,"Ġfalse":1941,"Ġpath":1942,"Ġsatisfaction":1943,".[":1944,"Ġcomb":1945,"Ġamong":1946,"cing":1947,"ined":1948,"ĠHe":1949,"lectr":1950,"Ġsensation":1951,"undament":1952,"ĠCritique":1953,"inte":1954,"overed":1955,"Ġdid":1956,"Ġimperative":1957,"undamental":1958,"every":1959,"Ġwish":1960,"teness":1961,"urn":1962,"ogism":1963,"._":1964,"cor":1965,"Ġintel":1966,"Ġpurely":1967,"Ġyour":1968,"Ġagreement":1969,"judgement":1970,"absolute":1971,"what":1972,"Ġjustif":1973,"some":1974,"Ġ5":1975,"Ġsmall":1976,"Ġet":1977,"Ġsolely":1978,"br":1979,"no":1980,"orough":1981,"uture":1982,"chan":1983,"Ġcognize":1984,"Ġmathematics":1985,"Ġimagination":1986,"lection":1987,"Ġtrans":1988,"Ġeffects":1989,"Ġpurposes":1990,"ental":1991,"Ġprocedure":1992,"Ġcertainly":1993,"Ġinclinations":1994,"Ġimmediately":1995,"ided":1996,"Ġserve":1997,"Ġdesign":1998,"Ġaffirm":1999,"ubl":2000,"ential":2001,"itude":2002,"connect":2003,"Ġendeav":2004,"Ġcontingent":2005,"moral":2006,"ĠTo":2007,"ĠAr":2008,"_.":2009,"hema":2010,"Ġcirc":2011,"Ġins":2012,"posed":2013,"ĠAn":2014,"Ġsource":2015,"ittle":2016,"Ġproperties":2017,"whether":2018,"Ġanalog":2019,"Ġconformity":2020,"imes":2021,"Ġactual":2022,"ni":2023,"oumen":2024,"Ġvol":2025,"Ġconstitution":2026,"disc":2027,"Ġeasily":2028,"iver":2029,"ption":2030,"where":2031,"ĠeBook":2032,"strict":2033,"Ġcertainty":2034,"Ġpar":2035,"ĠThey":2036,"Ġhypothesis":2037,"Ġdemand":2038,"Ġhappens":2039,"Ġproduct":2040,"inde":2041,"Ġful":2042,"ividual":2043,"cure":2044,"Ġ4":2045,"Ġauthor":2046,"even":2047,"Ġtreat":2048,"ared":2049,"leg":2050,"asion":2051,"ilar":2052,"Ġdefinition":2053,"Ġintellectual":2054,"onomy":2055,"Ġtermed":2056,"Ġpowers":2057,"Ġknown":2058,"proposition":2059,"hend":2060,"Ġinclination":2061,"Ġevident":2062,"Ġrests":2063,"imal":2064,"Ġperfection":2065,"ply":2066,"Ġnegative":2067,"Ġcases":2068,"Ġlie":2069,"ird":2070,"Ġcompre":2071,"Ġpermanent":2072,"Ġdistinct":2073,"call":2074,"pres":2075,"sh":2076,"Ġconv":2077,"pposes":2078,"Ġpret":2079,"Ġextension":2080,"Ġperceptions":2081,"Ġfuture":2082,"happ":2083,"ead":2084,"oc":2085,"ishes":2086,"ĠV":2087,"idence":2088,"things":2089,"Ġadvantage":2090,"such":2091,"philos":2092,"lectronic":2093,"AR":2094,"Ġconj":2095,"iful":2096,"Ġintr":2097,"Ġinvol":2098,"Ġthree":2099,"Ġbelonging":2100,"Ġbody":2101,"Ġanalys":2102,"relation":2103,"Ġsolution":2104,"bitr":2105,"00":2106,"tog":2107,"ether":2108,"hat":2109,"Ġoper":2110,"iving":2111,"Ġempirically":2112,"Ġinquir":2113,"oment":2114,"Ġask":2115,"Ġcorrect":2116,"together":2117,"Ġopposite":2118,"Ġabs":2119,"Ġfaculties":2120,"determination":2121,"go":2122,"yn":2123,"Ġign":2124,"Ġmed":2125,"Ġstates":2126,"Ġsubstances":2127,"Ġconsequence":2128,"llig":2129,"Ġlittle":2130,"vel":2131,"Ġproperty":2132,"pens":2133,"Ġthorough":2134,"Ġdistrib":2135,"ior":2136,"ĠAll":2137,"Ġlead":2138,"Ġcogitate":2139,"Ġconclusion":2140,"autiful":2141,"Ġcategory":2142,"knowledge":2143,"ĠTranscendental":2144,"Ġdisposition":2145,"Ġderived":2146,"ses":2147,"Ġrelate":2148,"Ġterms":2149,"ail":2150,"complete":2151,"EC":2152,"igh":2153,"Ġtaste":2154,"Ġdecl":2155,"usions":2156,"Ġke":2157,"Ġobtain":2158,"TION":2159,"Ġfield":2160,"Ġvalue":2161,"ĠFoundation":2162,"Ġschema":2163,"IN":2164,"peci":2165,"Äłc":2166,"Ġspring":2167,"ĠUn":2168,"Ġexpression":2169,"les":2170,"Ġfunction":2171,"ogene":2172,"Ġpain":2173,"Äłre":2174,"Ġinvestigation":2175,"just":2176,"Ġproved":2177,"ended":2178,"Ġdeterminations":2179,"Ġaccordingly":2180,"categor":2181,"limit":2182,"Ġcome":2183,"Ġcompar":2184,"Ġconceive":2185,"themselves":2186,"Ġendeavour":2187,"All":2188,"Ġinfer":2189,"Ġdoctrine":2190,"Ġcho":2191,"Ġsupersensible":2192,"Ġcritical":2193,"IS":2194,"sist":2195,"Ġfr":2196,"Ġintu":2197,"Ġhaving":2198,"Ġrefer":2199,"ĠJudgement":2200,"ense":2201,"Ġonce":2202,"vation":2203,"uded":2204,"representations":2205,"Ġdiscovered":2206,"Ġsur":2207,"Ġear":2208,"ower":2209,"Ġdeterminate":2210,"Ġevent":2211,"Ġcriter":2212,"ĠConsequently":2213,"Ġestablished":2214,"ising":2215,"Ġrequis":2216,"Ġextent":2217,"Ġtoge":2218,"udge":2219,"Ġapprehension":2220,"Ġtogether":2221,"inion":2222,"Ġexhib":2223,"Ġconstitutes":2224,"may":2225,"always":2226,"Ġbl":2227,"Ġorgan":2228,"istic":2229,"Ġcriticism":2230,"Ġsingle":2231,"ublic":2232,"ĠThese":2233,"bel":2234,"world":2235,"esides":2236,"Ġappearance":2237,"Ġstrict":2238,"Ġrelates":2239,"sensuous":2240,"Ġmathematical":2241,"Ġpossesses":2242,"ren":2243,"Ġoff":2244,"Ġperhaps":2245,"Ġsources":2246,"II":2247,"Ġdefinite":2248,"Ġenough":2249,"hil":2250,"ium":2251,"Ġmechan":2252,"Ġactually":2253,"Ġconceived":2254,"Ġchanges":2255,"given":2256,"Ġsch":2257,"ferent":2258,"Ġrequired":2259,"Ġcontinu":2260,"ynam":2261,"stant":2262,"imp":2263,"Ġbetter":2264,"att":2265,"Ġmoment":2266,"Ġfore":2267,"ordin":2268,"Ġestablish":2269,"ĠĠĠĠĠĠĠĠĠĠĠĠĠĠĠĠĠĠĠĠĠĠĠĠĠĠĠĠĠĠĠĠĠĠĠĠĠĠĠĠĠ":2270,"Ġoften":2271,"Ġrecogn":2272,"Ġindividual":2273,"Ġelements":2274,"Ġdifficulty":2275,"ft":2276,"Ġthereof":2277,"Ġdistinguish":2278,"does":2279,"Ġignor":2280,"ap":2281,"Ġbecom":2282,"Ġlast":2283,"Ġtranscendent":2284,"caus":2285,"Ġtakes":2286,"stead":2287,"Ġcompleteness":2288,"Ġapperception":2289,"Ġregulative":2290,"Ġanalysis":2291,"ES":2292,"aces":2293,"Ġge":2294,"Ġarises":2295,"rational":2296,"Ġnoumen":2297,"ific":2298,"ular":2299,"Ġvain":2300,"cribe":2301,"ole":2302,"Ġoriginal":2303,"Ġsupport":2304,"intellig":2305,"Ġsupposed":2306,"produ":2307,"ĠEx":2308,"Ġuniversality":2309,"Ġoccup":2310,"iverse":2311,"inomy":2312,"Ġdiscus":2313,"representation":2314,"Ġ*":2315,"Ġante":2316,"ĠĠĠĠĠĠĠĠĠĠĠĠĠĠĠĠĠĠĠĠ":2317,"Ġgreatest":2318,"appear":2319,"Ġapart":2320,"Ġdogmatical":2321,"Ġnay":2322,"llogism":2323,"Äłp":2324,"Ġprof":2325,"ĠSuch":2326,"Ġmeaning":2327,"most":2328,"Ġdynam":2329,"ENT":2330,"however":2331,"row":2332,"ĠIm":2333,"Ġdestr":2334,"Ġproduced":2335,"Ġfurn":2336,"Ġevil":2337,"Ġcorresponding":2338,"Ġrequisite":2339,"ip":2340,"phys":2341,"rem":2342,"quest":2343,"univers":2344,"ensive":2345,"Ġbounds":2346,"Ġmember":2347,"icable":2348,"Ġjudge":2349,"culation":2350,"Ġconstitute":2351,"Ġharmony":2352,"Ġprevious":2353,"Ġcre":2354,"sufficient":2355,"Ġarguments":2356,"Ġdel":2357,"Ġappro":2358,"Ġinfin":2359,"uting":2360,"Ġhel":2361,"ometr":2362,"Ġsuccession":2363,"Ġul":2364,"Ġexcl":2365,"Ġdirectly":2366,"ĠKant":2367,"ines":2368,"nothing":2369,"Ġobjectively":2370,"ophical":2371,"never":2372,"Ġelectronic":2373,"Ġ(_":2374,"Ġspont":2375,"comp":2376,"Ġmotive":2377,"called":2378,"Ġspontane":2379,"Ġfundamental":2380,"ask":2381,"Ġaltogether":2382,"Ġregarding":2383,"Ġpredicates":2384,"Ġreader":2385,"pecially":2386,"Ġdon":2387,"atively":2388,"known":2389,"Ġabstract":2390,"has":2391,"Ġking":2392,"ĠSt":2393,"ĠÃ":2394,"Ġput":2395,"Ġfull":2396,"proper":2397,"Ġadequate":2398,"ison":2399,"Äłf":2400,"elled":2401,"Thus":2402,"RO":2403,"Ġey":2404,"Ġlikewise":2405,"Ġadvance":2406,"iveness":2407,"general":2408,"Ġthird":2409,"Ġarise":2410,"Ġlet":2411,"Ġintelligence":2412,"Ġaims":2413,"Ġexact":2414,"cience":2415,"Ġpursu":2416,"Ġagree":2417,"TH":2418,"Ġche":2419,"ivity":2420,"constit":2421,"Ġarbitr":2422,"Ġbrought":2423,"Ġetc":2424,"sum":2425,"Ġspeak":2426,"Ġarrang":2427,"Ġessential":2428,"Ġdialectical":2429,"arch":2430,"respect":2431,"iety":2432,"Ġlear":2433,"agn":2434,"Ġhumanity":2435,"sense":2436,"Ġappears":2437,"synthetical":2438,"iter":2439,"ures":2440,"Ġpresents":2441,"Ġintrodu":2442,"Ġanteced":2443,"Ġimportant":2444,"Ġcosmological":2445,"incl":2446,"Ġpsych":2447,"iber":2448,"iction":2449,"Ġattribute":2450,"val":2451,"ively":2452,"Ġcare":2453,"ĠBy":2454,"ensions":2455,"Ġsuppose":2456,"Ġsupposition":2457,"Ġgreater":2458,"Ġpeace":2459,"Ġpreceding":2460,"Ġforce":2461,"ages":2462,"appl":2463,"cur":2464,"Ġ9":2465,"separ":2466,"Ġro":2467,"Ġsoon":2468,"formation":2469,"Ġvarious":2470,"facul":2471,"Ġdynamical":2472,"CE":2473,"uding":2474,"Ġcritique":2475,"Ġelement":2476,"Ġconstruct":2477,"There":2478,"Ġinter":2479,"ground":2480,"Ġaway":2481,"bers":2482,"Ġsort":2483,"esthe":2484,"Ġra":2485,"mitted":2486,"Ġavoid":2487,"name":2488,"Ġunless":2489,"Ġcognized":2490,"ĠObject":2491,"gg":2492,"urd":2493,"thought":2494,"place":2495,"Ġprecept":2496,"icip":2497,"system":2498,"ying":2499,"Ġcarr":2500,"Ġgen":2501,"Ġviz":2502,"ÄłÄłÄłÄłÄłÄłÄłÄł":2503,"ogeneous":2504,"Section":2505,"Ġcategorical":2506,"Ġbelief":2507,"utive":2508,"capable":2509,"Ġsimply":2510,"Ġsimilar":2511,"laws":2512,"Ġcircum":2513,"follow":2514,"oriz":2515,"Ġdeser":2516,"Ġmanifest":2517,"abour":2518,"Ġimportance":2519,"itable":2520,"Ġsepar":2521,"Ġapode":2522,"ĠIdea":2523,"nihil":2524,"Ġkingdom":2525,"Ġcreat":2526,"Ġfig":2527,"Äłun":2528,"proc":2529,"Ġpresuppose":2530,"Ġhelp":2531,"ade":2532,"Ġens":2533,"metaphys":2534,"Ġfav":2535,"ned":2536,"ven":2537,"Ġrestrict":2538,"comm":2539,"ool":2540,"Ġprop":2541,"Pro":2542,"Re":2543,"Ġopposition":2544,"Ġcol":2545,"ĠRE":2546,"something":2547,"my":2548,"ople":2549,"vol":2550,"ciproc":2551,"Ġacqu":2552,"Ġsuccessive":2553,"Ġdistinguished":2554,"Ġtest":2555,"Ġvoid":2556,"ffort":2557,"Ġleave":2558,"space":2559,"Ġpositive":2560,"consist":2561,"flict":2562,"Ġsignific":2563,"Ġaffected":2564,"RAN":2565,"apt":2566,"itum":2567,"Ġline":2568,"ictic":2569,"consider":2570,"Ġ6":2571,"char":2572,"contain":2573,"Ġposition":2574,"Ġconcre":2575,"Ġdepends":2576,"perfect":2577,"ĠIdeas":2578,"upon":2579,"Ġmental":2580,"determined":2581,"contradiction":2582,"Ġcriterion":2583,"lar":2584,"Ġfl":2585,"means":2586,"Ġdisp":2587,"Ġadmitted":2588,"Ġfinal":2589,"================":2590,"ĠPrinci":2591,"Ġpostul":2592,"Ġ7":2593,"ote":2594,"Ġmoreover":2595,"Ġfinite":2596,"Ġold":2597,"quant":2598,"agination":2599,"Ġfounded":2600,"Ġsciences":2601,"Ġinev":2602,"idance":2603,"Ġaccom":2604,"Ġbecomes":2605,"freedom":2606,"nex":2607,"isdom":2608,"urs":2609,"Ġleft":2610,"interest":2611,"Ġreflection":2612,"worth":2613,"Ġclearly":2614,"Ġcopyright":2615,"purpose":2616,"velop":2617,"satisf":2618,"Ġwhom":2619,"Ġsuffici":2620,"mathemat":2621,"ins":2622,"Ġcoun":2623,"then":2624,"Ġgenerally":2625,"Ġuseful":2626,"Ġaccept":2627,"Ġbeautiful":2628,"Ġuniversally":2629,"Ġplaced":2630,"Ġoccasion":2631,"distingu":2632,"acc":2633,"alone":2634,"concept":2635,"ends":2636,"Ġmorals":2637,"Ġinsight":2638,"Äłde":2639,"arent":2640,"Ġattention":2641,"Ġconsideration":2642,"Ġphilosophers":2643,"namely":2644,"ae":2645,"ian":2646,"Ġpresupposes":2647,"ts":2648,"pty":2649,"think":2650,"Ġuniverse":2651,"Ġappearances":2652,"Ġinterests":2653,"cribed":2654,"Ġbodies":2655,"Ġclaims":2656,"esthetical":2657,"love":2658,"itle":2659,"asant":2660,"employ":2661,"ously":2662,"opt":2663,"itably":2664,"stood":2665,"acy":2666,"Ġdirected":2667,"Ġabstraction":2668,"IC":2669,"kind":2670,"ume":2671,"Ġir":2672,"Ġlight":2673,"necessity":2674,"Ġespecially":2675,"Ġgeometr":2676,"Ġopp":2677,"reality":2678,"phist":2679,"Ġacting":2680,"avoid":2681,"atum":2682,"Ġdown":2683,"Ġgain":2684,"Ġkeep":2685,"rop":2686,"Ġmagn":2687,"Äłm":2688,"possess":2689,"Ġidentical":2690,"Ġtask":2691,"Ġwhol":2692,"Ġevents":2693,"Ġconcerns":2694,"alytic":2695,"IT":2696,"his":2697,"Äłd":2698,"ĠSection":2699,"Ġconsequences":2700,"Ġantinomy":2701,"Ġindicates":2702,"Ġaut":2703,"ishing":2704,"Ġperceive":2705,"Ġadopt":2706,"ĠCh":2707,"Ġstands":2708,"Ġvolition":2709,"Ġconjunction":2710,"Ġfavour":2711,"Ġwit":2712,"ceptions":2713,"Ġexamples":2714,"Ġdrawn":2715,"au":2716,"etermin":2717,"Ġindis":2718,"mission":2719,"speculative":2720,"Ġopinion":2721,"Ġexamination":2722,"log":2723,"Ġsure":2724,"conf":2725,"ourselves":2726,"Ġpeople":2727,"phenomenon":2728,"him":2729,"Ġwhy":2730,"ief":2731,"Ġpossession":2732,"Ġdeduced":2733,"Ġresults":2734,"faculty":2735,"tun":2736,"poses":2737,"ĠHow":2738,"Ġutter":2739,"Ġcomprehend":2740,"gu":2741,"ctive":2742,"Ġhigh":2743,"ification":2744,"Ġspeculation":2745,"Ġhypothetical":2746,"like":2747,"ms":2748,"iment":2749,"Ġdogmat":2750,"Ġeyes":2751,"Ġpublic":2752,"soci":2753,"anger":2754,"Ġmotives":2755,"speci":2756,"Ġlegislation":2757,"Ġjustified":2758,"happiness":2759,"question":2760,"ru":2761,"origin":2762,"Ġconver":2763,"Ġation":2764,"Ġstep":2765,"Ġmotion":2766,"ĠYou":2767,"Every":2768,"Ġscept":2769,"Ġsought":2770,"ending":2771,"timate":2772,"ortion":2773,"Ġjudgments":2774,"more":2775,"Ġopposed":2776,"Ġforth":2777,"Ġdeterminable":2778,".)":2779,"sens":2780,"Ġwisdom":2781,"Ġinstead":2782,"used":2783,"Ġpurposiveness":2784,"Ġanalogy":2785,"OR":2786,"Ġtheology":2787,"rees":2788,"synthesis":2789,"absolutely":2790,"categories":2791,"hetic":2792,"Ġtheory":2793,"Ġmaking":2794,"Ġmet":2795,"Ġempty":2796,"ĠAN":2797,"Ġsubl":2798,"ĠWhen":2799,"Ġlimitation":2800,"Ġsubjectively":2801,"Ġbelieve":2802,"Ġsignificance":2803,"icense":2804,"ately":2805,"Ġassumed":2806,"presu":2807,"iterary":2808,"ature":2809,"Ġeffort":2810,"Ġconflict":2811,"empl":2812,"Ġclass":2813,"Ġspecial":2814,"Ġschool":2815,"Ġreach":2816,"asing":2817,"imin":2818,"Ġunable":2819,"Ġdesires":2820,"ached":2821,"Ġpoints":2822,"Ġindicate":2823,"Ġarbitrary":2824,"free":2825,"Ġkinds":2826,"END":2827,"should":2828,"Ġwholly":2829,"either":2830,"Ġ.":2831,"Ġwise":2832,"ibility":2833,"change":2834,"udes":2835,"angu":2836,"cogit":2837,"Ġprob":2838,"chive":2839,"conform":2840,"compre":2841,"Ġfinds":2842,"Ġeasy":2843,"Ġobliged":2844,"To":2845,"into":2846,"ings":2847,"Ġsecure":2848,"pendence":2849,"Ġproblematical":2850,"Ġextended":2851,"Ġguidance":2852,"Ġattempts":2853,"Ġassertions":2854,"Ġfully":2855,"Ġconcreto":2856,"?âĢĿ":2857,"den":2858,"oly":2859,"pic":2860,"Ġtowards":2861,"Ġredu":2862,"hensible":2863,"Ġused":2864,"Ġderive":2865,"Ġmark":2866,"Ġhappen":2867,"eduction":2868,"Ġdestroy":2869,"Gutenberg":2870,"ild":2871,"tot":2872,"ww":2873,"inction":2874,"Ġdom":2875,"uties":2876,"Ġlay":2877,"ÄłP":2878,"than":2879,"unconditioned":2880,"Ġenable":2881,"When":2882,"good":2883,"ĠPh":2884,"manence":2885,"osmological":2886,"contradictory":2887,"Ġcomparison":2888,"belong":2889,"same":2890,"Ġic":2891,"Ġtimes":2892,"Ġwrit":2893,"also":2894,"aint":2895,"ante":2896,"Ġphilosophical":2897,"fully":2898,"Ġmodes":2899,"connection":2900,"ele":2901,"Ġbesides":2902,"Ġdat":2903,"universal":2904,"Ġtal":2905,"ists":2906,"ĠSo":2907,"pposing":2908,"izing":2909,"Ġreflect":2910,"Ġapodeictic":2911,"Äłb":2912,"adv":2913,"Ġimpl":2914,"anted":2915,"Ġsyllogism":2916,"Ġproduces":2917,"different":2918,"philosophy":2919,"ax":2920,"side":2921,"Ġtable":2922,"Ġrep":2923,"Ġhon":2924,"Äłh":2925,"Ġspir":2926,"Ġproduction":2927,"Ġcommunity":2928,"natural":2929,"causality":2930,"Ġsufficiently":2931,"Ġ8":2932,"inv":2933,"atives":2934,"state":2935,"expl":2936,"Ġsubordin":2937,"Ġchoice":2938,"real":2939,"itherto":2940,"Ġcommands":2941,"fic":2942,"Ġshe":2943,"als":2944,"Ġnotions":2945,"posite":2946,"etaphys":2947,"series":2948,"Ġcompelled":2949,"Ġcheck":2950,"Ġur":2951,"ĠĠĠĠĠĠĠ":2952,"ckon":2953,"Ġconstruction":2954,"Project":2955,"could":2956,"div":2957,"Ġpriv":2958,"ured":2959,"Ġpractically":2960,"Ġinquiry":2961,"light":2962,"Ġsake":2963,"those":2964,"ĠWhat":2965,"Ġfinally":2966,"Ġindependently":2967,"pensable":2968,"Ġspirit":2969,"science":2970,"ars":2971,"success":2972,"leological":2973,"Ġdevelop":2974,"whole":2975,"ĠSp":2976,"enetr":2977,"Ġfunctions":2978,"Ġdonations":2979,"ator":2980,"Ġadm":2981,"Ġsubtle":2982,"Ġplay":2983,"Ġwhereby":2984,"Ġmetaphysical":2985,"UT":2986,"great":2987,"Äłl":2988,"Ġphenomenal":2989,"Ġaccess":2990,"Ġcontradictory":2991,"Ġcontingency":2992,"Ġprevent":2993,"Ġmembers":2994,"ENTAL":2995,"character":2996,"Ġinevitably":2997,"cede":2998,"usiness":2999,"Ġsever":3000,"case":3001,"ĠWith":3002,"Ġattained":3003,"Ġstandard":3004,"Ġspecies":3005,"ĠIII":3006,"intelligible":3007,"Ġultimate":3008,"ius":3009,"ites":3010,"Ġnone":3011,"impossible":3012,"pline":3013,"exam":3014,"Ġmorally":3015,"Ġplan":3016,"Ġfear":3017,"Ġconcerned":3018,"first":3019,"predic":3020,"Ġprior":3021,"Ġmeet":3022,"Ġheter":3023,"irection":3024,"ĠLiterary":3025,"content":3026,"etermined":3027,"effect":3028,"gl":3029,"ks":3030,"mort":3031,"internal":3032,"Ġfill":3033,"Ġexper":3034,"ÄłC":3035,"Ġunknown":3036,"ĠĠĠĠĠĠĠĠĠ":3037,"Ġexisted":3038,"Ġaccid":3039,"Ġwhereas":3040,"struction":3041,"Ġarrive":3042,"Ġjudging":3043,"How":3044,"times":3045,"Ġom":3046,"cipline":3047,"Ġidentity":3048,"crit":3049,"non":3050,"xi":3051,"ater":3052,"Ġinstance":3053,"org":3054,"ash":3055,"Äłt":3056,"Ġtransc":3057,"Ġeveryone":3058,"ÃĦÅĤÃĦÅĤ":3059,"Ġfurnish":3060,"SC":3061,"auty":3062,"path":3063,"rest":3064,"Ġsays":3065,"Ġbor":3066,"ustr":3067,"external":3068,"ired":3069,"Ġrespecting":3070,"Ġconclusions":3071,"Ġafford":3072,"substance":3073,"ĠTherefore":3074,"mark":3075,"tion":3076,"Ġincapable":3077,"Ġdirection":3078,"Ġassoci":3079,"Ġannihil":3080,"conce":3081,"Ġplain":3082,"aches":3083,"Ġparagraph":3084,"Ġarrangement":3085,"Ġautonomy":3086,"Ġutterly":3087,"hand":3088,"latter":3089,"matter":3090,"occ":3091,"demonstr":3092,"ĠAnalytic":3093,"iberty":3094,"throp":3095,"Ġdependent":3096,"ferences":3097,"ĠHume":3098,"sensibility":3099,"Ġlonger":3100,"ĠArchive":3101,"larg":3102,"far":3103,"eness":3104,"eriori":3105,"Ġlove":3106,"ÄłS":3107,"Ġsequ":3108,"exp":3109,"Ġgiving":3110,"That":3111,"reng":3112,"avoidable":3113,"hig":3114,"joy":3115,"point":3116,"when":3117,"erit":3118,"oss":3119,"iding":3120,"claim":3121,"former":3122,"Ġcarry":3123,"vious":3124,"Ġlabour":3125,"ÄłA":3126,"idea":3127,"ounded":3128,"Ġperceived":3129,"Ġsubstr":3130,"ounce":3131,"Ġobservation":3132,"aight":3133,"cceed":3134,"Ġback":3135,"Ġfan":3136,"Ġprimal":3137,"igion":3138,"Ġtherein":3139,"Ġregion":3140,"been":3141,"necessarily":3142,"Ġmetaphysic":3143,"ixed":3144,"Ġinfinity":3145,"ND":3146,"greg":3147,"Ġduties":3148,"urally":3149,"Ġpartly":3150,"ression":3151,"Ġseveral":3152,"AS":3153,"ED":3154,"OU":3155,"olit":3156,"Ġcontaining":3157,"Ġpresupposed":3158,"Ġoperations":3159,"Ġabsurd":3160,"Ġaesthetical":3161,"Ġsk":3162,"Ġdanger":3163,"omogeneous":3164,"Ġdef":3165,"abstr":3166,"Ġuncondition":3167,"Ġfail":3168,"contrary":3169,"TIC":3170,"cribes":3171,".\"":3172,"ec":3173,"Ġturn":3174,"Ġpract":3175,"immediate":3176,"usory":3177,"Ġunited":3178,"Ġrise":3179,"opular":3180,"Ġjustice":3181,"Ġopen":3182,"obser":3183,"iang":3184,"attain":3185,"ifice":3186,"Ġstud":3187,"elf":3188,"Ġassertion":3189,"Ġpretensions":3190,"ĠUnited":3191,"nit":3192,"Ġreceived":3193,"Ġhitherto":3194,"Ġexposition":3195,"Ġgl":3196,"Ġvent":3197,"Ġcosmical":3198,"ĠeBooks":3199,"iting":3200,"Ġfour":3201,"Ġprud":3202,"theoretical":3203,"Ġdefect":3204,"Ġquality":3205,"ĠOR":3206,"determining":3207,"Ġstraight":3208,"Ġprovided":3209,"Ġdeny":3210,"Ġobligation":3211,"discover":3212,"propositions":3213,"What":3214,"Ġreciproc":3215,"Äła":3216,"actions":3217,"Ġtotal":3218,"missible":3219,"Ġauthority":3220,"Ġmechanism":3221,"ĠPrinciples":3222,",\"":3223,"Ġformul":3224,"Ġpurity":3225,"Ġmaj":3226,"Ġpresence":3227,"ĠPractical":3228,"limited":3229,"Ġcircumstances":3230,"investig":3231,"Ġsight":3232,"Ġreasoning":3233,"play":3234,"ĠAccording":3235,"Ġgover":3236,"ĠHere":3237,"correspond":3238,"Ġearth":3239,"Ġignorance":3240,"Pr":3241,"isible":3242,"Ġsent":3243,"Ġbest":3244,"through":3245,"Ġcanon":3246,"ified":3247,"Ġdet":3248,"Ġdeci":3249,"Ġseen":3250,"Ġapparent":3251,"amed":3252,"particular":3253,"Ġpsychology":3254,"anguage":3255,"As":3256,"uit":3257,"Ġtitle":3258,"ref":3259,"Ġbusiness":3260,"Ġexc":3261,"Ġequal":3262,"Ġdialectic":3263,"xiom":3264,"eib":3265,"since":3266,"turn":3267,"Ġcr":3268,"Ġsa":3269,"Ġprocess":3270,"Ġate":3271,"Ġsophist":3272,"Ġheld":3273,"super":3274,"piricism":3275,"ĠAt":3276,"Ġjudgment":3277,"Ġproblems":3278,"valid":3279,"Reason":3280,"Ġdecide":3281,"Be":3282,"eem":3283,"Ġestim":3284,"Ġobserve":3285,"contin":3286,"fall":3287,"uous":3288,"Ġmist":3289,"Ġdest":3290,"irmed":3291,"Ġevidence":3292,"ĠSe":3293,"Ġremo":3294,"withstanding":3295,"Ġpreser":3296,"struct":3297,"subsist":3298,"Ġspontaneity":3299,"ggest":3300,"On":3301,"iol":3302,"power":3303,"Ġpast":3304,"Ġmo":3305,"ĠGeneral":3306,"ization":3307,"Ġminds":3308,"Ġproceeds":3309,"Ġsignification":3310,"Ġfigure":3311,"ademark":3312,"mortality":3313,"vice":3314,"Ġdivers":3315,"Ġanimal":3316,"Ġcomposite":3317,"Ġunderstood":3318,"ĠNature":3319,"well":3320,"Ġholds":3321,"Ġvariety":3322,"Ġlegislative":3323,"Ġthoroughly":3324,"Su":3325,"ially":3326,"Ġver":3327,"Ġcult":3328,"anal":3329,"ug":3330,"Ġhist":3331,"Ġsucceed":3332,"seless":3333,"vere":3334,"Ġfeelings":3335,"Ġforeign":3336,"say":3337,"oretic":3338,"Ġnaturally":3339,"ĠFrom":3340,"Ġcognitive":3341,"sphere":3342,"Ġspeaking":3343,"Ġattributes":3344,"Ġprovide":3345,"Ġcease":3346,"Ġpreviously":3347,"course":3348,"manif":3349,"Ġassign":3350,"Ġundetermined":3351,"Ġnoumena":3352,"Ġexactly":3353,"Ġoppon":3354,"Ġmagnitude":3355,"ĠSpace":3356,"Wh":3357,"accord":3358,"Ġ=":3359,"Ġang":3360,"Ġobs":3361,"uthoriz":3362,"Ġworthy":3363,"Ġcombination":3364,"Ġdemands":3365,"nexion":3366,"Ġsubstratum":3367,"Ġconfin":3368,"Ġbeauty":3369,"mind":3370,"Ġchain":3371,"Ġdiscuss":3372,"Ġindu":3373,"Ġbene":3374,"Ġhum":3375,"Ġrelatively":3376,"ialectic":3377,"Ġimperatives":3378,"Ġdemonstrate":3379,"Ġnoumenon":3380,"cern":3381,"atio":3382,"Ġschools":3383,"iangle":3384,"EM":3385,"adequate":3386,"pet":3387,"Ġmention":3388,"Ġasc":3389,"Ġascribe":3390,"Ġperform":3391,"Ġcontrib":3392,"existent":3393,"ĠConceptions":3394,"Ġteleological":3395,"***":3396,"nitz":3397,"mot":3398,"Ġinformation":3399,"Ġrece":3400,"Äłcon":3401,"Ġcap":3402,"Ġpermanence":3403,"Ġrepresents":3404,"izes":3405,"certainty":3406,"Ġequally":3407,"Ġborrow":3408,"ert":3409,"Ġbeh":3410,"Ġpossibly":3411,"Ġformed":3412,"Ġqual":3413,"Ġsubsum":3414,"Ġshows":3415,"Ġdiscussion":3416,"ĠImagination":3417,"eibnitz":3418,"Ġsafe":3419,"Ġfit":3420,"least":3421,"Ġdec":3422,"Ġdev":3423,"truth":3424,"Ġstreng":3425,"aged":3426,"ignity":3427,"Ġconstitutive":3428,"Ġproofs":3429,"Ġsatisfied":3430,"Ġexpected":3431,"Ġdenied":3432,"feel":3433,"Ġexhibit":3434,"ĠStates":3435,"Ġindispensable":3436,"pter":3437,"Äło":3438,"Ġdecid":3439,"ĠSy":3440,"proceed":3441,"ĠDe":3442,"Ġcommun":3443,"Ġoccur":3444,"maxim":3445,"Ġadded":3446,"ier":3447,"look":3448,"Ġincre":3449,"Ġweight":3450,"alytical":3451,"physical":3452,"Ġlearned":3453,"Ġefforts":3454,"Ġgovern":3455,"Con":3456,"Hence":3457,"ico":3458,"sthetic":3459,"Äłr":3460,"Ġindif":3461,"neg":3462,"oubted":3463,"Ġobserv":3464,"Ġdomain":3465,"An":3466,"lies":3467,"post":3468,"Ġpay":3469,"Ġreckon":3470,"subjective":3471,"Ġinsepar":3472,"Ġfirm":3473,"Ġanci":3474,"Ġunion":3475,"icians":3476,"Ġstrong":3477,"Ġsatisfy":3478,"Ġantecedent":3479,"curity":3480,"Ġdata":3481,"Ġprivate":3482,"Of":3483,"ors":3484,"Ġlost":3485,"Ġcomes":3486,"Ġserves":3487,"Ġobst":3488,"âĢĿ;":3489,"Ġadmits":3490,"Ġpresupposition":3491,"Ġdefined":3492,"Ġavail":3493,"worthy":3494,"che":3495,"Ġpun":3496,"Ġeth":3497,"sely":3498,"Ġones":3499,"ÄłM":3500,"Ġproves":3501,"Ġshort":3502,"ung":3503,"ĠPRO":3504,"ĠĠĠĠĠĠĠĠĠĠĠĠĠĠĠĠĠĠĠĠĠĠĠĠĠĠĠĠĠĠĠĠ":3505,"ĠOur":3506,"Ġwants":3507,"everything":3508,"Ġintuited":3509,"quantity":3510,"Se":3511,"after":3512,"itled":3513,"entific":3514,"ased":3515,"Äłv":3516,"actory":3517,"expect":3518,"Ġadmitting":3519,"Ġafterwards":3520,"Ġidealism":3521,"Ġconviction":3522,"Ġabsence":3523,"ENDENTAL":3524,"oin":3525,"Äłw":3526,"Ġcomposition":3527,"Ġenjoy":3528,"hapter":3529,"Ġstru":3530,"RANSC":3531,"example":3532,"Ġmajor":3533,".]":3534,"IL":3535,"ST":3536,"air":3537,"king":3538,"¢Ä":3539,"Ġconstant":3540,"Äłe":3541,"Ġtry":3542,"oney":3543,"Ġscientific":3544,"Ġ15":3545,"Ġimpul":3546,"appre":3547,"Ġdivided":3548,"conting":3549,"Ġdemonstration":3550,"By":3551,"inary":3552,"another":3553,"Ġusu":3554,"Ġliberty":3555,"Ġlanguage":3556,"Äłpr":3557,"Ġmeasure":3558,"Ġindirect":3559,"Ġrenders":3560,"Ġleads":3561,"Ġsprings":3562,"attempt":3563,"Ġgeometry":3564,"Ġscepticism":3565,"RANSCENDENTAL":3566,"aff":3567,"gutenberg":3568,"issim":3569,"Ġintention":3570,"Ġimage":3571,"before":3572,"arer":3573,"Ġdiscern":3574,"Ġenter":3575,"Ġsecondly":3576,"Ġconclude":3577,"Ġignorant":3578,"ITY":3579,"Ġsublime":3580,"Ġways":3581,"ival":3582,"Ġlower":3583,"ĠĠĠĠĠĠ":3584,"uring":3585,"cies":3586,"plic":3587,"examin":3588,"ĠPU":3589,"Ġsubjects":3590,"Ġfew":3591,"Ġdifferences":3592,"Ġapplies":3593,"Ġapplicable":3594,"legisl":3595,"Ġproportion":3596,"human":3597,"view":3598,"Ġaxiom":3599,"Ġpopular":3600,"ivil":3601,"Ġforces":3602,"Äłdis":3603,"indic":3604,"ĠNo":3605,"pret":3606,"prov":3607,"connected":3608,")âĢĶ":3609,"lat":3610,"Ġimmortality":3611,"ternally":3612,"again":3613,"Ġquantities":3614,"relate":3615,"Ġantit":3616,"Ġprecedes":3617,"Ġinvolves":3618,"Ġinvolved":3619,"Ġcreation":3620,"draw":3621,"eal":3622,"Ġwr":3623,"edience":3624,"Ġont":3625,"Ġreligion":3626,"beings":3627,"Ġexamine":3628,"Ġinquiries":3629,"Ġmoney":3630,"Ġsuggest":3631,"Ġ10":3632,"Ġillusory":3633,"Ġproducts":3634,"Ġreferred":3635,"distinguish":3636,"Ġinference":3637,"ank":3638,"Ġity":3639,"utation":3640,"istance":3641,"Ġunavoidable":3642,"umer":3643,"ĠEm":3644,"ĠMetaphys":3645,"cisely":3646,"Ġ200":3647,"Ġspecif":3648,"Ġinvestigations":3649,"Ġposteriori":3650,"completely":3651,"JEC":3652,"psych":3653,"set":3654,"ceptivity":3655,"thus":3656,"andon":3657,"idden":3658,"Ġhabit":3659,"Ġdisappear":3660,"ĠLog":3661,"Ġexpressions":3662,"Ġdegrees":3663,"Ġinferred":3664,"Ġraised":3665,"overy":3666,"oined":3667,"Ġbu":3668,"ouble":3669,"Ġdignity":3670,"ains":3671,"consequ":3672,"oliness":3673,"Ġnecessit":3674,"Ġcommonly":3675,"Ġexpresses":3676,"Ġsmallest":3677,"going":3678,"Ġprofess":3679,"Ġdiversity":3680,"OS":3681,"ares":3682,"jud":3683,"pot":3684,"Ġmerit":3685,"Ġreceive":3686,"Ġreturn":3687,"ustom":3688,"Ġunt":3689,"Ġanyone":3690,"Ġpersu":3691,"Ġpermission":3692,"ishment":3693,"ician":3694,"Ġactivity":3695,"Ġdifficult":3696,"independent":3697,"Ġaccomp":3698,"issimum":3699,"line":3700,"pass":3701,"take":3702,"Ġpros":3703,"ained":3704,"Ġstart":3705,"ĠCosmological":3706,"Ġoriginate":3707,"Ġdeduce":3708,"Ġdemonstrated":3709,"mathematics":3710,"manifold":3711,"aves":3712,"ream":3713,"Ġwishes":3714,"Ġren":3715,"ĠNay":3716,"Ġgrad":3717,"Ġcontempl":3718,"Ġthinks":3719,"ERG":3720,"Ġsupply":3721,"satisfaction":3722,"iance":3723,"jun":3724,"por":3725,"Ġcost":3726,"Ġbad":3727,"ify":3728,"orious":3729,"while":3730,"Ġfollowed":3731,"Ġbegins":3732,"Ġesca":3733,"Ġpersons":3734,"Ġinquire":3735,"Ġpromise":3736,"Ġallowed":3737,"Ġpostulate":3738,"himself":3739,"LI":3740,"Qu":3741,"itect":3742,"Ġmult":3743,"Ġprot":3744,"Ġum":3745,"Ġexec":3746,"Äłex":3747,"Ġdisplay":3748,"Ġobserved":3749,"Ġremarks":3750,"Ġteach":3751,"Ġcircle":3752,"Ġfulf":3753,"Ġmechanical":3754,"itimate":3755,"Ġnations":3756,"Ġconnexion":3757,"aring":3758,"Ġnotwithstanding":3759,"Ġtriangle":3760,"supp":3761,"Ġusing":3762,"Ġplaces":3763,"Ġeng":3764,"Ġfee":3765,"Ġproceeding":3766,"Ġerrors":3767,"Ġadvanced":3768,"Ġassociated":3769,"BERG":3770,"Transcendental":3771,"bod":3772,"Ġsign":3773,"entially":3774,"Ġextr":3775,"Ġloss":3776,"Ġord":3777,"trans":3778,"order":3779,"Ġaggreg":3780,"Ġincluded":3781,"Ġpromot":3782,"ĠYOU":3783,"Ġcombined":3784,"Ġendeavours":3785,"Ġprecepts":3786,"metaphysics":3787,"accordance":3788,"plicity":3789,"ient":3790,"iable":3791,"assert":3792,"ÄłD":3793,"ĠIN":3794,"Ġreasons":3795,"pleasure":3796,"Ġaccur":3797,"ressions":3798,"evertheless":3799,"ĠCa":3800,"imitive":3801,"Ġgoes":3802,"proof":3803,"Ġrespects":3804,"determine":3805,"Ġderiv":3806,"Ġconcerning":3807,"IR":3808,"cr":3809,"two":3810,"you":3811,"Ġtw":3812,"Ġauthoriz":3813,"inct":3814,"Ġsac":3815,"Ġmon":3816,"proble":3817,"Ġstatement":3818,"ĠDo":3819,"ĠDiv":3820,"Ġrefund":3821,"Ġcomply":3822,"Ġguard":3823,"Ġblind":3824,"Ġgenu":3825,"TR":3826,"oper":3827,"inter":3828,"Ġmin":3829,"ÄłE":3830,"Ġobjections":3831,"Ġsearch":3832,"Ġprecede":3833,"Ġcomplex":3834,"ĠHis":3835,"ĠMor":3836,"Ġconsistent":3837,"Ġcopies":3838,"Ġremarkable":3839,"Ġassumption":3840,"cret":3841,"Ġmedium":3842,"Ġseparate":3843,"hesis":3844,"Ġcal":3845,"Ġsound":3846,"Ġbold":3847,"argum":3848,"ĠTime":3849,"concern":3850,"notion":3851,"Ġforming":3852,"Ġknows":3853,"ĠĠĠĠĠĠĠĠĠĠĠĠĠĠĠĠĠĠ":3854,"ĠNe":3855,"Ġanalytic":3856,"subsistent":3857,"rist":3858,"scept":3859,"Ġil":3860,"inasmuch":3861,"Ġimpossibility":3862,"Ġsometimes":3863,"common":3864,"Ġattack":3865,"ĠLicense":3866,"Ġhypotheses":3867,"regards":3868,"alism":3869,"step":3870,"Ġexception":3871,"Ġforward":3872,"Ġempiricism":3873,"Ġimit":3874,"fortun":3875,"Ġleaves":3876,"ĠNot":3877,"Ġcausal":3878,"conscious":3879,"Ġsensations":3880,"Ġrequirement":3881,"appro":3882,"Ġpleasant":3883,"regress":3884,"ry":3885,"yet":3886,"Ġtax":3887,"Ġair":3888,"Ġcent":3889,"Ġhomogeneous":3890,"olution":3891,"ideas":3892,"Ġsoci":3893,"Ġhead":3894,"prove":3895,"unte":3896,"Ġarising":3897,"straint":3898,"Ġdiscovery":3899,"Ġentitled":3900,"blig":3901,"Ġguide":3902,"Ġcontinue":3903,"ART":3904,"logical":3905,"Ġ0":3906,"imer":3907,"ĠIV":3908,"ĠTO":3909,"Ġheav":3910,"Ġimmanent":3911,"ants":3912,"astic":3913,"Ġservice":3914,"Ġextensive":3915,"Ġstatements":3916,"Ġ17":3917,"Ġconsiderations":3918,"Ġexplained":3919,"Ġchoose":3920,"Ġintroduce":3921,"employment":3922,"Ġimplies":3923,"Ġstudy":3924,"JECT":3925,"ACE":3926,"OG":3927,"co":3928,"dog":3929,"hypothe":3930,"infinite":3931,"conci":3932,"establ":3933,"who":3934,"ĠGUT":3935,"Ġobedience":3936,"Ġoutside":3937,"ENBERG":3938,"Ġpurposive":3939,"Ġcoexistence":3940,"ĠGUTENBERG":3941,"judg":3942,"Ġid":3943,"Ġcur":3944,"Ġpaid":3945,"aries":3946,"Ġweak":3947,"Ġsuff":3948,"ilst":3949,"Ġcharacteristic":3950,"Ġnegation":3951,"Ġmaterials":3952,"regarded":3953,"Ġconstructed":3954,"Ġventure":3955,"Ġuntil":3956,"Ġve":3957,"Ġage":3958,"Ġwon":3959,"ick":3960,"Ġholiness":3961,"Ġcompl":3962,"Ġsubsist":3963,"ĠIts":3964,"Ġconfess":3965,"inclination":3966,"Ġaccompl":3967,"And":3968,"From":3969,"ture":3970,"were":3971,"Ġion":3972,"Ġtheoretic":3973,"ened":3974,"Ġpolit":3975,"icial":3976,"lease":3977,"Ġled":3978,"owed":3979,"trodu":3980,"solution":3981,"ĠWh":3982,"Ġacts":3983,"ĠEvery":3984,"ĠEven":3985,"Ġprescribes":3986,"Ġrealissimum":3987,"ables":3988,"morality":3989,"Ġassuming":3990,"Ġfalls":3991,"difficul":3992,"judgements":3993,"Ġmediate":3994,"ĠÃ¦":3995,"Ġcreature":3996,"ursive":3997,"cogitate":3998,"oys":3999,"uel":4000,"Ġtre":4001,"Ġpat":4002,"Ġinj":4003,"exer":4004,"ĠNO":4005,"These":4006,"Ġenlarg":4007,"determines":4008,"Ġimagine":4009,"Ġschemat":4010,"Ġcontinuous":4011,"Ġexperiment":4012,"Ġsophistical":4013,"Ġdestination":4014,"equ":4015,"gener":4016,"main":4017,"Ġlar":4018,"Ġlist":4019,"Ġget":4020,"Ġproposed":4021,"âĢĶâĢľ":4022,"Ġsym":4023,"Ġdiscipline":4024,"Ġparty":4025,"Ġendless":4026,"ĠDeduction":4027,"Ġcharge":4028,"Ġelev":4029,"Ġ20":4030,"Ġformula":4031,"15":4032,"ATION":4033,"find":4034,"oblig":4035,"signif":4036,"Ġbook":4037,"Ġhard":4038,"ilosophy":4039,"Ġattend":4040,"Ġillustr":4041,"Ġdesired":4042,"intel":4043,"Ġtransg":4044,"consistent":4045,"comprehensible":4046,"highest":4047,"Ġunconditional":4048,"Ġhistory":4049,"Ġangles":4050,"Ġontological":4051,"isable":4052,"Ġascribed":4053,"finitum":4054,"Ġsaying":4055,"acity":4056,"Ġconstituted":4057,"Ġcommonest":4058,"Ġexpressed":4059,"Ġconfirm":4060,"Ġwanting":4061,"Ġjustify":4062,"Ġschol":4063,"Ġinfinitum":4064,"Ġopponent":4065,"found":4066,"mo":4067,"Ġwide":4068,"ndered":4069,"Ġfrequ":4070,"see":4071,"second":4072,"Ġreve":4073,"Ġholy":4074,"Ġlines":4075,"defin":4076,"conv":4077,"Ġreasonable":4078,"Ġattr":4079,"Ġviol":4080,"Ġaddu":4081,"oyal":4082,"ĠLeibnitz":4083,"Ġattainment":4084,"Ġoccupied":4085,"Ġlearn":4086,"Ġhonest":4087,"Ġsubordinate":4088,"conceit":4089,"contingent":4090,"viz":4091,"inqu":4092,"influence":4093,"alogism":4094,"ĠĠĠĠĠ":4095,"depend":4096,"try":4097,"Ġdoctr":4098,"addition":4099,"Ġpermit":4100,"nthetical":4101,"Ġprep":4102,"Ġcoexistent":4103,"Ġconvin":4104,"investigation":4105,"PL":4106,"foundation":4107,"Ġpo":4108,"chn":4109,"Ġated":4110,"suffici":4111,"Ġperi":4112,"Ġadapt":4113,"Ġfaith":4114,"Ġobvious":4115,"Ġattached":4116,"exists":4117,"considered":4118,"Ġrights":4119,"Ġcorresponds":4120,"indeed":4121,"Ġdistribution":4122,"Ġfruit":4123,"Ġpsychological":4124,"application":4125,"Ġconversely":4126,"Ġpractice":4127,"vereign":4128,"Ġantithesis":4129,"intellectual":4130,"show":4131,"Ġinf":4132,"Ġprim":4133,"Ġfortun":4134,"Äłen":4135,"pleasant":4136,"Ġtrademark":4137,"Ġgranted":4138,"Ġdifficulties":4139,"Ġutility":4140,"Ġpromote":4141,"brated":4142,"Ġobtained":4143,"Ġcarefully":4144,"follows":4145,"Ġadmir":4146,"Ġwrong":4147,"junctive":4148,"Ġgenuine":4149,"IV":4150,"Understanding":4151,"fact":4152,"Ġtend":4153,"orm":4154,"oured":4155,"lead":4156,"utions":4157,"Ġaside":4158,"Ġations":4159,"Ġvan":4160,"Ġtrib":4161,"Ġinvestigate":4162,"nevertheless":4163,"properly":4164,"totality":4165,"Ġsyllogisms":4166,"Ġskill":4167,"13":4168,"17":4169,"QU":4170,"Tr":4171,"face":4172,"mod":4173,"Ġical":4174,"inions":4175,"itas":4176,"eration":4177,"Ġinner":4178,"lebrated":4179,"Ġwhilst":4180,"Ġsuitable":4181,"vers":4182,"Ġheart":4183,"ĠCom":4184,"Ġlimitations":4185,"ĠEpic":4186,"Ġ12":4187,"Ġesteem":4188,"Ġincluding":4189,"Ġconcluded":4190,"Ġphysics":4191,"Ġessentially":4192,"corresponding":4193,",--":4194,"ety":4195,"iation":4196,"alth":4197,"Ġinferences":4198,"Ġreceptivity":4199,"ott":4200,"Ġabandon":4201,"mention":4202,"beyond":4203,"ĠSolution":4204,"preced":4205,"ears":4206,"Ġhappy":4207,"ĠMat":4208,"Ġclose":4209,"Ġdefine":4210,"cognitions":4211,"require":4212,"Ġdeclared":4213,"ÄłÄłÄłÄłÄłÄłÄłÄłÄłÄłÄłÄłÄłÄłÄłÄł":4214,"rupt":4215,"division":4216,"immediately":4217,"Ġaxioms":4218,"gain":4219,"Ġrecourse":4220,"Ġhind":4221,"urious":4222,"ulative":4223,"Ġability":4224,"Ġpermitted":4225,"etent":4226,"Ġwhence":4227,"comb":4228,"ĠOnly":4229,"Ġaware":4230,"Ġoperation":4231,"ĠWithout":4232,"unteers":4233,"12":4234,"attrib":4235,"Ġcivil":4236,"orical":4237,"analytical":4238,"itions":4239,"chitect":4240,"ember":4241,"ĠSEC":4242,"ĠWhether":4243,"Ġremove":4244,"determinations":4245,"Ġacute":4246,"Ġdivine":4247,"Ġadditional":4248,"Ġdeserves":4249,"Ġdevelopment":4250,"ivalent":4251,"lato":4252,"Ġperiod":4253,"direct":4254,"doubt":4255,"Ġdeep":4256,"Ġvis":4257,"ĠDialectic":4258,"Ġcompare":4259,"Ġanticip":4260,"Ġroot":4261,"Ġdefective":4262,"Ġinseparably":4263,"Second":4264,"Here":4265,"ger":4266,"oot":4267,"tal":4268,"Ġast":4269,"anthrop":4270,"Ġmeant":4271,"Ġchapt":4272,"Ġcompletion":4273,"serted":4274,"Ġindependence":4275,"Ġrightly":4276,"Ġaffirmed":4277,"work":4278,"Ġconfused":4279,"conformity":4280,"ĠPROJECT":4281,"apprehension":4282,"Ġengaged":4283,"AT":4284,"OM":4285,"PR":4286,"col":4287,"ox":4288,"Ġies":4289,"inity":4290,"Ġsection":4291,"Ġreject":4292,"Ġhop":4293,"ected":4294,"theology":4295,"Äłst":4296,"presented":4297,"begin":4298,"Ġgoal":4299,"Ġrequirements":4300,"Ġprofound":4301,"systematic":4302,"petual":4303,"body":4304,"fit":4305,"give":4306,"mode":4307,"rule":4308,"Ġobe":4309,"reference":4310,"itious":4311,"orph":4312,"ingly":4313,"positive":4314,"unt":4315,"Ġgenera":4316,"substances":4317,"Ġjudged":4318,"Ġattributed":4319,"Ġfalla":4320,"correct":4321,"Ġreciprocal":4322,"14":4323,"AM":4324,"af":4325,"cent":4326,"nor":4327,"yper":4328,"Ġtaking":4329,"reme":4330,"alf":4331,"ouse":4332,"entire":4333,"imity":4334,"deg":4335,"quite":4336,"Ġdepr":4337,"Ġobjection":4338,"Ġalong":4339,"Ġintended":4340,"Ġunlimited":4341,"Ġsecret":4342,"antages":4343,"ĠAuthor":4344,"except":4345,"ĠPer":4346,"Ġthoughts":4347,"peculative":4348,"Ġsignifies":4349,"distinction":4350,"Ġlying":4351,"requires":4352,"similar":4353,"import":4354,"Ġprobably":4355,"advantage":4356,"Ġprudence":4357,"Ġenjoyment":4358,"Ġsigns":4359,"ĠÃ¦sthetic":4360,"PRE":4361,"With":4362,"_)":4363,"duty":4364,"dedu":4365,"iating":4366,"Ġtill":4367,"ceasing":4368,"Ġdream":4369,"Ġprimitive":4370,"Ġloc":4371,"urope":4372,"Ġsusp":4373,"umber":4374,"transcendent":4375,"Ġrank":4376,"Ġundert":4377,"ĠOr":4378,"ĠCON":4379,"otherwise":4380,"acing":4381,"Ġsatisfactory":4382,"parts":4383,"objectively":4384,"Ġaffirmative":4385,"philosopher":4386,"Ġorganized":4387,"orizon":4388,"Ġsubordinated":4389,"Ġcultiv":4390,"Ġbehind":4391,"examination":4392,",[":4393,"..":4394,"10":4395,"Ex":4396,"fundamental":4397,"Ġive":4398,"ictical":4399,"imper":4400,"iments":4401,"Ġlose":4402,"Ġlaid":4403,"ĠTr":4404,"Ġrid":4405,"Ġimposes":4406,"unal":4407,"soever":4408,"Ġprejud":4409,"acher":4410,"Ġlegitimate":4411,"Ġconfidence":4412,"ING":4413,"applied":4414,"ASON":4415,"Ġstrength":4416,"//":4417,"ling":4418,"tt":4419,"eng":4420,"atus":4421,"Ġred":4422,"arm":4423,"arante":4424,"Äłn":4425,"vey":4426,"Ġsubstant":4427,"ĠInt":4428,"Ġemploying":4429,"ĠDis":4430,"Ġapprehend":4431,"Ġbringing":4432,"Ġsmaller":4433,"Ġreduce":4434,"ĠPhilosophy":4435,"maintain":4436,"://":4437,"word":4438,"Ġinsufficient":4439,"ury":4440,"urther":4441,"Äłg":4442,"Ġsovereign":4443,"Ġtrouble":4444,"ĠAl":4445,"Ġrelated":4446,"among":4447,"ĠGree":4448,"assum":4449,"made":4450,"intuitions":4451,"Ġdefinitions":4452,"ARK":4453,"Ġadopted":4454,"ĠChrist":4455,"total":4456,"Ġhonour":4457,"Ġoneself":4458,"AC":4459,"According":4460,"both":4461,"iences":4462,"ra":4463,"sch":4464,"Ġmut":4465,"Ġdict":4466,"Ġforb":4467,"person":4468,"ternational":4469,"Ġprecisely":4470,"Ġthence":4471,"composition":4472,"ĠHim":4473,"Ġpathological":4474,"sensation":4475,"uality":4476,"way":4477,"Ġz":4478,"ery":4479,"Ġinstruction":4480,"Ġmove":4481,"Ġfive":4482,"Ġist":4483,"Ġrecomm":4484,"uration":4485,"ibly":4486,"Äłan":4487,"Ġdeal":4488,"Ġpropose":4489,"Ġalter":4490,"above":4491,"ĠBesides":4492,"posing":4493,"ĠPR":4494,"bet":4495,"ressed":4496,"material":4497,"Ġpresum":4498,"Ġdiscovering":4499,"OOF":4500,"Ġdoubts":4501,"Ġcelebrated":4502,"Ġdistributing":4503,"Ġstrictly":4504,"Ġapproxim":4505,"Ġantecedes":4506,"grounds":4507,"Ġraise":4508,"Ġcolour":4509,"ĠREM":4510,"concepts":4511,"Ġdogmatic":4512,"Ġomni":4513,"abstract":4514,"Ġpreserve":4515,"ĠSynthetical":4516,"PROOF":4517,"IM":4518,"make":4519,"opposition":4520,"Ġtyp":4521,"really":4522,"restrict":4523,"Ġslight":4524,"Ġbear":4525,"Ġlink":4526,"empor":4527,"method":4528,"Ġappeal":4529,"ĠSince":4530,"Ġgrant":4531,"Ġconnects":4532,"Ġinclude":4533,"Ġcompared":4534,"Ġsuperior":4535,"Ġteaches":4536,"Ġbrings":4537,"Ġundoubted":4538,"Ġdistribute":4539,"Ġcriteria":4540,"Ġdestru":4541,"Ġgenus":4542,"Ġsequence":4543,"Ġremoved":4544,"feeling":4545,"Ġavailable":4546,"Ġaggregate":4547,"AG":4548,"],":4549,"big":4550,"clear":4551,"ches":4552,"Ġcit":4553,"Ġcle":4554,"Ġment":4555,"Ġisol":4556,"Ġrendered":4557,"Ġhyp":4558,"Ġexposed":4559,"Ġli":4560,"iform":4561,"Ġdeath":4562,"true":4563,"prop":4564,"Ġevid":4565,"Ġrelative":4566,"ĠPlato":4567,"Ġsubjected":4568,"Ġparties":4569,"ĠCategor":4570,"ĠEgo":4571,"need":4572,"lective":4573,"Ġattempted":4574,"distrib":4575,"Ġconjoined":4576,"Ġblame":4577,"perfectly":4578,"Ġheteronomy":4579,"Ġborrowed":4580,"God":4581,"SE":4582,"_;":4583,"each":4584,"itio":4585,"Ġness":4586,"Ġefficient":4587,"urality":4588,"iring":4589,"concl":4590,"Ġthereto":4591,"Ġquar":4592,"resses":4593,"ĠNevertheless":4594,"Ġpresenting":4595,"Ġpresentation":4596,"Ġ19":4597,"existing":4598,"Ġimpart":4599,"certainly":4600,"Ġherself":4601,"Ġasked":4602,"Ġoccupies":4603,"following":4604,"contains":4605,"species":4606,"anteced":4607,"explanation":4608,"Ġgovernment":4609,"Ġimpulses":4610,"aps":4611,"labour":4612,"might":4613,"tled":4614,"was":4615,"xt":4616,"isation":4617,"enomen":4618,"Ġasserted":4619,"osing":4620,"Ġalmost":4621,"ofess":4622,"Ġspaces":4623,"orily":4624,"ĠAnt":4625,"Ġdisjunctive":4626,"Ġchimer":4627,"command":4628,"Ġproducing":4629,"manuel":4630,"Ġcontradictions":4631,"Ġadvantages":4632,"Ġextends":4633,"Ġaffirmation":4634,"Ġexhibits":4635,"ĠREASON":4636,"thinking":4637,"Everything":4638,"changeable":4639,"ĠPhys":4640,"belonging":4641,"Ġtalent":4642,"ashion":4643,"occup":4644,"Ġsequel":4645,"validity":4646,"ĠLogic":4647,"Ġescape":4648,"Ide":4649,"ITI":4650,"Ġ-":4651,"Ġpenetr":4652,"Ġreplace":4653,"Ġforced":4654,"Äłim":4655,"iders":4656,"Ġstated":4657,"ĠPhenomen":4658,"===":4659,"compar":4660,"serve":4661,"Ġattaining":4662,"Ġextending":4663,"Ġequivalent":4664,"Ġseeking":4665,"ixture":4666,"ĠVII":4667,"Ġestablishment":4668,"Ġpursue":4669,"contained":4670,"================================":4671,"Ġcounter":4672,"accom":4673,"abstraction":4674,"analys":4675,"Ġindirectly":4676,"Ġbuild":4677,"Ġminor":4678,"Ġtreated":4679,"Ġschemata":4680,"ttp":4681,"CI":4682,"ched":4683,"Ġtell":4684,"err":4685,"Ġsides":4686,"Ġbre":4687,"anations":4688,"lex":4689,"Ġday":4690,"arbitr":4691,"Ġann":4692,"ÄłF":4693,"ilities":4694,"abs":4695,"Ġspect":4696,"progress":4697,"Ġformat":4698,"add":4699,"Ġadmissible":4700,"ĠON":4701,"aching":4702,"cognize":4703,"Ġcommence":4704,"Ġintelligent":4705,"Ġmodality":4706,"Ġexerc":4707,"Ġtreats":4708,"Ġcomprehensible":4709,"Ġsacr":4710,"===================================":4711,".--":4712,"ET":4713,"aught":4714,"ged":4715,"lied":4716,"alog":4717,"Ġhyper":4718,"Ġanthrop":4719,"Ġanywhere":4720,"Ġstop":4721,"Ġchance":4722,"Ġpossessed":4723,"ĠMy":4724,"Ġpersonal":4725,"Ġexpectation":4726,"ARRAN":4727,"Ġforegoing":4728,"ĠĠĠĠĠĠĠĠĠĠĠĠĠĠĠĠĠĠĠĠĠĠĠ":4729,"ĠAccordingly":4730,"expected":4731,"Ġfulfil":4732,"Let":4733,"SI":4734,"ii":4735,"prom":4736,"Ġresol":4737,"Ġdays":4738,"Ġconstraint":4739,"theological":4740,"owers":4741,"Äłpre":4742,"Ġunb":4743,"Ġseat":4744,"Ġimposed":4745,"ternity":4746,"Ġprefer":4747,"Ġactive":4748,"Ġdiscursive":4749,"ounces":4750,"ĠMe":4751,"Ġassent":4752,"Ġdivis":4753,"ialectical":4754,"Ġdependence":4755,"anything":4756,"Ġpeculiarity":4757,"simple":4758,"ĠImmanuel":4759,"Ġroom":4760,"ĠObjects":4761,"consideration":4762,"ĠPrinciple":4763,"Ġreduced":4764,"predicates":4765,"Ġdecided":4766,"Ġethics":4767,"against":4768,"Ġwonder":4769,"Ġlarge":4770,"Ġdoctrines":4771,"degree":4772,"BL":4773,"author":4774,"long":4775,"ĠQu":4776,"itate":4777,"alt":4778,"organ":4779,"Ġduration":4780,"Ġconject":4781,"Ġpra":4782,"ivable":4783,"Ġsuscept":4784,"istics":4785,"construction":4786,"ofold":4787,"Ġdisclaim":4788,"sole":4789,"Ġpremis":4790,"Ġgrow":4791,"Ġenables":4792,"manner":4793,"Ġ18":4794,"ĠLaw":4795,"Ġsets":4796,"Ġanswered":4797,"Ġready":4798,"Ġutmost":4799,"Ġcorrectness":4800,"ogeneity":4801,"Ġexcluded":4802,"including":4803,"Ġhighly":4804,"ÃĦÅĤÃĦÅĤÃĦÅĤÃĦÅĤ":4805,"Ġannihilated":4806,"ĠSee":4807,"Ġobscure":4808,"Ġconfine":4809,"hypothesis":4810,"exercise":4811,"11":4812,"UL":4813,"aenomen":4814,"deduction":4815,"sour":4816,"Ġfed":4817,"Ġdepart":4818,"ilis":4819,"Ġnearer":4820,"usive":4821,"mechan":4822,"illed":4823,"Ġunceasing":4824,"Ġspite":4825,"Ġmortal":4826,"Ġcontrast":4827,"relations":4828,"Ġedifice":4829,"ĠJust":4830,"aneous":4831,"Ġopinions":4832,"completeness":4833,"Ġpromises":4834,"Ġdelusion":4835,"summum":4836,"mathematical":4837,"ĠHowever":4838,"Ġheterogeneous":4839,"ĠPURE":4840,"ĠCause":4841,"DU":4842,"ucid":4843,"utable":4844,"ÄłH":4845,"ÄłT":4846,"ĠTRANSCENDENTAL":4847,"answ":4848,"supposition":4849,"Ġwills":4850,"ĠFirst":4851,"Ġrelating":4852,"Ġyears":4853,"else":4854,"ĠEurope":4855,"new":4856,"Ġgoodness":4857,"Ġoriginally":4858,"Ġoriginated":4859,"ĠLet":4860,"Ġassured":4861,"Ġbeforehand":4862,"Ġmodern":4863,"Ġconfusion":4864,"understood":4865,"causes":4866,"commun":4867,"Ġcollection":4868,"Ġdispute":4869,"Ġmentioned":4870,"Ġancient":4871,"Ġsociety":4872,"Ġsuspic":4873,"OL":4874,"electronic":4875,"fers":4876,"nce":4877,"po":4878,"uct":4879,"Ġthesis":4880,"Ġfict":4881,"Ġrevol":4882,"omorph":4883,"ters":4884,"result":4885,"conceived":4886,"Ġarchitect":4887,"ĠSpeculative":4888,"Ġwhatsoever":4889,"Ġplease":4890,"Ġillusions":4891,"Ġseemed":4892,"ĠTHIS":4893,"aneously":4894,"Ġharmonize":4895,"Ġexhibited":4896,"ĠExperience":4897,"ĠĠĠĠĠĠĠĠĠĠĠĠĠĠĠĠĠĠĠĠĠĠ":4898,"distinguished":4899,"presupposes":4900,"ficial":4901,"succession":4902,"Ġtranscend":4903,"affirm":4904,"inquir":4905,"Ġadapted":4906,"Ġsuspicion":4907,"?\"":4908,"Sect":4909,"affect":4910,"coun":4911,"Ġions":4912,"inally":4913,"Ġous":4914,"render":4915,"Ġinst":4916,"Ġinhere":4917,"Ġinward":4918,"Ġthreat":4919,"Ġreached":4920,"cir":4921,"oreover":4922,"Ġunworthy":4923,"ĠBoth":4924,"cap":4925,"uncondition":4926,"Ġmankind":4927,"clos":4928,"Ġsubmit":4929,"ortunity":4930,"Ġindetermin":4931,"ĠEBOOK":4932,"Ġpowerful":4933,"Ġmatters":4934,"blime":4935,"Ġdistinguishing":4936,"grad":4937,"Ġholding":4938,"Ġdoubtful":4939,"Ġmaintained":4940,"Ġsingular":4941,"Ġtransition":4942,"Ġcommunic":4943,"Ġindifferent":4944,"chety":4945,"mentioned":4946,"Ġchapter":4947,"cop":4948,"hood":4949,"nay":4950,"number":4951,"Ġsl":4952,"Ġinadequate":4953,"Ġdam":4954,"still":4955,"osen":4956,"Äłtr":4957,"chang":4958,"Ġnear":4959,"emark":4960,"illusion":4961,"Ġtherewith":4962,"pright":4963,"unless":4964,"Ġconsiders":4965,"agree":4966,"acle":4967,"Ġextreme":4968,"neither":4969,"Ġimply":4970,"Ġconsidering":4971,"undred":4972,"Ġnumer":4973,"Ġguarante":4974,"Ġreadily":4975,"Ġtheoretically":4976,"regarding":4977,"design":4978,"difference":4979,"Ġseeks":4980,"Ġrecognized":4981,"Ġdeserve":4982,"www":4983,"supersensible":4984,"Ġreceiving":4985,"Ġsubsumed":4986,"Ġaccompan":4987,"Ġgradually":4988,"var":4989,"Ġence":4990,"ret":4991,"atory":4992,"ices":4993,"Ġbase":4994,"Ġfashion":4995,"search":4996,"Ġdimin":4997,"abor":4998,"Ġempl":4999,"anticip":5000,"indis":5001,"ĠĠĠĠĠĠĠĠĠĠĠĠĠĠĠĠĠĠĠ":5002,"evident":5003,"OND":5004,"empirically":5005,"Ġessence":5006,"Ġ30":5007,"obtain":5008,"Ġ50":5009,"Ġanalogies":5010,"Ġsurface":5011,"Ġrecognize":5012,"ĠANY":5013,"Ġfirmly":5014,"UD":5015,"cour":5016,"pore":5017,"Ġwater":5018,"cell":5019,"Ġdim":5020,"Ġhidden":5021,"Ġwelf":5022,"ÄłG":5023,"Äłsu":5024,"Ġalleg":5025,"esty":5026,"Ġembr":5027,"Ġjoin":5028,"ĠFreedom":5029,"Ġideality":5030,"Ġsomewhat":5031,"Ġambig":5032,"lected":5033,"cribing":5034,"Ġclearness":5035,"Ġneeds":5036,"Ġcommanded":5037,"Ġpreceded":5038,"Ġdrawing":5039,"extension":5040,"limits":5041,"Ġintuitive":5042,"Ġcreated":5043,"Ġspontaneous":5044,"constitutive":5045,"Ġdisputes":5046,"insic":5047,"Ġgeometrical":5048,"Ġgained":5049,"predicate":5050,"analog":5051,"EMENT":5052,"IRST":5053,"depends":5054,"Ġwelfare":5055,"FACE":5056,"VE":5057,"dialectical":5058,"uity":5059,"Ġaug":5060,"aticism":5061,"erable":5062,"Ġinstit":5063,"Ġeternity":5064,"sem":5065,"ÄłB":5066,"Äład":5067,"Ġproving":5068,"Ġpropens":5069,"Ġuncertain":5070,"Ġuniform":5071,"Ġratio":5072,"ĠSto":5073,"Ġindefinite":5074,"Ġsystems":5075,"Ġsynthetically":5076,"Ġcogitating":5077,"purpos":5078,"ĠJudgements":5079,"rence":5080,"Ġsublimity":5081,"Ġannihilate":5082,"Ġobscurity":5083,"Ġindifference":5084,"legislation":5085,"Ġadmiration":5086,"Ġtribunal":5087,"Chapter":5088,"oice":5089,"Ġers":5090,"Ġol":5091,"Ġtheological":5092,"reciproc":5093,"Ġcred":5094,"Ġfoot":5095,"let":5096,"otle":5097,"Ġuseless":5098,"urus":5099,"Ġpropr":5100,"Ġrace":5101,"Ġprincip":5102,"admissible":5103,"ĠChapter":5104,"Ġdesp":5105,"aving":5106,"Ġestimate":5107,"ĠUse":5108,"evol":5109,"Ġsettled":5110,"ĠConception":5111,"Ġteacher":5112,"Ġallowable":5113,"Ġdeclares":5114,"ĠĠĠĠĠĠĠĠĠĠĠĠĠĠĠĠĠĠĠĠĠ":5115,"Ġmarked":5116,"Ġaccidental":5117,"critical":5118,"Being":5119,"Supreme":5120,"negative":5121,"Ġusual":5122,"drawn":5123,"Ġprospect":5124,"ottom":5125,"Ar":5126,"TY":5127,"fig":5128,"sc":5129,"erate":5130,"Ġcour":5131,"Ġpa":5132,"Ġbottom":5133,"Ġfile":5134,"Ġnation":5135,"Ġdue":5136,"Äłper":5137,"Äłsub":5138,"individual":5139,"ĠFOR":5140,"Ġgrat":5141,"Ġgrounded":5142,"Ġentertain":5143,"ĠProble":5144,"Ġmethods":5145,"Ġtechn":5146,"Ġerrone":5147,"Ġbecoming":5148,"constitute":5149,"Ġaccidents":5150,"higher":5151,"Ġobservations":5152,"important":5153,"Ġslightest":5154,"Ġaugment":5155,"bound":5156,"bour":5157,"lo":5158,"opposite":5159,"Ãĥ":5160,"ony":5161,"asis":5162,"Ġance":5163,"Ġexpose":5164,"ciation":5165,"ÄłO":5166,"ulg":5167,"about":5168,"iet":5169,"Ġsynthetic":5170,"Ġviewed":5171,"Ġexplanations":5172,"Ġmodel":5173,"Ġcompel":5174,"Ġfreely":5175,"Ġsupplied":5176,"Ġprogression":5177,"Ġchanged":5178,"Ġanalogous":5179,"discovered":5180,"Ġearly":5181,"myself":5182,"senses":5183,"observation":5184,"Ġusually":5185,"sufficiency":5186,"Ġfortune":5187,"circ":5188,"Ġemploys":5189,"poreal":5190,"kes":5191,"noumen":5192,"ores":5193,"rance":5194,"small":5195,"inom":5196,"Ġhundred":5197,"Ġgif":5198,"aining":5199,"abled":5200,"ĠĠĠĠĠĠĠĠĠĠĠ":5201,"ĠPossib":5202,"Ġenabled":5203,"ĠEdition":5204,"Ġoutward":5205,"Ġamount":5206,"Ġincludes":5207,"Ġremaining":5208,"fluences":5209,"Ġsettle":5210,"Ġboundaries":5211,"Ġmisunderstanding":5212,"purely":5213,"Ġwarning":5214,"Ġanalytically":5215,"Ġproductive":5216,"Ġoffice":5217,"Ġcontinued":5218,"Ġcountry":5219,"special":5220,"Ġsceptical":5221,"Ġreflective":5222,"Ġchecks":5223,"Ġassigned":5224,"Ġincrease":5225,"Ġstrugg":5226,"¢Ä¢Ä":5227,"Ġdisappears":5228,"ustomed":5229,"Ġheaven":5230,"80":5231,"Im":5232,"bes":5233,"mn":5234,"member":5235,"ngl":5236,"opp":5237,"enlarg":5238,"oted":5239,"Ġhorizon":5240,"Ġsun":5241,"ainted":5242,"iled":5243,"Ġating":5244,"Ġration":5245,"Ġformation":5246,"Ġarchety":5247,"Ġeverywhere":5248,"Ġsubstit":5249,"ĠGr":5250,"many":5251,"Ġshowing":5252,"Ġcommer":5253,"Ġpresupposing":5254,"Ġaffinity":5255,"Ġoccurs":5256,"Ġsetting":5257,"ĠBeautiful":5258,"Ġoverstep":5259,"Ġvirtuous":5260,"Ġpasses":5261,"understand":5262,"ĠYet":5263,"Ġvolunteers":5264,"Ġparalogism":5265,"ocr":5266,"metaphysic":5267,"Ġaccepted":5268,"ITED":5269,"Ġdeveloped":5270,"Ġunconditionally":5271,"Ġdetail":5272,"Ġdecision":5273,"ILITY":5274,"Ġmultitude":5275,"Ġcompliance":5276,"Ġvanity":5277,"ĠMathemat":5278,"entirely":5279,"PREFACE":5280,"ĠChristian":5281,"Accordingly":5282,"ĠREMARK":5283,"68":5284,"ape":5285,"bol":5286,"cases":5287,"cosmological":5288,"iology":5289,"Ġaf":5290,"Ġinc":5291,"Ġrepro":5292,"Ġprint":5293,"Ġlater":5294,"ÄłL":5295,"ifies":5296,"ĠAm":5297,"Ġplurality":5298,"formal":5299,"haust":5300,"educ":5301,"Ġfeels":5302,"Ġadvisable":5303,"Ġconsequent":5304,"Ġimperfect":5305,"Ġlooking":5306,"Ġtreatise":5307,"ighbour":5308,"categorical":5309,"Ġaffords":5310,"Ġdangerous":5311,"Ġcapacity":5312,"Ġancients":5313,"psychology":5314,"Ġtwofold":5315,"imperative":5316,"Ġisolated":5317,"ĠPhenomena":5318,"HY":5319,"sus":5320,"Ġthy":5321,"Ġfiction":5322,"Ġism":5323,"Ġdr":5324,"demand":5325,"Ġdoll":5326,"Ġperpetual":5327,"Ġshape":5328,"ĠPe":5329,"Ġfault":5330,"Ġenounce":5331,"Ġendowed":5332,"Ġ13":5333,"determinate":5334,"Ġcorrelate":5335,"Ġquantum":5336,"ĠIdeal":5337,"independence":5338,"Ġdistributed":5339,"Ġorganon":5340,"Ġmomenta":5341,"Ġarranged":5342,"Ġfigures":5343,"Ġconflicting":5344,"Ġdirections":5345,"Ġculture":5346,"Ġreckoned":5347,"Ġpunishment":5348,"ĠMetaphysics":5349,"Ġcontemplation":5350,"ĠDivision":5351,"definition":5352,"ĠGreek":5353,"aenomenon":5354,"Metaphys":5355,"Ne":5356,"Our":5357,"iality":5358,"oast":5359,"public":5360,"Ġten":5361,"endeav":5362,"Ġinstruct":5363,"ories":5364,"Ġrepe":5365,"Ġreconci":5366,"Ġpride":5367,"term":5368,"cil":5369,"perhaps":5370,"construct":5371,"Ġrange":5372,"Ġchosen":5373,"Ġfarther":5374,"ĠGer":5375,"ostat":5376,"forms":5377,"procedure":5378,"Ġconceal":5379,"Ġlegal":5380,"Ġpersonality":5381,"Ġspecific":5382,"doctrine":5383,"Ġindicating":5384,"desire":5385,"Ġmaintains":5386,"Ġdesignate":5387,"Ġacquainted":5388,"perfection":5389,"large":5390,"account":5391,"Ġhappened":5392,"Ġprudent":5393,"Ġestimation":5394,"continu":5395,"ĠEmpirical":5396,"Ġcalcul":5397,"based":5398,"don":5399,"inal":5400,"Ġerect":5401,"utility":5402,"Ġhouse":5403,"ĠIs":5404,"embr":5405,"taining":5406,"Ġrad":5407,"Ġsensib":5408,"supreme":5409,"Ġnoble":5410,"ĠApp":5411,"ĠPart":5412,"sophist":5413,"fered":5414,"intu":5415,"solu":5416,"Ġbelow":5417,"accid":5418,"proved":5419,"Ġwherein":5420,"works":5421,"arrass":5422,"Ġexert":5423,"Ġbelieves":5424,"Ġlooked":5425,"Ġconducted":5426,"ocke":5427,"INCI":5428,"intelligence":5429,"remark":5430,"Ġpursuit":5431,"iminary":5432,"Ġwritten":5433,"consequences":5434,"Ġsacrifice":5435,"Ġindeterminate":5436,"\";":5437,"BILITY":5438,"CL":5439,"TRANSCENDENTAL":5440,"Ġos":5441,"atural":5442,"imental":5443,"oses":5444,"Ġonline":5445,"Ġnotice":5446,"Ġsupposing":5447,"Äłhe":5448,"Äłar":5449,"resist":5450,"ĠTaste":5451,"conduct":5452,"esteem":5453,"aded":5454,"Ġshare":5455,"cles":5456,"etch":5457,"Ġmach":5458,"Ġrequiring":5459,"ĠEX":5460,"Ġentered":5461,"Ġ16":5462,"ĠMan":5463,"ableness":5464,"Ġcomput":5465,"Ġphysico":5466,"Ġchangeable":5467,"irtue":5468,"Ġexplaining":5469,"Ġelsewhere":5470,"purposes":5471,"Ġregular":5472,"000":5473,"ĠExposition":5474,"Ġeye":5475,"Ġroad":5476,"Ġsorts":5477,"Ġpostulates":5478,"Ġwitness":5479,"eleology":5480,"effects":5481,"pathological":5482,"ĠNew":5483,"obligation":5484,"ĠCategories":5485,"Per":5486,"basis":5487,"barrass":5488,"mist":5489,"wish":5490,"Ġoffer":5491,"Ġsite":5492,"icit":5493,"Ġfix":5494,"sect":5495,"Ġupright":5496,"imagination":5497,"del":5498,"cial":5499,"irth":5500,"istinction":5501,"ĠTot":5502,"plex":5503,"Ġ(Â§":5504,"Ġunnecessary":5505,"Ġours":5506,"nowledge":5507,"iece":5508,"Ġknowing":5509,"ĠWARRAN":5510,"Ġcontact":5511,"formed":5512,"Ġposited":5513,"ĠDI":5514,"Ġpossessing":5515,"ĠProof":5516,"Ġimpressions":5517,"Ġrefers":5518,"Ġclos":5519,"Ġdivisible":5520,"Ġelaps":5521,"Ġconformably":5522,"Ġparticularly":5523,"Ġarrange":5524,"Ġregressive":5525,"Ġequip":5526,"ĠKnowledge":5527,"destr":5528,"Ġexamined":5529,"ĠArt":5530,"happens":5531,"Ġdispositions":5532,"pecial":5533,"limitation":5534,"ordinated":5535,"apode":5536,"Ġappropr":5537,"ĠÃĨ":5538,"constitution":5539,"Ġflatter":5540,"Ġkeeping":5541,"Ġtalents":5542,"pathy":5543,"demonstration":5544,"Ġethical":5545,"problematical":5546,"arguments":5547,"Ġpolitical":5548,"Ġconfirmation":5549,"ĠEpicurus":5550,"AMAG":5551,"Ġlocated":5552,"ĠIntuition":5553,"Ġbreak":5554,"Ġelapsed":5555,"De":5556,"OP":5557,"St":5558,"rase":5559,"Ġtext":5560,"Ġog":5561,"ativ":5562,"icability":5563,"Ġmid":5564,"Ġmund":5565,"Ġreview":5566,"Ġure":5567,"Ġliving":5568,"ÄłW":5569,"Äłpro":5570,"thics":5571,"verse":5572,"ulate":5573,"Ġates":5574,"tains":5575,"ĠAb":5576,"ieve":5577,"ĠSelf":5578,"Ġfair":5579,"Ġcompleted":5580,"ĠHart":5581,"Ġremote":5582,"ounced":5583,"Ġmaximum":5584,"Ġsimplicity":5585,"Ġproceeded":5586,"bles":5587,"fluous":5588,"Ġconforms":5589,"arrow":5590,"Ġinfinitely":5591,"Ġdeclar":5592,"ĠUnity":5593,"produce":5594,"synthetically":5595,"Ġ90":5596,"Ġcreatures":5597,"Ġacquired":5598,"Ġpositively":5599,"successive":5600,"enetrability":5601,"Ġhumil":5602,"Ġobstin":5603,"Ġexecution":5604,"Ġfallacious":5605,"Judgement":5606,"ael":5607,"ges":5608,"gives":5609,"hab":5610,"homogeneous":5611,"ians":5612,"rog":5613,"ĠX":5614,"Ġnull":5615,"ules":5616,"Ġaltern":5617,"Ġintensive":5618,"ĠĠĠĠĠĠĠĠĠĠĠĠĠ":5619,"Ġexistences":5620,"admit":5621,"Ġwilling":5622,"Ġchief":5623,"Ġcontempt":5624,"Ġcontempor":5625,"Ġfees":5626,"ĠEngl":5627,"arest":5628,"Ġformerly":5629,"Ġyouth":5630,"cognized":5631,"thereby":5632,"regulative":5633,"Ġantinom":5634,"Ġsolved":5635,"Ġoverlook":5636,"Ġindicated":5637,"Ġposted":5638,"Äłsh":5639,"Ġfallacy":5640,"Ġtreatment":5641,"justice":5642,"apperception":5643,"produced":5644,"questions":5645,"universality":5646,"Ġapodeictical":5647,"Ġflow":5648,"Ġopportunity":5649,"cogitated":5650,"Ġspiritual":5651,"TICAL":5652,"ertitude":5653,"ĠSystem":5654,"Ġpersuasion":5655,"Ġmulti":5656,"Ġscholastic":5657,"ĠDiscipline":5658,"Ġhypostat":5659,"closed":5660,"Ġdollars":5661,"18":5662,"aesthetical":5663,"Ã©":5664,"Ġwa":5665,"Ġwww":5666,"Ġincomp":5667,"ichael":5668,"Ġexempt":5669,"Äłse":5670,"Äłbe":5671,"qual":5672,"Ġnext":5673,"mean":5674,"Ġrun":5675,"Ġsees":5676,"get":5677,"Ġrepresenting":5678,"Ġmyst":5679,"aster":5680,"ĠWill":5681,"Ġenumer":5682,"Ġjustly":5683,"sym":5684,"avid":5685,"Ġselfish":5686,"Ġcompens":5687,"Ġpleases":5688,"Ġconformable":5689,"ĠSublime":5690,"Ġequality":5691,"Ġpassing":5692,"deser":5693,"Ġapplying":5694,"Ġfalsely":5695,"philosophical":5696,"Ġobtaining":5697,"Ġspontaneously":5698,"THE":5699,"Ġassociation":5700,"points":5701,"attainable":5702,"Ġreciprocally":5703,"Consequently":5704,"provement":5705,"Ġconvinced":5706,"Ġundoubtedly":5707,"ĠPeace":5708,"CTION":5709,"No":5710,"furn":5711,"harmon":5712,"iption":5713,"Ġwid":5714,"Ġtouch":5715,"Ġfixed":5716,"ancing":5717,"omogeneity":5718,"utic":5719,"Ġaspect":5720,"Äłu":5721,"Äłab":5722,"istence":5723,"Ġneighbour":5724,"Ġally":5725,"Ġru":5726,"Ġroyal":5727,"pract":5728,"adistinction":5729,"omena":5730,"ĠSome":5731,"ĠScience":5732,"Ġchild":5733,"ets":5734,"ĠNor":5735,"Ġowner":5736,"Ġagent":5737,"Ġ14":5738,"Ġviews":5739,"apply":5740,"Ġanswers":5741,"Ġimaginary":5742,"perceptions":5743,"upil":5744,"Ġadds":5745,"brought":5746,"Ġtransl":5747,"ĠArist":5748,"Ġcorrectly":5749,"appearance":5750,"Ġwriting":5751,"Ġimplied":5752,"Ġqualities":5753,"Ġconstantly":5754,"independently":5755,"Ġaccurate":5756,"ĠDivine":5757,"Ġforbid":5758,"between":5759,"powers":5760,"rather":5761,"uly":5762,"yright":5763,"ĠÂ":5764,"Ġinfall":5765,"Ġinconsistent":5766,"Ġmil":5767,"anim":5768,"Ġascertain":5769,"Ġexcell":5770,"Äłth":5771,"uses":5772,"Ġhes":5773,"ading":5774,"Ġworlds":5775,"ĠĠĠĠĠĠĠĠĠĠĠĠĠĠĠĠĠ":5776,"Ġgoing":5777,"others":5778,"Ġphilosoph":5779,"syllogism":5780,"Ġattended":5781,"ĠMoreover":5782,"Ġstri":5783,"Ġdivide":5784,"Ġmoderate":5785,"Ġsolid":5786,"Ġholder":5787,"Ġessay":5788,"Ġprovince":5789,"obbes":5790,"Ġarts":5791,"Ġamongst":5792,"Ġexclude":5793,"Ġavoided":5794,"Ġpostulated":5795,"Ġinevitable":5796,"Ġirre":5797,"Ġdogmatism":5798,"Ġprobability":5799,"Ġfanaticism":5800,"Ġmoving":5801,"Ġconfined":5802,"Ġaccurately":5803,"ĠNothing":5804,"OGY":5805,"Ġfrequent":5806,"beginning":5807,"ength":5808,"Ġevidently":5809,"DUCTION":5810,"Ġerroneous":5811,"ĠAristotle":5812,"CT":5813,"cision":5814,"rust":5815,"sing":5816,"sur":5817,"ub":5818,"Ã¦":5819,"Ġtaught":5820,"Ġot":5821,"rent":5822,"especially":5823,"Ġnamed":5824,"definite":5825,"istrib":5826,"Ġality":5827,"ĠĠĠĠĠĠĠĠĠĠĠĠĠĠĠ":5828,"Ġrash":5829,"Ġvice":5830,"Ġtried":5831,"Ġstead":5832,"excl":5833,"presentation":5834,"whose":5835,"Ġadmission":5836,"Ġgrand":5837,"ĠInformation":5838,"icious":5839,"Ġseeing":5840,"Ġconsiderable":5841,"Ġcogitable":5842,"Ġdirects":5843,"Ġelabor":5844,"contempl":5845,"Ġreaders":5846,"Ġconven":5847,"Ġkey":5848,"remains":5849,"Ġelementary":5850,"possesses":5851,"original":5852,"divis":5853,"rests":5854,"Ġlabours":5855,"While":5856,"Ġascending":5857,"motive":5858,"Ġimpulse":5859,"Ġordinary":5860,"argument":5861,"dogmat":5862,"difficulties":5863,"Ġtendency":5864,"Ġomnipot":5865,"Ġquarter":5866,"accomp":5867,"Ġspectator":5868,"OD":5869,"Ph":5870,"Un":5871,"acles":5872,"eared":5873,"liminary":5874,"ux":5875,"Ġain":5876,"Ġinternally":5877,"Ġinfluences":5878,"Ġboast":5879,"espect":5880,"section":5881,"Ġdate":5882,"omin":5883,"ptions":5884,"dered":5885,"Ġgave":5886,"ĠTeleology":5887,"olf":5888,"Ġunchangeable":5889,"Ġround":5890,"Ġtrust":5891,"strum":5892,"aggreg":5893,"elt":5894,"ames":5895,"ĠGood":5896,"comes":5897,"Ġdescribe":5898,"formul":5899,"fulness":5900,"Ġinval":5901,"Ġcharacteristics":5902,"bling":5903,"ENCE":5904,"Ġarriving":5905,"Ġnumbers":5906,"Ġ25":5907,"Ġresulting":5908,"contradictions":5909,"Ġpassed":5910,"pursu":5911,"Ġadditions":5912,"legomena":5913,"Ġpretended":5914,"Ġofficial":5915,"Ġrecognise":5916,"RODUCTION":5917,"Ġrestricted":5918,"Ġparagraphs":5919,"Ġsubsumption":5920,"maxims":5921,"Ġaccompany":5922,"assertions":5923,"Ġprepare":5924,"Ġlinks":5925,"antecedent":5926,"Ġinstinct":5927,"soluble":5928,"ĠTotality":5929,";_":5930,"Critique":5931,"Such":5932,"SEC":5933,"fav":5934,"junction":5935,"rules":5936,"virtue":5937,"Ġted":5938,"isen":5939,"ata":5940,"Ġbind":5941,"Ġbirth":5942,"Ġmixed":5943,"seen":5944,"imag":5945,"Ġlic":5946,"Ġdece":5947,"Ġdetr":5948,"emper":5949,"acting":5950,"Ġunite":5951,"Ġaccustomed":5952,"class":5953,"enses":5954,"Ġgenerated":5955,"Ġindication":5956,"ĠWeb":5957,"Ġstrange":5958,"speculation":5959,"Ġcoinci":5960,"Ġmaintaining":5961,"Ġcombat":5962,"Ġdesigned":5963,"Ġcomparative":5964,"Ġorganised":5965,"Ġrecognizes":5966,"Ġdeliber":5967,"Ġadvancement":5968,"Ġpursues":5969,"applicable":5970,"Ġcircumstance":5971,"confidence":5972,"Ġdatur":5973,"criticism":5974,"expression":5975,"Ġfancy":5976,"Ġfourth":5977,"motion":5978,"Ġcosts":5979,"Ġderivative":5980,"concerned":5981,"Ġelevated":5982,"Ġclosely":5983,"Ġreplacement":5984,"Ġcommencement":5985,"Ġconjecture":5986,"Ġsusceptible":5987,"Ġpremisses":5988,"Ġreproach":5989,"Ġequipment":5990,"Ġcontemporaneously":5991,"He":5992,"ORE":5993,"RITI":5994,"TRODUCTION":5995,"Whether":5996,"apon":5997,"hope":5998,"ihil":5999,"onically":6000,"itative":6001,"itles":6002,"orn":6003,"Ġeternal":6004,"Ġego":6005,"secure":6006,"utter":6007,"Ġharm":6008,"uries":6009,"ÄłR":6010,"Äłat":6011,"que":6012,"Ġative":6013,"Ġheight":6014,"exper":6015,"Ġqua":6016,"Ġsubjecting":6017,"agreement":6018,"Ġlimiting":6019,"Ġactuality":6020,"ĠEither":6021,"Ġattach":6022,"disposition":6023,"Ġarrived":6024,"Ġsolve":6025,"ALEC":6026,"Ġpaths":6027,"Ġcomprehension":6028,"ĠVI":6029,"Ġintuite":6030,"appears":6031,"Ġexcludes":6032,"Ġclasses":6033,"indicate":6034,"Ġsuffer":6035,"Ġattraction":6036,"preceding":6037,"ĠSECTION":6038,"Secondly":6039,"Ġtype":6040,"Ġbuilding":6041,"Ġwonderful":6042,"Ġpaper":6043,"Ġapodeictically":6044,"Ġinvalid":6045,"Pure":6046,"bar":6047,"further":6048,"ken":6049,"life":6050,"makes":6051,"soul":6052,"want":6053,"Ġiv":6054,"Ġty":6055,"invol":6056,"rection":6057,"ening":6058,"Ġpubl":6059,"nde":6060,"Ġmine":6061,"seem":6062,"Ġannex":6063,"Ġdem":6064,"usively":6065,"trademark":6066,"notions":6067,"hering":6068,"Ġvoice":6069,"Ġyield":6070,"Ġdissimilar":6071,"Ġary":6072,"become":6073,"tellig":6074,"yss":6075,"Ġdiffer":6076,"ĠHobbes":6077,"Ġgroundless":6078,"inev":6079,"lessness":6080,"Ġrealization":6081,"Ġconstituting":6082,"Ġshowed":6083,"Ġassistance":6084,"Ġcompetent":6085,"ferred":6086,"Ġbran":6087,"Ġoffers":6088,"ĠStill":6089,"Ġirresist":6090,"Ġfavourable":6091,"comprehend":6092,"Ġmarks":6093,"elements":6094,"greater":6095,"Ġexperiences":6096,"Ġbenefit":6097,"Ġmediately":6098,"Ġinjurious":6099,"Ġfrequently":6100,"QUE":6101,"Ġpresumption":6102,"Ġdestruction":6103,"Ġtechnical":6104,"EAS":6105,"SIS":6106,"pgl":6107,"sed":6108,"Ġx":6109,"insepar":6110,"Ġost":6111,"Ġsil":6112,"Ġincomplete":6113,"Ġincomprehensible":6114,"Ġfat":6115,"Ġnarrow":6116,"Ġlive":6117,"Ġlab":6118,"throw":6119,"permanent":6120,"ĠTheology":6121,"Ġhealth":6122,"Ġtrace":6123,"Ġprepar":6124,"ĠWhere":6125,"within":6126,"Ġextinction":6127,"ĠDes":6128,"ĠDavid":6129,"ĠLocke":6130,"Ġattains":6131,"extent":6132,"Ġchanging":6133,"required":6134,"category":6135,"Ġcomparing":6136,"ifications":6137,"Ġsupported":6138,"employed":6139,"Ġdogmatist":6140,"explain":6141,"Ġdefend":6142,"Ġascend":6143,"Ġreceives":6144,"ĠDeity":6145,"psychological":6146,"ĠMorality":6147,"dogmatical":6148,"established":6149,"Ġsubstantial":6150,"source":6151,"Ġheavenly":6152,"Ġrationis":6153,"ĠEnglish":6154,"meaning":6155,"apons":6156,"22":6157,"Gr":6158,"IB":6159,"UND":6160,"came":6161,"Ġig":6162,"Ġomit":6163,"ale":6164,"alle":6165,"Ġud":6166,"Ġexceptions":6167,"dev":6168,"ÄłN":6169,"Äłch":6170,"Ġsoph":6171,"Ġvac":6172,"Ġably":6173,"ĠAgain":6174,"unavoidable":6175,"ĠST":6176,"Ġdesc":6177,"âĢĿâĢĶ":6178,"Ġindefinitum":6179,"Ġfell":6180,"Ġeffected":6181,"ĠDIS":6182,"Ġcharm":6183,"Ġassure":6184,"Ġcompass":6185,"peculiar":6186,"grat":6187,"ĠTHESIS":6188,"Ġintrinsic":6189,"Ġdeclare":6190,"Ġframe":6191,"ESIS":6192,"olem":6193,"production":6194,"Ġfurnished":6195,"Ġadequately":6196,"THESIS":6197,"inclinations":6198,"Ġseparated":6199,"consistency":6200,"satisfactory":6201,"element":6202,"Ġsketch":6203,"Ġanimals":6204,"Ġopponents":6205,"Ġdiscussions":6206,"posteriori":6207,"Ġspecifically":6208,"Ġauthorize":6209,"Ġauthorized":6210,"Ġenlargement":6211,"Ġsympathy":6212,"Ġprimary":6213,"deduced":6214,"philosophers":6215,"Ġcultivation":6216,"veyed":6217,"solely":6218,"RITIQUE":6219,"pglaf":6220,"16":6221,"50":6222,"ION":6223,"So":6224,"Ġ***":6225,"Ġach":6226,"ital":6227,"enevol":6228,"Ġwished":6229,"Ġinternational":6230,"Ġinsoluble":6231,"ancy":6232,"Ġell":6233,"Ġbegan":6234,"Ġhttp":6235,"Ġlength":6236,"essential":6237,"mell":6238,"estim":6239,"sual":6240,"adox":6241,"exhib":6242,"Ġcognise":6243,"agger":6244,"ortions":6245,"Ġpresently":6246,"Ġagrees":6247,"Ġthinkers":6248,"Ġprescribe":6249,"Ġoriginating":6250,"phenomenal":6251,"Ġcontentment":6252,"Ġconformed":6253,"Ġestablishes":6254,"Ġjudges":6255,"Ġmodifications":6256,"Ġsolicit":6257,"Ġproviding":6258,"Ġcontinuity":6259,"Ġoccupation":6260,"physico":6261,"Ġexclusively":6262,"Ġgenius":6263,"interested":6264,"accur":6265,"ORAL":6266,"ĠANAL":6267,"presupposed":6268,"However":6269,"Ġdefence":6270,"Ġformulae":6271,"Ġmoon":6272,"Ġderivation":6273,"ATIONS":6274,"signification":6275,"Ġadduced":6276,"analysis":6277,"Ġdivisibility":6278,"mechanism":6279,"Ġrevolution":6280,"Ġalleged":6281,"figure":6282,"ME":6283,"bring":6284,"critique":6285,"pperception":6286,"treat":6287,"vent":6288,"Ġoppose":6289,"Ġpupil":6290,"Ġinadmissible":6291,"Ġbears":6292,"Ġbecame":6293,"Ġexternally":6294,"Ġlur":6295,"Ġland":6296,"Ġlicense":6297,"ÄłI":6298,"ifying":6299,"ulates":6300,"Ġdecomposition":6301,"Ġproposes":6302,"actual":6303,"Ġvag":6304,"Ġtrack":6305,"suppose":6306,"adly":6307,"Ġstatus":6308,"ĠAG":6309,"exc":6310,"Ġcognizing":6311,"whatever":6312,"Ġparticip":6313,"Ġphaenomenon":6314,"Ġpreliminary":6315,"ologia":6316,"Ġenounces":6317,"Ġenlarge":6318,"Ġenclosed":6319,"Ġcontrover":6320,"Ġdistance":6321,"Ġcalls":6322,"prob":6323,"Ġthinker":6324,"Ġprescribed":6325,"Ġgreatly":6326,"Ġentitle":6327,"Ġcogitates":6328,"Ġresistance":6329,"Ġadvancing":6330,"Ġpredicated":6331,"TITHESIS":6332,"arrang":6333,"Ġregressus":6334,"ĠIdealism":6335,"Ġneglect":6336,"cided":6337,"Ġmission":6338,"fault":6339,"Ġtreating":6340,"Ġconjoin":6341,"Ġoperating":6342,"Ġfri":6343,"Ġmomentum":6344,"product":6345,"Ġfurnishes":6346,"Ġabstracted":6347,"metaphysical":6348,"belongs":6349,"Ġsentiment":6350,"Ġpaying":6351,"Ġinseparable":6352,"Ġstruct":6353,"Ġdisplaying":6354,"Ġ178":6355,"Ġreveal":6356,"convin":6357,"Ġcitiz":6358,"Ġpropensity":6359,"ĠDIALEC":6360,"ĠÃĨsthetic":6361,"Ġsophism":6362,"_),":6363,"ipt":6364,"uary":6365,"Ġtitles":6366,"ones":6367,"ero":6368,"Ġsize":6369,"Ġelectr":6370,"Ġreaction":6371,"stone":6372,"Ġbetr":6373,"Ġhalf":6374,"Ġanim":6375,"decl":6376,"defect":6377,"Äłal":6378,"using":6379,"Ġtherefrom":6380,"cessity":6381,"Ġves":6382,"geometr":6383,"Ġimprovement":6384,"ĠFIRST":6385,"Ġfam":6386,"Ġserved":6387,"ÃĦÅĤs":6388,"Ġworking":6389,"ĠProlegomena":6390,"ĠMORAL":6391,"disp":6392,"Ġtotally":6393,"Ġruler":6394,"Ġspecially":6395,"Ġawaken":6396,"simply":6397,"Ġconvince":6398,"Ġinvolve":6399,"Ġdefinitely":6400,"appearances":6401,"Ġpursued":6402,"Ġrestrictions":6403,"freely":6404,"ĠSecond":6405,"Ġhistorical":6406,"Ġindubit":6407,"Ġobservance":6408,"pretensions":6409,"Ġnecessitated":6410,"Ġexecuted":6411,"fortunately":6412,"OGIC":6413,"Ġaccomplish":6414,"Ġhardly":6415,"Ġobey":6416,"ĠTrans":6417,"ĠAlthough":6418,"Ġmutual":6419,"Ġmovements":6420,"Ġrecommend":6421,"Ġprincipal":6422,"Ġcloser":6423,"Ġantinomies":6424,"ndeed":6425,"19":6426,"EG":6427,"SIC":6428,"aseless":6429,"gen":6430,"hon":6431,"land":6432,"sight":6433,"ym":6434,"heres":6435,"incre":6436,"Ġolog":6437,"receive":6438,"Ġfelt":6439,"Ġish":6440,"Ġdark":6441,"entia":6442,"Ġanx":6443,"Ġnote":6444,"ura":6445,"ibr":6446,"Äłas":6447,"ogic":6448,"hens":6449,"Ġunit":6450,"Ġsecurity":6451,"admitted":6452,"Ġimpose":6453,"Ġperplex":6454,"exposition":6455,"pont":6456,"Ġarose":6457,"herence":6458,"ĠNatural":6459,"amp":6460,"ĠCRITIQUE":6461,"ĠHuman":6462,"ĠRel":6463,"ĠRemark":6464,"Ġdistant":6465,"Ġcalling":6466,"ĠDAMAG":6467,"Ġremained":6468,"Ġreadable":6469,"Ġbelieved":6470,"Ġ35":6471,"belief":6472,"Ġstrictest":6473,"III":6474,"property":6475,"Ġletter":6476,"Ġsimilarity":6477,"interests":6478,"auung":6479,"logic":6480,"Ġcomprehends":6481,"likewise":6482,"specif":6483,"Ġsteps":6484,"Ġprobable":6485,"Ġtalk":6486,"Ġadmixture":6487,"examples":6488,"Ġtranscends":6489,"Ġmistaken":6490,"Whatever":6491,"Ġrenounce":6492,"generally":6493,"Ġfruitful":6494,"leads":6495,"ĠSECOND":6496,"ĠAntinomy":6497,"INCIPL":6498,"Ġmilit":6499,"Ġelectronically":6500,"ĠDAMAGES":6501,":âĢĶâĢľ":6502,"AD":6503,"Ca":6504,"First":6505,"ah":6506,"bal":6507,"cin":6508,"ipp":6509,"pire":6510,"infin":6511,"instead":6512,"rep":6513,"Ġine":6514,"Ġinability":6515,"Ġband":6516,"Ġfate":6517,"Ġissu":6518,"Ġrestr":6519,"otion":6520,"Ġhomogeneity":6521,"Ġlot":6522,"urb":6523,"Äłcom":6524,"Äłimp":6525,"three":6526,"ifferent":6527,"Ġdeceived":6528,"ĠTake":6529,"Ġcast":6530,"oft":6531,"Ġhear":6532,"Ġdoing":6533,"ours":6534,"Ġphrase":6535,"acqu":6536,"Ġentity":6537,"Ġthroughout":6538,"Ġinvisible":6539,"ĠLIM":6540,"Ġclue":6541,"Ġlogically":6542,"Ġdirecting":6543,"Ġedition":6544,"Ġeditions":6545,"Ġpassive":6546,"Ġaffection":6547,"Ġrendering":6548,"ANT":6549,"discus":6550,"Ġ40":6551,"Ġpretend":6552,"Ġintuiting":6553,"Ġlasting":6554,"Ġdeserving":6555,"Ġsufficiency":6556,"Ġultimately":6557,"Ġapparently":6558,"powerful":6559,"Ġcontribute":6560,"Ġdecis":6561,"Ġobstacle":6562,"Ġprotected":6563,"Ġattacks":6564,"Ġwidely":6565,"shown":6566,"Ġapproximate":6567,"ofessor":6568,"added":6569,"Ġpraise":6570,"Ġpropriety":6571,"oresaid":6572,"HYSIC":6573,"favour":6574,"Ġbetray":6575,"Leibnitz":6576,"PART":6577,"Please":6578,"Since":6579,"dle":6580,"fr":6581,"ock":6582,"rain":6583,"introdu":6584,"Ġound":6585,"erse":6586,"Ġct":6587,"Ġinex":6588,"Ġtook":6589,"annihil":6590,"impossibility":6591,"osp":6592,"jected":6593,"Ġsust":6594,"cient":6595,"Äłit":6596,"thorough":6597,"ogr":6598,"Ġprohib":6599,"igination":6600,"Ġcompr":6601,"Ġspurious":6602,"Ġheat":6603,"Ġtrying":6604,"Ġdeterminant":6605,"adm":6606,"Ġabide":6607,"cult":6608,"Ġdispens":6609,"Ġard":6610,"Ġarisen":6611,"beautiful":6612,"ĠSense":6613,"agon":6614,"previous":6615,"access":6616,"ilege":6617,"Ġcritic":6618,"ĠMichael":6619,"ultaneous":6620,"Ġimped":6621,"Ġlikely":6622,"Ġintelligences":6623,"Ġassist":6624,"evil":6625,"Ġconceivable":6626,"arrant":6627,"ĠĠĠĠĠĠĠĠĠĠĠĠĠĠĠĠĠĠĠĠĠĠĠĠĠĠ":6628,"Ġcontinually":6629,"Ġcopying":6630,"Ġlegislating":6631,"Ġmediating":6632,"Ġsurpr":6633,"Ġoccupy":6634,"Ġapproach":6635,"Ġintroducing":6636,"faculties":6637,"Ġcreating":6638,"considerations":6639,"Ġconcrete":6640,"ICT":6641,"Ġfilled":6642,"Ġdefici":6643,"corresponds":6644,"reflection":6645,"Ġestimated":6646,"Ġcontributes":6647,"Ġstrengthen":6648,"ĠDoctrine":6649,"Ġserviceable":6650,"Ġtransgression":6651,"combination":6652,"Ġdeeply":6653,"Ġdreams":6654,"Ġundertaking":6655,"schauung":6656,"ĠMethod":6657,"Ġarchitectonic":6658,"Ġguarantee":6659,"Ġgifts":6660,"Ġradical":6661,"destroy":6662,"Ġmultiplicity":6663,"Ġwidest":6664,"accompan":6665,"ĠLIMITED":6666,"IES":6667,"Not":6668,"POS":6669,"cosm":6670,"eous":6671,"rown":6672,"Ġtone":6673,"Ġay":6674,"Ġou":6675,"reckon":6676,"itation":6677,"erity":6678,"Ġportion":6679,"already":6680,"Ġtopic":6681,"oud":6682,"Ġep":6683,"Ġease":6684,"Ġexposing":6685,"urean":6686,"termed":6687,"active":6688,"actorily":6689,"Ġcame":6690,"allow":6691,"Ġconditional":6692,"Ġste":6693,"Ġstage":6694,"artes":6695,"Ġcognised":6696,"universe":6697,"opinion":6698,"Ġprecision":6699,"ĠCf":6700,"Ġserious":6701,"ritical":6702,"iversal":6703,"Ġenem":6704,"ÃĦÅĤin":6705,"Ġcorporeal":6706,"thereof":6707,"Ġstrike":6708,"Ġcontradicts":6709,"Ġreside":6710,"Ġconceiving":6711,"ĠConcl":6712,"Ġdistinguishes":6713,"contest":6714,"Ġboundary":6715,"APHYSIC":6716,"Ġdemonstrations":6717,"Ġinferring":6718,"Ġframed":6719,"ĠExistence":6720,"remo":6721,"Ġintroduction":6722,"CEP":6723,"Therefore":6724,"grounded":6725,"Ġacquire":6726,"statement":6727,"Ġaccident":6728,"observed":6729,"Produ":6730,"Ġsucceeded":6731,"Ġqualitative":6732,"Ġfulfilled":6733,"supply":6734,"Ġpromotion":6735,"Ġpatient":6736,"ĠNOT":6737,"rupted":6738,"Ġfeder":6739,"UDG":6740,"Ġembrace":6741,"ĠStoics":6742,"purposiveness":6743,"schema":6744,"Ġsensibly":6745,"Ġcomputer":6746,"apodeictic":6747,"Ġhumiliation":6748,"Ġforbids":6749,"Ġirresistible":6750,"ĠAGRE":6751,"INCIPLES":6752,"Ġdecisive":6753,"!\"":6754,"ITION":6755,"Kant":6756,"did":6757,"dated":6758,"giving":6759,"ng":6760,"Ãİ":6761,"Ġax":6762,"Ġod":6763,"itful":6764,"Ġsaw":6765,"Ġinsp":6766,"Ġburd":6767,"Ġthou":6768,"oric":6769,"seau":6770,"Ġretain":6771,"Ġduring":6772,"arp":6773,"Ġprime":6774,"theoretic":6775,"Ġlest":6776,"Ġweal":6777,"Äłem":6778,"Äłind":6779,"ush":6780,"umb":6781,"Ġvict":6782,"Ġseven":6783,"ĠBE":6784,"Ġuser":6785,"forth":6786,"teleological":6787,"finally":6788,"Ġrequest":6789,"Ġlimitative":6790,"Ġconnecting":6791,"acities":6792,"Ġrationalis":6793,"Ġvalu":6794,"Ġemploye":6795,"Ġrealized":6796,"avag":6797,"Ġacknowledge":6798,"Ġia":6799,"Ġnowhere":6800,"Ġdeducing":6801,"Ġsupplies":6802,"Ġphysiology":6803,"Ġmodest":6804,"Ġconfirmed":6805,"Ġideals":6806,"Ġsuperfluous":6807,"Ġaffects":6808,"*****":6809,"ĠAnalytical":6810,"shall":6811,"Ġinvolving":6812,"remain":6813,"Ġantecedently":6814,"Ġrestriction":6815,"presupposition":6816,"advance":6817,"Ġurged":6818,"ators":6819,"Ġpayments":6820,"distinguishable":6821,"Ġ2002":6822,"Ġspecified":6823,"Ġescap":6824,"Ġdisplayed":6825,"support":6826,"Ġpromoting":6827,"Ġcomplying":6828,"Ġcenturies":6829,"Ġweakness":6830,"icked":6831,"Ġaccomplished":6832,"Ġadduce":6833,"Ġconvincing":6834,"Ġhindrance":6835,"Ġdeprive":6836,"Without":6837,"ETAPHYSIC":6838,"Ġfictitious":6839,"ietary":6840,"Ġstruggle":6841,"ativum":6842,"utterly":6843,".âĢĶ":6844,"41":6845,"Ch":6846,"done":6847,"effort":6848,"moment":6849,"na":6850,"numer":6851,"said":6852,"spont":6853,"ton":6854,"text":6855,"Ġll":6856,"Ġied":6857,"Ġics":6858,"Ġeduc":6859,"heter":6860,"recogn":6861,"Ġsave":6862,"Ġpiece":6863,"ica":6864,"Ġinstances":6865,"Ġfight":6866,"Ġnihil":6867,"Ġect":6868,"oments":6869,"Ġlate":6870,"Ġlays":6871,"Ġweb":6872,"Ġgot":6873,"Äłmis":6874,"ĠIND":6875,"Ġunexpected":6876,"ideal":6877,"posit":6878,"antly":6879,"pirit":6880,"unknown":6881,"force":6882,"Ġleaving":6883,"Ġsubter":6884,"ĠIntrodu":6885,"process":6886,"assign":6887,"ĠMis":6888,"Ġinvent":6889,"Ġrefuse":6890,"tenance":6891,"Ġconcede":6892,"TIES":6893,"knowled":6894,"practically":6895,"Ġattempting":6896,"subjectively":6897,"Ġ45":6898,"Ġinquiring":6899,"attention":6900,"Ġdogmatically":6901,"Ġarbitrarily":6902,"Ġintroduced":6903,"Ġcareful":6904,"Ġ60":6905,"Ġinduce":6906,"Ġperforms":6907,"Ġobstacles":6908,"See":6909,"pretation":6910,"ĠMetaphysic":6911,"fortune":6912,"Ġheavy":6913,"Ġhinder":6914,"Ġaston":6915,"circum":6916,"Ġrepeated":6917,"embracing":6918,"Ġexcellent":6919,"ABILITY":6920,"bits":6921,"ran":6922,"uge":6923,"yllogism":6924,"onations":6925,"Ġtheories":6926,"encies":6927,"Ġpress":6928,"Ġinstrum":6929,"Ġbon":6930,"Ġmer":6931,"Ġrefin":6932,"asions":6933,"Ġexagger":6934,"istered":6935,"ander":6936,"Ġdead":6937,"away":6938,"Ġunits":6939,"transc":6940,"Ġrare":6941,"Ġspo":6942,"ousseau":6943,"Ġabyss":6944,"Ġperce":6945,"ĠASC":6946,"bell":6947,"Ġaccords":6948,"Ġplacing":6949,"Ġencour":6950,"serves":6951,"Ġseemingly":6952,"Ġobserving":6953,"ĠĠĠĠĠĠĠĠĠĠĠĠĠĠĠĠĠĠĠĠĠĠĠĠĠĠĠĠĠĠĠ":6954,"Ġmisunderstood":6955,"ivided":6956,"autonomy":6957,"Ġallows":6958,"Ġfalsehood":6959,"Ġjustification":6960,"justified":6961,"Ġevils":6962,"Ġdonate":6963,"constitutes":6964,"curing":6965,"consists":6966,"insight":6967,"guard":6968,"moreover":6969,"Ġdestroyed":6970,"Ġwritings":6971,"occasion":6972,"Ġexcite":6973,"Ġbeneficial":6974,"Ġcapacities":6975,"Ġsafely":6976,"Ġfitness":6977,"Ġdevoted":6978,"Analytic":6979,"consequence":6980,"Ġsacred":6981,"establish":6982,"Ġviolence":6983,"attribute":6984,"Ġanticipate":6985,"Ġprejudice":6986,"proportion":6987,"authority":6988,"answer":6989,"inquiry":6990,"Ġaccompanied":6991,"Ġcompels":6992,"ĠWARRANTY":6993,"Ġchildren":6994,"allel":6995,"cultiv":6996,"ĠASCII":6997,"Al":6998,"PRO":6999,"eBook":7000,"fold":7001,"li":7002,"merit":7003,"nis":7004,"Ġastr":7005,"rept":7006,"orld":7007,"Ġmass":7008,"Ġise":7009,"arce":7010,"arise":7011,"asm":7012,"Ġles":7013,"deutic":7014,"ibus":7015,"Ġsupposes":7016,"resh":7017,"ulsion":7018,"ĠThen":7019,"conceive":7020,"Ġunattainable":7021,"Ġsoever":7022,"arying":7023,"Ġship":7024,"ĠAfter":7025,"exception":7026,"ĠPsych":7027,"Ġdisgu":7028,"ĠSU":7029,"Ġspecul":7030,"Ġdescribed":7031,"ĠEND":7032,"Ġfinding":7033,"ĠReg":7034,"ĠMETAPHYSIC":7035,"Ġsensuously":7036,"Ġstrives":7037,"Ġadvances":7038,"Ġsatisfies":7039,"maj":7040,"Ġsuccessful":7041,"ĠSub":7042,"ĠJUDG":7043,"Ġmisconception":7044,"dequacy":7045,"extensive":7046,"impenetrability":7047,"productive":7048,"Ġacquaint":7049,"Ġflu":7050,"Ġdispense":7051,"Ġfailed":7052,"Ġsentence":7053,"Ġcrude":7054,"Before":7055,"Ġestimating":7056,"Ġmistakes":7057,"Suppose":7058,"Ġbehalf":7059,"Ġmeritorious":7060,"Ġgradual":7061,"operation":7062,"Ġprepared":7063,"Ġfruitless":7064,"Ġimpartial":7065,"Ġpenetrate":7066,"ĠVIII":7067,"absurd":7068,"Ġanthropomorph":7069,"Ġunbounded":7070,"indispensable":7071,"Imagination":7072,"ĠMathematics":7073,"Ġaforesaid":7074,"telligence":7075,"enevolence":7076,"METH":7077,"Em":7078,"Nevertheless":7079,"_).":7080,"mber":7081,"Ġically":7082,"hel":7083,"ino":7084,"isc":7085,"Ġinconsistency":7086,"ctory":7087,"Ġelective":7088,"ley":7089,"Ġreferences":7090,"det":7091,"ciated":7092,"Äłi":7093,"Äłqu":7094,"Äłpl":7095,"Äłsp":7096,"Äłdes":7097,"ogant":7098,"ifference":7099,"ulation":7100,"iles":7101,"uss":7102,"ender":7103,"igious":7104,"Ġcomposed":7105,"Ġved":7106,"Ġsevere":7107,"Ġemail":7108,"Ġembarrass":7109,"Ġtruly":7110,"Ġjur":7111,"Ġsynon":7112,"unciation":7113,"Ġaround":7114,"Ġarms":7115,"ĠOther":7116,"Ġfacil":7117,"Ġgeneration":7118,"derived":7119,"Ġsimpl":7120,"ĠLOGIC":7121,"Ġconsistency":7122,"Ġcontented":7123,"Ġstanding":7124,"Ġworthiness":7125,"Ġ22":7126,"Ġscarce":7127,"Ġcorrespondence":7128,"Ġsignify":7129,"aneity":7130,"Ġexpectations":7131,"Ġdenies":7132,"Ġdenomin":7133,"Ġunde":7134,"Ġcombine":7135,"Ġyourself":7136,"Ġendeavoured":7137,"ocation":7138,"Ġanalysing":7139,"pensably":7140,"Ġthoroughness":7141,"Ġleading":7142,"Ġobtains":7143,"Ġsurpass":7144,"Ġdelusive":7145,"compelled":7146,"Ġabstracto":7147,"ĠÃ¢Ä¢Ä":7148,"separate":7149,"Ġmanifestations":7150,"Ġcounsel":7151,"avoidably":7152,"ausible":7153,"Ġmeets":7154,"Ġfilling":7155,"occur":7156,"Ġfancies":7157,"observ":7158,"attained":7159,"Ġsentiments":7160,"Ġdetected":7161,"Ġdecides":7162,"Ġincreased":7163,"Ġpunct":7164,"Ġ2001":7165,"transition":7166,"TRIB":7167,"Ġimitation":7168,"Ġimitated":7169,"Ġesteemed":7170,"anthropomorph":7171,"Ġalteration":7172,"OLOGY":7173,"unconditional":7174,"Ġdimensions":7175,"Ġprinted":7176,"Metaphysic":7177,"Ġexertions":7178,"habit":7179,"Ġincompetent":7180,"Ġissue":7181,"ĠRegulative":7182,"METHOD":7183,"):":7184,".;":7185,"._,":7186,"General":7187,"UAL":7188,"day":7189,"hn":7190,"had":7191,"hip":7192,"liberty":7193,"rung":7194,"spr":7195,"test":7196,"Ġious":7197,"isk":7198,"enjoy":7199,"atch":7200,"Ġci":7201,"Ġcens":7202,"Ġsw":7203,"Ġsav":7204,"Ġmal":7205,"Ġprag":7206,"Ġlosing":7207,"irable":7208,"Äłj":7209,"ĠIndeed":7210,"perceive":7211,"chain":7212,"empiricism":7213,"illion":7214,"Ġcoming":7215,"tries":7216,"adow":7217,"Ġuses":7218,"unable":7219,"Ġdissatisfaction":7220,"Ġrepresentative":7221,"oping":7222,"precept":7223,"ĠCan":7224,"ĠCogn":7225,"ignor":7226,"roken":7227,"ĠEnd":7228,"overn":7229,"ĠMon":7230,"Ġrefuted":7231,"Ġhands":7232,"Ġresting":7233,"Ġdiverse":7234,"Ġip":7235,"Ġconcluding":7236,"represented":7237,"knows":7238,"mail":7239,"aims":7240,"Ġimages":7241,"fair":7242,"requis":7243,"accordingly":7244,"Ġjustifies":7245,"Ġnegatively":7246,"Ġorganization":7247,"Ġlastly":7248,"ifices":7249,"properties":7250,"confirm":7251,"sensations":7252,"Ġproblematically":7253,"Ġdominion":7254,"statements":7255,"Ġprevented":7256,"Ġfills":7257,"Princi":7258,"Ġexcites":7259,"Ġmistake":7260,"ĠMoral":7261,"Ġpolitics":7262,"difficulty":7263,"Ġtransgress":7264,"Ġprimarily":7265,"Ġvisual":7266,"Ġridicul":7267,"ĠPRINCIPLES":7268,"Ġexercises":7269,"unconditionally":7270,"noumena":7271,"Ġarchetype":7272,"Ġdetailed":7273,"States":7274,"Ġmundus":7275,"harmony":7276,"experiences":7277,"infinity":7278,"METHODOLOGY":7279,"42":7280,"HT":7281,"IG":7282,"Mat":7283,"You":7284,"bonum":7285,"creat":7286,"dialectic":7287,"founded":7288,"http":7289,"last":7290,"little":7291,"making":7292,"mixed":7293,"net":7294,"oe":7295,"ration":7296,"sk":7297,"van":7298,"war":7299,"writ":7300,"yield":7301,"ĉĉ":7302,"Ġrom":7303,"Ġute":7304,"infinitum":7305,"Ġoun":7306,"Ġtheore":7307,"enough":7308,"erke":7309,"Ġpolem":7310,"Ġincor":7311,"Ġmar":7312,"Ġmaster":7313,"Ġition":7314,"Ġredistrib":7315,"arium":7316,"Ġlo":7317,"Ġlow":7318,"Ġweaken":7319,"Äłthe":7320,"Äłint":7321,"ĠIll":7322,"version":7323,"ogmat":7324,"concre":7325,"conjunction":7326,"Ġarena":7327,"Ġalike":7328,"illa":7329,"udence":7330,"Ġdeterminative":7331,"Ġconditionally":7332,"ĠFundamental":7333,"ĠFinally":7334,"ĠApperception":7335,"poned":7336,"ponent":7337,"soon":7338,"Ġpartial":7339,"prevent":7340,"duc":7341,"ĠWorld":7342,"composite":7343,"Ġdespot":7344,"Ġcontrol":7345,"ĠRational":7346,"ĠRoyal":7347,"Ġdistress":7348,"Ġended":7349,"ĠDIV":7350,"Ġattitude":7351,"Ġrealize":7352,"Ġfacts":7353,"Ġquanta":7354,"Ġsatisfactorily":7355,"Ġmathematicians":7356,"Ġdiscoverable":7357,"Ġdegr":7358,"Ġneeded":7359,"Ġespecial":7360,"Ġguiding":7361,"ĠPrint":7362,"REA":7363,"Ġceasing":7364,"Ġadding":7365,"Ġharmonious":7366,"Ġvolunt":7367,"irdly":7368,"preser":7369,"ĠVol":7370,"Ġdecline":7371,"produces":7372,"ĠImpossibility":7373,"Ġputting":7374,"Ġconstructing":7375,"Ġcreator":7376,"Ġfigur":7377,"satisfied":7378,"Ġaccepting":7379,"Ġcomprehended":7380,"guidance":7381,"Ġsecurely":7382,"realization":7383,"greatest":7384,"Ġascent":7385,"ĠĠĠĠĠĠĠĠĠĠĠĠĠĠĠĠĠĠĠĠĠĠĠĠĠĠĠĠĠĠĠĠĠĠĠĠĠĠĠĠĠĠĠĠĠĠĠĠĠĠ":7386,"ĠLogical":7387,"IRD":7388,"Ġsubsists":7389,"precedes":7390,"Ġhopes":7391,"Ġobeying":7392,"Ġfallacies":7393,"ACTICAL":7394,"Ġmutually":7395,"ĠPRACTICAL":7396,"Ġdestructive":7397,"occupied":7398,"Ġhyperphysical":7399,"Ġfederation":7400,"Ġfictions":7401,"inquiries":7402,"Ġnearly":7403,"Ġnumerous":7404,"Ġambiguity":7405,"ĠAmong":7406,"donate":7407,"Ġuprightness":7408,"rogative":7409,"Ã¦deutic":7410,"aggregate":7411,"inseparably":7412,"Ġcontroversy":7413,"Ġstructure":7414,"ĠDIALECTIC":7415,"Ġsophisms":7416,"ĠJUDGEMENT":7417,"Ġscarcely":7418,"Ġpolemic":7419,"HIL":7420,"IX":7421,"PEND":7422,"Sp":7423,"bation":7424,"fal":7425,"fici":7426,"judge":7427,"mer":7428,"magn":7429,"tered":7430,"Ġible":7431,"inently":7432,"revol":7433,"atible":7434,"erms":7435,"Ġwicked":7436,"Ġced":7437,"Ġcustom":7438,"Ġpet":7439,"Ġpage":7440,"Ġparent":7441,"icate":7442,"Ġbar":7443,"Ġdry":7444,"assume":7445,"Ġexhaust":7446,"Ġwear":7447,"ÄłJ":7448,"Äłfor":7449,"Äłgr":7450,"actually":7451,"Ġunsuccess":7452,"Ġunites":7453,"Ġunavoidably":7454,"Ġrig":7455,"Ġseld":7456,"ards":7457,"Ġjud":7458,"Ġstake":7459,"Ġregistered":7460,"Ġconsult":7461,"becomes":7462,"ĠSen":7463,"tel":7464,"ĠRousseau":7465,"keep":7466,"Ġyoung":7467,"Ġexpenses":7468,"avity":7469,"Ġsatisfying":7470,"Ġestablishing":7471,"Ġanalyse":7472,"Ġremarked":7473,"distinct":7474,"Ġlooks":7475,"Ġoblige":7476,"RECT":7477,"Ġwars":7478,"whereas":7479,"Ġparadox":7480,"Ġdemanded":7481,"IND":7482,"ISION":7483,"attack":7484,"Ġcreations":7485,"THER":7486,"Ġcarried":7487,"Ġplainly":7488,"Ġarrangements":7489,"express":7490,"Ġdiscussed":7491,"Ġperforming":7492,"Ġsafety":7493,"attempts":7494,"Ġteaching":7495,"Ġcurrent":7496,"Ġundertaken":7497,"Ġexercised":7498,"BLE":7499,"ĠQuant":7500,"Ġgrowth":7501,"counter":7502,"Ġcredit":7503,"Ġgratification":7504,"ĠPossible":7505,"Ġmachine":7506,"ogram":7507,"Ġprohibition":7508,"Ġburden":7509,"Ġsubterf":7510,"ĠDIVISION":7511,"HILOS":7512,"Both":7513,"FL":7514,"MP":7515,"Object":7516,"Some":7517,"ban":7518,"dict":7519,"giver":7520,"joined":7521,"lain":7522,"lable":7523,"lie":7524,"mical":7525,"pat":7526,"popular":7527,"slet":7528,"uent":7529,"vi":7530,"vention":7531,"het":7532,"Ġapt":7533,"Ġpol":7534,"altogether":7535,"Ġmoun":7536,"Ġments":7537,"anilla":7538,"Ġnational":7539,"Ġlively":7540,"dependent":7541,"ibilis":7542,"ciences":7543,"Ġwithdraw":7544,"Äłent":7545,"perform":7546,"ili":7547,"ilt":7548,"iliar":7549,"Ġuniting":7550,"Ġunpleasant":7551,"Ġvision":7552,"Ġundertake":7553,"ĠBREA":7554,"Ġtrou":7555,"phib":7556,"piric":7557,"Ġreluct":7558,"Ġreligious":7559,"Ġconsent":7560,"etween":7561,"ĠOne":7562,"ĠNeither":7563,"eless":7564,"Ġcontradistinction":7565,"Ġowns":7566,"Ġposit":7567,"ĠDonations":7568,"ĠMen":7569,"Ġrespon":7570,"controver":7571,"TIN":7572,"Ġaffair":7573,"Ġinvestigated":7574,"Ġexplains":7575,"Ġdepending":7576,"obs":7577,"Ġfallen":7578,"extend":7579,"Ġinsist":7580,"Ġdemanding":7581,"Ġthoroughgoing":7582,"Ġkept":7583,"belie":7584,"Ġrecognised":7585,"Ġindividuals":7586,"Ġprofit":7587,"Ġputs":7588,"Ġseparation":7589,"Ġirrational":7590,"Ġconflicts":7591,"conceivable":7592,"claims":7593,"Ġdiscussing":7594,"ierre":7595,"Anschauung":7596,"legislative":7597,"provided":7598,"Ġspecification":7599,"Ġpersuade":7600,"Ġprosper":7601,"cription":7602,"Ġcentury":7603,"Ġcomplain":7604,"conviction":7605,"Ġdepartment":7606,"Ġinherent":7607,"changes":7608,"Ġaccompanies":7609,"Ġratiocin":7610,"Ġteachers":7611,"ĠProblem":7612,"Ġoverlooked":7613,"Ġbinding":7614,"ĠMORALS":7615,"Ġology":7616,"Ġdispensed":7617,"Ġfederal":7618,"Ġseldom":7619,"Ġsubterfuge":7620,"ĠBREACH":7621,"At":7622,"Act":7623,"acious":7624,"bre":7625,"fund":7626,"field":7627,"itory":7628,"atir":7629,"Ġcut":7630,"Ġsan":7631,"Ġpot":7632,"icated":7633,"Ġbenevolence":7634,"Ġmus":7635,"ctible":7636,"Ġdi":7637,"Ġbeg":7638,"entity":7639,"Ġhost":7640,"Ġwealth":7641,"Ġsuit":7642,"ÄłU":7643,"Äłis":7644,"Äłel":7645,"Äłcomp":7646,"connexion":7647,"Ġvisible":7648,"ounds":7649,"profess":7650,"antinomy":7651,"ĠAR":7652,"ĠPierre":7653,"Ġappell":7654,"Ġsubjection":7655,"Ġdisapp":7656,"Ġdissection":7657,"redit":7658,"close":7659,"final":7660,"Ġowing":7661,"Ġago":7662,"Ġages":7663,"ĠEach":7664,"ÃĦÅĤf":7665,"ĠDetermin":7666,"Ġviewing":7667,"Ġconceit":7668,"Ġelucid":7669,"Ġderives":7670,"Ġstandpoint":7671,"monstrable":7672,"miss":7673,"misunderstanding":7674,"Ġmodification":7675,"Ġimagin":7676,"Ġmiss":7677,"ĠĠĠĠĠĠĠĠĠĠĠĠĠĠĠĠĠĠĠĠĠĠĠĠĠĠĠĠĠĠĠĠĠĠĠĠĠĠĠĠĠĠ":7678,"Ġdesigns":7679,"legitimate":7680,"ĠUniversal":7681,"Ġstrictness":7682,"ESS":7683,"ipse":7684,"physics":7685,"compared":7686,"ĠÃĥ":7687,"Ġpursuing":7688,"archy":7689,"Ġintroduces":7690,"Ġsooner":7691,"Ġmanifests":7692,"augh":7693,"presuppose":7694,"Ġreport":7695,"Ġ80":7696,"lightened":7697,"Ġremoving":7698,"Why":7699,"Ġbenefic":7700,"petually":7701,"Ġoccurred":7702,"Ġprotect":7703,"judging":7704,"Ġenlarged":7705,"Ġbooks":7706,"sufficiently":7707,"Ġobviously":7708,"Ġforbidden":7709,"Ġzero":7710,"methods":7711,"Ġsuperiority":7712,"arbitrary":7713,"Ġdivisions":7714,"affected":7715,"Ġdamages":7716,"Ġextremely":7717,"Ġdiminish":7718,"ĠPossibility":7719,"ĠGerman":7720,"accident":7721,"Ġinfallibly":7722,"Ġfatal":7723,"Ġacquaintance":7724,"Ġunsuccessful":7725,"HILOSOP":7726,"71":7727,"OF":7728,"divided":7729,"ego":7730,"fan":7731,"function":7732,"iant":7733,"lines":7734,"pun":7735,"ror":7736,"ries":7737,"tow":7738,"wit":7739,"ĠÄ":7740,"Ġently":7741,"Ġ--":7742,"Ġtaut":7743,"held":7744,"intr":7745,"Ġore":7746,"itates":7747,"iss":7748,"isition":7749,"enable":7750,"encing":7751,"atalog":7752,"Ġces":7753,"Ġction":7754,"Ġsedu":7755,"Ġsalt":7756,"Ġpp":7757,"Ġpt":7758,"Ġinsufficiency":7759,"Ġinhering":7760,"anqu":7761,"ouch":7762,"Ġdas":7763,"Ġdwell":7764,"ithme":7765,"Ġweapons":7766,"Äłme":7767,"Äłstr":7768,"Äłam":7769,"Äłrel":7770,"ĠID":7771,"ĠIF":7772,"quality":7773,"permanence":7774,"Ġprolong":7775,"Ġunfortunately":7776,"Ġric":7777,"Ġselect":7778,"Ġsecuring":7779,"Ġdeterminability":7780,"suasion":7781,"ades":7782,"Ġsty":7783,"Ġshadow":7784,"ĠAL":7785,"ĠAct":7786,"Ġquo":7787,"Ġquit":7788,"fort":7789,"Ġlevel":7790,"intention":7791,"Ġsubsume":7792,"ĠWolf":7793,"ilosophical":7794,"ishments":7795,"fects":7796,"Ġexpense":7797,"Ġlogicians":7798,"Ġrealities":7799,"Ġ[_":7800,"Ġoriginates":7801,"Ġhereafter":7802,"avail":7803,"ĠUSE":7804,"undetermined":7805,"relatively":7806,"Ġelevation":7807,"Ġseeming":7808,"Ġlegality":7809,"Ġmoderation":7810,"granted":7811,"Ġcontingently":7812,"party":7813,"ĠSubject":7814,"Ġpassages":7815,"Ġprevents":7816,"Ġdemonstrating":7817,"Ġdistinctions":7818,"Ġtransitory":7819,"happy":7820,"Ġrequisites":7821,"impressions":7822,"Ġdistinguishable":7823,"Ġdelight":7824,"Ġhelps":7825,"Ġcollected":7826,"Ġdownlo":7827,"possession":7828,"ÄłCon":7829,"Ġgladly":7830,"investigations":7831,"Practical":7832,"Ġdetach":7833,"Ġperformed":7834,"Ġcontributions":7835,"Ġdeciding":7836,"proceeds":7837,"Ġsuggested":7838,"Ġpersuaded":7839,"Ġextravag":7840,"Ġpattern":7841,"Ġillustrate":7842,"Ġinfring":7843,"Ġprejudicial":7844,"Ġliability":7845,"Ġ199":7846,"error":7847,"Ġresolve":7848,"semble":7849,"ulgence":7850,"suspic":7851,"Ġreconciled":7852,"sophistical":7853,"Ġfairly":7854,"Ġstrikes":7855,"convinced":7856,"ymous":7857,"Ġenemy":7858,"20":7859,"40":7860,"?âĢĶ":7861,"Hume":7862,"Respect":7863,"Small":7864,"bene":7865,"bered":7866,"future":7867,"gn":7868,"lier":7869,"sent":7870,"tent":7871,"varying":7872,"ware":7873,"Ã¢Ä¢Ä":7874,"Ġight":7875,"ina":7876,"rew":7877,"receptivity":7878,"itim":7879,"Ġcount":7880,"Ġsem":7881,"Ġthrow":7882,"Ġtol":7883,"Ġreply":7884,"Ġrevel":7885,"Ġreserve":7886,"Ġdoubted":7887,"dependence":7888,"Äłor":7889,"ÄłIn":7890,"third":7891,"Ġory":7892,"Ġorigination":7893,"Ġmel":7894,"permitted":7895,"Ġdeceive":7896,"pping":7897,"chief":7898,"acts":7899,"hensibility":7900,"Ġuncertainty":7901,"often":7902,"ousand":7903,"Ġvital":7904,"stands":7905,"ometer":7906,"presents":7907,"Ġye":7908,"Ġdisinterested":7909,"ictions":7910,"teaches":7911,"amples":7912,"precisely":7913,"matic":7914,"Ġgross":7915,"Ġgroping":7916,"izable":7917,"Ġdiffers":7918,"Ġfeet":7919,"ĠEle":7920,"Ġcategorically":7921,"Ġprescribing":7922,"elling":7923,"Ġrealizing":7924,"Ġsimultaneous":7925,"Ġ100":7926,"reasons":7927,"cognitive":7928,"ĠUND":7929,"Ġio":7930,"Ġress":7931,"Ġmathematician":7932,"Ġlegally":7933,"Ġdefines":7934,"Ġinvestigating":7935,"Ġbodily":7936,"Ġasserts":7937,"Ġsouls":7938,"completed":7939,"Ġconducts":7940,"desires":7941,"Ġcircul":7942,"discursive":7943,"Ġparallel":7944,"Ġadvantageous":7945,"Äłco":7946,"Ġchooses":7947,"Ġearlier":7948,"Ġexactness":7949,"Ġspeaks":7950,"Ġsuppositions":7951,"volition":7952,"Ġacquisition":7953,"Ġ64":7954,"veloped":7955,"Ġadopting":7956,"Ġomnis":7957,"demonstrated":7958,"theoretically":7959,"Ġearths":7960,"Ġcry":7961,"Ġcrime":7962,"motives":7963,"feelings":7964,"Ġobservable":7965,"postulates":7966,"indicates":7967,"Ġprofessed":7968,"assertion":7969,"problems":7970,"hypothetical":7971,"Ġconfirms":7972,"Ġreveals":7973,"combined":7974,"Ġapprehended":7975,"Ġchimera":7976,"Ġchimeras":7977,"Ġfulfilment":7978,"ÃĦÅĤÃĦÅĤÃĦÅĤÃĦÅĤÃĦÅĤÃĦÅĤÃĦÅĤÃĦÅĤ":7979,"Ġunceasingly":7980,"Ġcommunicated":7981,"obtained":7982,"Ġfooting":7983,"Ġcourage":7984,"Ġarchetyp":7985,"Ġcommercial":7986,"Ġappropriate":7987,"Ġdeclaration":7988,"Ġwaver":7989,"formula":7990,"Ġannexed":7991,"concreto":7992,"magnitude":7993,"Ġprosperity":7994,"Ġstyle":7995,"YTIC":7996,"_âĢĶ":7997,"cendent":7998,"certitude":7999,"duties":8000,"ey":8001,"ips":8002,"ltimate":8003,"nest":8004,"rs":8005,"sort":8006,"taken":8007,"uc":8008,"uum":8009,"void":8010,"insufficient":8011,"Ġomitted":8012,"Ġcertitude":8013,"Ġcatalog":8014,"Ġsal":8015,"almost":8016,"Ġbes":8017,"orrow":8018,"Ġfire":8019,"edistrib":8020,"Ġite":8021,"Ġities":8022,"Ġrelease":8023,"Ġdatum":8024,"otes":8025,"Ġlime":8026,"Ġlives":8027,"cium":8028,"ÄłV":8029,"Äłer":8030,"Äłac":8031,"Äłund":8032,"vert":8033,"verted":8034,"ogistic":8035,"Ġort":8036,"Ġdeed":8037,"conflict":8038,"triangle":8039,"Ġrisk":8040,"prof":8041,"primitive":8042,"Ġpersist":8043,"orial":8044,"mental":8045,"ordination":8046,"Ġquick":8047,"ĠPHILOSOP":8048,"),âĢĿ":8049,"Ġarm":8050,"strained":8051,"agogic":8052,"Ġsubdivision":8053,"Ġprecise":8054,"Ġprerogative":8055,"Ġspecious":8056,"ĠInstead":8057,"coming":8058,"ÃĦÅĤre":8059,"Ġamid":8060,"objections":8061,"Ġrealm":8062,"Ġpossessions":8063,"Ġimpression":8064,"ĠUltimate":8065,"Ġinclined":8066,"princip":8067,"therein":8068,"Ġcompares":8069,"Ġapagogic":8070,"evidence":8071,"Ġconsisting":8072,"Ġfinality":8073,"Ġeleg":8074,"Ġarrives":8075,"lawful":8076,"ignific":8077,"Ġmodi":8078,"particip":8079,"Ġasserting":8080,"Ġattributing":8081,"Ġpostponed":8082,"Äłsur":8083,"Ġprogressus":8084,"Ġfalling":8085,"ANTITHESIS":8086,"Ġ52":8087,"Ġtransfer":8088,"Ġtransformed":8089,"Ġdesignation":8090,"Ġaffirmations":8091,"ĠArgum":8092,"discern":8093,"Ġpretension":8094,"Ġabsent":8095,"Ġdeclaring":8096,"Ġsurv":8097,"Ġoffender":8098,"ordinary":8099,"ĠExcept":8100,"ĠObjective":8101,"Ġcarries":8102,"Ġrestricting":8103,"Ġrestrictive":8104,"quantities":8105,"Ġcountries":8106,"confess":8107,"Ġconvers":8108,"ĠAND":8109,"Ġaccession":8110,"ouncement":8111,"discoverable":8112,"Ġhumbles":8113,"proceeding":8114,"Ġincreasing":8115,"Ġdiscerned":8116,"Ġantithetic":8117,"Ġnecessitation":8118,"Ġpromotive":8119,"ĠMorals":8120,"ĠWho":8121,"obliged":8122,"signific":8123,"Ġillustration":8124,"ĠEpicurean":8125,"requirements":8126,"words":8127,"Ġpenetration":8128,"Ġdiminished":8129,"analogy":8130,"ĠStoic":8131,"reciprocal":8132,"Archive":8133,"noumenon":8134,"demanded":8135,"Ġmiddle":8136,"ĠAbb":8137,"Ġdeclarations":8138,"practicable":8139,"Ġrashly":8140,"Ġelaboration":8141,"divisibility":8142,"Ġomnipotent":8143,"OREM":8144,"Ġbranches":8145,"Ġdescending":8146,"ĠRelation":8147,"discussion":8148,"Ġaxis":8149,"inoz":8150,"TRIBUT":8151,"Mathemat":8152,"phiboly":8153,"Ġsaltus":8154,"Ġquoad":8155,"suspicion":8156,"Author":8157,"Finally":8158,"Is":8159,"Remark":8160,"].":8161,"aments":8162,"ech":8163,"ns":8164,"oes":8165,"put":8166,"Ġial":8167,"Ġice":8168,"inc":8169,"Ġpages":8170,"Ġthrown":8171,"Ġmoments":8172,"Ġfiles":8173,"analy":8174,"anuary":8175,"Ġised":8176,"Ġists":8177,"Ġreaches":8178,"ste":8179,"asp":8180,"Ġhit":8181,"imony":8182,"Äłwe":8183,"Ġproject":8184,"chie":8185,"ored":8186,"usi":8187,"usality":8188,"emin":8189,"Ġthereon":8190,"Ġhearing":8191,"priv":8192,"indu":8193,"Ġsharp":8194,"ĠPar":8195,"ĠPER":8196,"ponder":8197,"Ġgrate":8198,"Ġserving":8199,"reator":8200,"Ġcontest":8201,"Ġdesirable":8202,"Ġending":8203,"ĠEN":8204,"ĠEV":8205,"ĠEthics":8206,"Ġbelonged":8207,"ÃĦÅĤc":8208,"having":8209,"Ġoutset":8210,"Ġents":8211,"Ġattaching":8212,"ĠUT":8213,"Ġconsistently":8214,"Ġattainable":8215,"ĠTHAT":8216,"Ġantiqu":8217,"Ġreading":8218,"ĠProfessor":8219,"Ġmaterialism":8220,"Ġmislead":8221,"Ġaffections":8222,"Ġcept":8223,"Ġfals":8224,"morals":8225,"Ġauthors":8226,"Ġcomparatively":8227,"Ġsurvey":8228,"attered":8229,"Ġexclusion":8230,"Äłfr":8231,"esthetic":8232,"Ġdesert":8233,"Ġgains":8234,"ĠChar":8235,"Ġreflecting":8236,"Ġimplanted":8237,"xioms":8238,"Ġfitting":8239,"Ġpopularity":8240,"Ġbuilt":8241,"Ġsupplying":8242,"Ġcalm":8243,"coinci":8244,"exerc":8245,"Ġreverence":8246,"Ġattract":8247,"Ġquarrel":8248,"comparison":8249,"Ġreviewer":8250,"Ġcoincide":8251,"Ġdeliberate":8252,"Produced":8253,"ĠPsychology":8254,"ĠUNDER":8255,",âĢĶ":8256,"43":8257,"Mor":8258,"NITY":8259,"Plain":8260,"Sy":8261,"VI":8262,"authoriz":8263,"dest":8264,"danger":8265,"ew":8266,"fixed":8267,"Ġ'":8268,"Ġting":8269,"Ġace":8270,"inner":8271,"Ġose":8272,"reconci":8273,"referred":8274,"ateness":8275,"Ġcrib":8276,"Ġsine":8277,"Ġsmo":8278,"Ġincap":8279,"Ġinjustice":8280,"Ġthread":8281,"Ġming":8282,"Ġfer":8283,"Ġecon":8284,"lement":8285,"Ġited":8286,"Ġresolution":8287,"Ġresearch":8288,"Ġdrop":8289,"streng":8290,"Ġbeha":8291,"Äłres":8292,"ĠTerms":8293,"usual":8294,"abandon":8295,"plain":8296,"Ġsensual":8297,"ads":8298,"Ġpertaining":8299,"Ġexperienced":8300,"ĠFUL":8301,"ĠPG":8302,"ĠPers":8303,"ĠPost":8304,"Ġappeared":8305,"Ġadmin":8306,"too":8307,"Ġartic":8308,"etition":8309,"elve":8310,"Ġspeech":8311,"ĠCritical":8312,"ĠRedistrib":8313,"Ġagreed":8314,"ÃĦÅĤm":8315,"ÃĦÅĤde":8316,"Ġthinkable":8317,"Ġtern":8318,"Ġtermin":8319,"ĠMod":8320,"ĠMany":8321,"Ġimpelled":8322,"Ġhereby":8323,"Ġshallow":8324,"ĠLIC":8325,"ERAL":8326,"ENSE":8327,"Ġoccasions":8328,"substant":8329,"Ġdiscovers":8330,"Ġneedful":8331,"Ġguided":8332,"ĠĠĠĠĠĠĠĠĠĠĠĠĠĠĠĠĠĠĠĠĠĠĠĠĠĠĠĠ":8333,"ĠSuppose":8334,"ĠJanuary":8335,"doctr":8336,"morally":8337,"Ġassumptions":8338,"ontological":8339,"Ġinscr":8340,"presence":8341,"presum":8342,"impul":8343,"ĠState":8344,"Ġraising":8345,"Ġcollective":8346,"kinds":8347,"ruption":8348,"Ġconvert":8349,"Ġreaching":8350,"conformably":8351,"Ġabsurdity":8352,"reface":8353,"subsisting":8354,"Ġangle":8355,"Ġreceipt":8356,"Ġcommunication":8357,"Ġextra":8358,"transg":8359,"Ġconfession":8360,"Ġvisit":8361,"Ġrejected":8362,"assumption":8363,"Ġrecommended":8364,"Ġformats":8365,"Ġdisclaimer":8366,"copyright":8367,"changed":8368,"UDING":8369,"Ġdeceitful":8370,"Ġinvalidity":8371,"Ġpreparation":8372,"ĠDISTRIBUT":8373,"Ġvague":8374,"Ġparticipation":8375,"reckoned":8376,"ĠAGREE":8377,"Ġvictory":8378,"Ġemployees":8379,"Empirical":8380,"Ġsaved":8381,"Ġridiculous":8382,"ĠRoyalty":8383,"viour":8384,"ĠFULL":8385,"ĠLICENSE":8386,"Ġinscrutable":8387,"29":8388,"39":8389,"75":8390,"Again":8391,"FIRST":8392,"OB":8393,"UM":8394,"_[":8395,"cit":8396,"hum":8397,"husi":8398,"iations":8399,"license":8400,"mem":8401,"pite":8402,"pone":8403,"ss":8404,"ta":8405,"vable":8406,"your":8407,"Ġution":8408,"Ġtemper":8409,"Ġaught":8410,"onical":8411,"incapable":8412,"incomprehensible":8413,"Ġoffered":8414,"isy":8415,"ister":8416,"enge":8417,"Ġwings":8418,"Ġcold":8419,"Ġpon":8420,"Ġincontest":8421,"Ġble":8422,"esis":8423,"Ġmixture":8424,"ann":8425,"Ġreception":8426,"Ġrecognition":8427,"Ġrestraint":8428,"Ġdread":8429,"Ġhor":8430,"llogistic":8431,"Ġual":8432,"imb":8433,"impl":8434,"Ġanc":8435,"Ġlangu":8436,"Äłir":8437,"ĠIS":8438,"ĠIX":8439,"versely":8440,"istory":8441,"Ġnet":8442,"illiant":8443,"Ġunconscious":8444,"Ġlawless":8445,"Ġrises":8446,"Ġrob":8447,"Ġrising":8448,"notwithstanding":8449,"ĠBOOK":8450,"gebr":8451,"prot":8452,"prudence":8453,"indifferent":8454,"Ġstopp":8455,"ĠAS":8456,"ourth":8457,"ĠPART":8458,"Ġadvers":8459,"Ġargu":8460,"Ġleap":8461,"ĠSc":8462,"ĠThought":8463,"opyright":8464,"ĠOp":8465,"solved":8466,"preted":8467,"Ġcontents":8468,"Ġgold":8469,"Ġfirstly":8470,"Ġremed":8471,"ĠER":8472,"ÃĦÅĤp":8473,"Ġindivid":8474,"Ġterrit":8475,"ouncing":8476,"ĠDate":8477,"ĠDogmat":8478,"Ġinviol":8479,"undity":8480,"event":8481,"Ġii":8482,"Ġpleasing":8483,"Ġconcludes":8484,"Ġmathematically":8485,"Ġ21":8486,"ĠĠĠĠĠĠĠĠĠĠĠĠĠĠĠĠĠĠĠĠĠĠĠĠĠ":8487,"Ġscattered":8488,"partly":8489,"speaking":8490,"Ġcoal":8491,"Ġcontinual":8492,"Ġvariance":8493,"Äłinter":8494,"hapsod":8495,"corrupt":8496,"Ġintellect":8497,"Ġ55":8498,"INTRODUCTION":8499,"Äłrep":8500,"Ġblamed":8501,"Ġcontinues":8502,"ificent":8503,"ificial":8504,"Ġ95":8505,"myst":8506,"Ġtestimony":8507,"containing":8508,"thinks":8509,"Ġmagnificent":8510,"Ġconversion":8511,"Ġlaying":8512,"Ġrepublic":8513,"Ġprivilege":8514,"Ġsubtlety":8515,"Ġplanets":8516,"Ġglance":8517,"Only":8518,"Ġsucceeding":8519,"Ġinduction":8520,"ĠMetaphysical":8521,"Ġtwelve":8522,"Ġsocial":8523,"judged":8524,"Ġsubsistence":8525,"defined":8526,"ĠOrigin":8527,"assumed":8528,"Ġdictates":8529,"Ġgranting":8530,"ĠAntit":8531,"Ġanthropology":8532,"Ġsusceptibility":8533,"Ġnumerical":8534,"various":8535,"Ġembraces":8536,"reciprocally":8537,"Ġimperfection":8538,"Ġcalculated":8539,"Ġselfishness":8540,"Ġtranslation":8541,"Ġconvenience":8542,"Ġpublished":8543,"Ġlaborious":8544,"ĠSTART":8545,"accurate":8546,"Ġindubitable":8547,"Ġmilitary":8548,"Ġrestrain":8549,"Ġsurprising":8550,"Ġinstrument":8551,"PENDIX":8552,"Ġaffairs":8553,"ĠCharles":8554,"Ġextraordinary":8555,"(_":8556,")(":8557,"28":8558,"87":8559,"AVE":8560,"EL":8561,"Foundation":8562,"Happ":8563,"HAT":8564,"NAL":8565,"RPOS":8566,"SS":8567,"az":8568,"carr":8569,"divers":8570,"dden":8571,"ethics":8572,"fil":8573,"fill":8574,"fits":8575,"gy":8576,"horizon":8577,"ios":8578,"lest":8579,"parent":8580,"pdated":8581,"scribe":8582,"takes":8583,"tempt":8584,"ues":8585,"uating":8586,"á½":8587,"Ġ+":8588,"Ġib":8589,"Ġives":8590,"once":8591,"enn":8592,"attle":8593,"Ġcul":8594,"Ġcard":8595,"Ġsect":8596,"Ġsoft":8597,"Ġpays":8598,"Ġpair":8599,"Ġportions":8600,"ican":8601,"icited":8602,"Ġinno":8603,"Ġfere":8604,"Ġfresh":8605,"animal":8606,"sear":8607,"Ġreverse":8608,"oman":8609,"entitled":8610,"Ġue":8611,"Ġlat":8612,"Ġlof":8613,"Ġlimb":8614,"Ġsudden":8615,"Ġger":8616,"Äłca":8617,"Äłapp":8618,"Ġintend":8619,"pleases":8620,"Ġunlawful":8621,"ĠĠĠĠĠĠĠĠĠĠĠĠĠĠ":8622,"umbling":8623,"off":8624,"Ġving":8625,"Ġempire":8626,"ĠBel":8627,"ĠBUT":8628,"Ġnobody":8629,"adapt":8630,"antom":8631,"united":8632,"Ġappet":8633,"Ġadhere":8634,"ĠThose":8635,"Ġparte":8636,"teaching":8637,"etc":8638,"ĠĠĠĠĠĠĠĠĠĠĠĠĠĠĠĠĠĠĠĠĠĠĠĠĠĠĠĠĠĠĠĠĠĠĠĠĠĠĠ":8639,"agement":8640,"Ġsubmitted":8641,"ĠCH":8642,"Ġplane":8643,"Ġplausible":8644,"Ġgrasp":8645,"ĠInternal":8646,"ĠHAVE":8647,"Ġacted":8648,"ÃĦÅĤd":8649,"overty":8650,"angles":8651,"rible":8652,"Ġapplicability":8653,"oken":8654,"Ġ11":8655,"thereto":8656,"Ġproofread":8657,"Ġix":8658,"peace":8659,"Ġtruths":8660,"ENERAL":8661,"enealog":8662,"subordinated":8663,"Ġesse":8664,"Ġconfound":8665,"Ġconfounded":8666,"Ġeasier":8667,"Ġpassage":8668,"Ġcoherence":8669,"Ġbrain":8670,"Ġbrilliant":8671,"Ġceases":8672,"Ġregulate":8673,"Ġunden":8674,"Ġcombines":8675,"happen":8676,"ĠVanilla":8677,"ĠUnless":8678,"justify":8679,"Ġorganic":8680,"Ġprofits":8681,"rowd":8682,"THING":8683,"Ġintermediate":8684,"Ġflat":8685,"Ġmagnanim":8686,"Ġindispensably":8687,"Ġhypothetically":8688,"Ġwriters":8689,"elev":8690,"characteristic":8691,"characteristics":8692,"critic":8693,"Ġmajesty":8694,"continue":8695,"ugust":8696,"manifest":8697,"Ġfitted":8698,"Ġstronger":8699,"afterwards":8700,"Ġmeasured":8701,"Ġentering":8702,"Ġnecessitate":8703,"Ġreturns":8704,"Ġcontemplated":8705,"Ġordains":8706,"ĠINTRODUCTION":8707,"coexistence":8708,"Ġsubsisting":8709,"Ġinjury":8710,"Ġschematism":8711,"Ġsymbol":8712,"Ġhonesty":8713,"Ġperiodic":8714,"Ġsecretly":8715,"Ġdictate":8716,"better":8717,"clearness":8718,"ITIVE":8719,"absence":8720,"Ġhypertext":8721,"Ġdisclaimers":8722,"Ġthreaten":8723,"Ġambiguous":8724,"Ġcredential":8725,"Ġproprietary":8726,"Ġparalogisms":8727,"ĠMathematical":8728,"Necessity":8729,"Ġcalculate":8730,"CLUDING":8731,"Ġenumeration":8732,"Ġroyalty":8733,"Ġroyalties":8734,"Ġomnipotence":8735,"Ġharmless":8736,"seems":8737,"inevitable":8738,"Although":8739,"help":8740,"Ġsynonymous":8741,"Ġloose":8742,"ducive":8743,"sletter":8744,"Ġappellation":8745,"analyse":8746,"ĠEVEN":8747,"Ġbehaviour":8748,"gebra":8749,"48":8750,"55":8751,"70":8752,"Am":8753,"After":8754,"OW":8755,"VATIONS":8756,"apart":8757,"bly":8758,"book":8759,"business":8760,"gust":8761,"gue":8762,"ho":8763,"high":8764,"iated":8765,"iological":8766,"lication":8767,"smell":8768,"taste":8769,"vo":8770,"won":8771,"Î½":8772,"heit":8773,"hetical":8774,"erc":8775,"Ġwis":8776,"Ġwild":8777,"Ġcess":8778,"Ġincorrect":8779,"Ġbow":8780,"Ġball":8781,"Ġbaseless":8782,"orous":8783,"anwhile":8784,"edient":8785,"Ġnames":8786,"outh":8787,"Ġdouble":8788,"states":8789,"Ġhollow":8790,"Ġust":8791,"Ġlaugh":8792,"def":8793,"depr":8794,"urch":8795,"uristic":8796,"Ġsuitably":8797,"ceptive":8798,"Äłk":8799,"Äłant":8800,"Äłne":8801,"Äłcontr":8802,"ulated":8803,"Ġdecre":8804,"ĠTe":8805,"Ġaltered":8806,"hentic":8807,"Ġuninter":8808,"Ġunansw":8809,"Ġraces":8810,"Ġspare":8811,"estors":8812,"note":8813,"Ġheuristic":8814,"suggest":8815,"pros":8816,"posited":8817,"Ġabund":8818,"culture":8819,"ĠFUND":8820,"exact":8821,"caution":8822,"ungl":8823,"Ġdiss":8824,"Ġdisposed":8825,"ĠThrough":8826,"els":8827,"ĠCertain":8828,"ĠCosm":8829,"Ġplans":8830,"possibly":8831,"imitation":8832,"Ġnothingness":8833,"Ġenabl":8834,"service":8835,"Ġindemonstrable":8836,"proving":8837,"ĠDifference":8838,"Ġmatured":8839,"Ġcontradictorily":8840,"regular":8841,"International":8842,"people":8843,"blance":8844,"relates":8845,"substr":8846,"Ġmotions":8847,"ĠCons":8848,"Ġneedless":8849,"Ġarrogant":8850,"contempt":8851,"ĠTHIRD":8852,"Ġguides":8853,"Ġovercome":8854,"specul":8855,"Ġmisconceptions":8856,"Ġprovision":8857,"completion":8858,"fail":8859,"Ġdraws":8860,"whereby":8861,"prescribes":8862,"Ġreferring":8863,"Ġsurr":8864,"Ġblood":8865,"believe":8866,"community":8867,"Ġtests":8868,"nexus":8869,"aug":8870,"conformable":8871,"Ġhappening":8872,"Ġadmire":8873,"contentment":8874,"Ġannihilates":8875,"Ġfanci":8876,"Ġopened":8877,"Ġmock":8878,"ĠPURPOS":8879,"OSSI":8880,"passing":8881,"Ġrenunciation":8882,"proofs":8883,"Ġmonth":8884,"ĠDoes":8885,"Ġboldly":8886,"scepticism":8887,"commonest":8888,"ĠWhatever":8889,"Ġelevating":8890,"Ġhonestly":8891,"Ġdoctrinal":8892,"Ġpoison":8893,"pleasantness":8894,"Ġperiods":8895,"Ġanticipation":8896,"anthropology":8897,"AMENTAL":8898,"maintained":8899,"Ġzeal":8900,"Ġapproximation":8901,"Ġclearer":8902,"Ġlikes":8903,"commanded":8904,"Ġresolved":8905,"Ġunbroken":8906,"Ġpraised":8907,"Ġinstituted":8908,"smallest":8909,"Ġcommerce":8910,"Ġdriven":8911,"intuite":8912,"Ġobstinate":8913,"Ġcompensate":8914,"syllogisms":8915,"ĠANALYTIC":8916,"Ġfriends":8917,"ĠTransition":8918,"Ġdarkness":8919,"Ġanxiety":8920,"CEPTION":8921,"heteronomy":8922,"Ġastonishment":8923,"Ġexaggerated":8924,"Ġfluid":8925,"spring":8926,"Ġpragmatical":8927,"ĠQuantity":8928,"TINOM":8929,"OBS":8930,"Ġancestors":8931,"Happiness":8932,"ĠFUNDAMENTAL":8933,"Ġenabling":8934,"'t":8935,".{":8936,"34":8937,"79":8938,"Besides":8939,"Epic":8940,"ITH":8941,"Me":8942,"Time":8943,"cal":8944,"cord":8945,"cartes":8946,"holy":8947,"iatus":8948,"losing":8949,"mal":8950,"mise":8951,"mutable":8952,"oqu":8953,"uated":8954,"Ġict":8955,"Ġtempt":8956,"Ġak":8957,"inferences":8958,"inconsistent":8959,"itute":8960,"isse":8961,"erably":8962,"Ġwatch":8963,"Ġwoe":8964,"aled":8965,"Ġinstant":8966,"Ġban":8967,"Ġremind":8968,"entions":8969,"arum":8970,"utonomy":8971,"asus":8972,"lling":8973,"terior":8974,"terms":8975,"Ġwithdrawn":8976,"ÄłK":8977,"Äłle":8978,"Äłcons":8979,"Äłob":8980,"ÄłRe":8981,"Ġdefault":8982,"Ġalgebra":8983,"pleteness":8984,"acters":8985,"Ġhabits":8986,"meant":8987,"illusions":8988,"Ġunobserved":8989,"Ġunfair":8990,"Ġunmixed":8991,"Ġunvarying":8992,"ummum":8993,"Ġcompos":8994,"Ġcomponent":8995,"Ġlawgiver":8996,"Ġrich":8997,"Ġundermin":8998,"Ġstone":8999,"Ġstability":9000,"ĠAugust":9001,"Ġquid":9002,"union":9003,"ĠPreface":9004,"forces":9005,"Ġdispar":9006,"Ġdisregard":9007,"Ġdissect":9008,"ĠSh":9009,"ĠSer":9010,"ĠSch":9011,"Ġpartiality":9012,"eneration":9013,"Ġchall":9014,"spread":9015,"ops":9016,"precede":9017,"pposites":9018,"ĠGosp":9019,"Ġdiffered":9020,"They":9021,"ĠRespect":9022,"Ġconceptus":9023,"ĠED":9024,"stitution":9025,"earance":9026,"Ġindul":9027,"Ġeffective":9028,"Ġamphiboly":9029,"Ġgreatness":9030,"ĠDO":9031,"ĠDr":9032,"ĠDuty":9033,"uteness":9034,"Ġcharacters":9035,"Ġrefutation":9036,"Ġinterested":9037,"Ġintelligibilis":9038,"unde":9039,"Ġresist":9040,"disposed":9041,"ERVATIONS":9042,"contradistinction":9043,"Intelligence":9044,"Ġguess":9045,"ĠĠĠĠĠĠĠĠĠĠĠĠĠĠĠĠĠĠĠĠĠĠĠĠĠĠĠĠĠĠ":9046,"ALITY":9047,"subjected":9048,"Ġnegativum":9049,"Ġassertor":9050,"Ġassertorical":9051,"Ġmisled":9052,"ĠTHEOREM":9053,"TERNAL":9054,"Ġdeductions":9055,"avel":9056,"Äłinv":9057,"everyone":9058,"Ġinsignific":9059,"ĠAny":9060,"indefinitum":9061,"ocal":9062,"Äłref":9063,"Ġbliss":9064,"Ġcontinuum":9065,"Ġtranscendentally":9066,"Ġoccupying":9067,"Ġantecede":9068,"universally":9069,"Ġapprove":9070,"Ġult":9071,"architect":9072,"Ġ99":9073,"Ġcarrying":9074,"Ġrestricts":9075,"ĠpropÃ¦deutic":9076,"Ġ75":9077,"insically":9078,"employing":9079,"Ġcomprehending":9080,"ĠANTINOM":9081,"Ġrepay":9082,"enetrable":9083,"demonstrative":9084,"particularly":9085,"Ġexcused":9086,"continuous":9087,"Ġremoves":9088,"Supposing":9089,"Ġassigns":9090,"Ġinduced":9091,"Ġborrowing":9092,"Concl":9093,"ILL":9094,"Ġdiscernment":9095,"Ġproportioned":9096,"province":9097,"Ġsuggestion":9098,"ĠEmpty":9099,"Ġsignal":9100,"Ġaggregation":9101,"Ġpleasantness":9102,"Ġheads":9103,"Ġidle":9104,"Ġwondered":9105,"influenced":9106,"Ġadmirable":9107,"Trans":9108,"ĠCompleteness":9109,"Ġabandons":9110,"collection":9111,"deduce":9112,"ĠCONFL":9113,"ĠInterest":9114,"Ġpathologically":9115,"restriction":9116,"restricted":9117,"Ġchimerical":9118,"ĠPhysico":9119,"Ġarchitectonical":9120,"Ġguaranteed":9121,"anticipation":9122,"Ġinstitute":9123,"Ġcourt":9124,"ĠProblems":9125,"ulgar":9126,"circle":9127,"Ġwarnings":9128,"ĠGround":9129,"ocrisy":9130,"ĠGermany":9131,"ĠApplication":9132,"ĠAppearance":9133,"Ġobstinately":9134,"Ġhypostatizing":9135,"Ġinfallible":9136,"Ġhesitate":9137,"Ġcombatants":9138,"Ġostensive":9139,"Ġvacant":9140,"Ġlurks":9141,"Ġconjoining":9142,"Ġcitizen":9143,"Ġcitizens":9144,"declaring":9145,"dispute":9146,"specification":9147,"annihilated":9148,"Ġimpediments":9149,"accompanied":9150,"Nothing":9151,"Ġstepping":9152,"ĠConclusions":9153,"efforts":9154,"spontaneity":9155,"ĠIntroductory":9156,"assigned":9157,"Ġboni":9158,"Ġrefined":9159,"Ġrarely":9160,"Ġdenominate":9161,"ignorance":9162,"ĠMonad":9163,"Principle":9164,"erkeley":9165,"ĠIllusory":9166,"Ġfigurative":9167,"false":9168,"Ġbarbar":9169,"banks":9170,"Ġcomplaints":9171,"atirae":9172,"towards":9173,"intrinsic":9174,"ĠIDEAS":9175,"Ġextravagant":9176,"Ġsemblance":9177,"Ġcircular":9178,"Ġomniscient":9179,"Ġcatalogue":9180,"Ġelegance":9181,"Ġsurvive":9182,"Ġterritory":9183,"ĠDogmatism":9184,"iosity":9185,"ĠBelief":9186,"Ġmagnanimous":9187,"OBSERVATIONS":9188,"Ġcompositum":9189,"ĠANTINOMY":9190,"ĠCONFLICT":9191,"21":9192,"24":9193,"25":9194,"30":9195,"33":9196,"37":9197,"622":9198,"ABLE":9199,"Cf":9200,"DED":9201,"MENT":9202,"civil":9203,"eas":9204,"eper":9205,"port":9206,"ri":9207,"wr":9208,"Ã¤":9209,"Ġ#":9210,"Ġire":9211,"Ġie":9212,"Ġize":9213,"inst":9214,"Ġological":9215,"Ġsmell":9216,"Ġina":9217,"Ġinhabit":9218,"Ġbro":9219,"Ġthousand":9220,"Ġmit":9221,"Ġfing":9222,"Ġepo":9223,"sever":9224,"stition":9225,"asur":9226,"Ġprince":9227,"Ġlack":9228,"Äły":9229,"vell":9230,"conject":9231,"Ġhast":9232,"plend":9233,"igen":9234,"iest":9235,"Ġcommitted":9236,"Ġspoken":9237,"Ġsea":9238,"ĠBerkeley":9239,"Ġtraining":9240,"prim":9241,"ĠFa":9242,"ĠFRO":9243,"ĠAd":9244,"ĠAesthetic":9245,"Ġcognisable":9246,"teen":9247,"aging":9248,"Ġgenerations":9249,"ĠCreator":9250,"Ġenv":9251,"propr":9252,"iculation":9253,"lessed":9254,"Ġcorrupt":9255,"Ġacuteness":9256,"Ġstrive":9257,"Ġian":9258,"structive":9259,"Ġdiscoveries":9260,"Ġlegitim":9261,"Ġobserver":9262,"Ġmaintenance":9263,"Ġmiserable":9264,"Ġ38":9265,"Ġartificial":9266,"Ġaddress":9267,"feat":9268,"ilarly":9269,"ship":9270,"Ġasks":9271,"ailed":9272,"Ġgeometer":9273,"intelligent":9274,"Ġ92":9275,"Ġinterpretation":9276,"Ġintervention":9277,"commer":9278,"Ġ65":9279,"ICAL":9280,"Ġsurely":9281,"mortal":9282,"criter":9283,"expressed":9284,"ÄłAr":9285,"Ġsubstrate":9286,"falls":9287,"Ġdestined":9288,"Ġpreserved":9289,"Ġpreservation":9290,"Sub":9291,"Ġshortest":9292,"LIM":9293,"concerning":9294,"ĠEverything":9295,"seek":9296,"chnic":9297,"doubtful":9298,"Ġsovereignty":9299,"Ġhonourable":9300,"clearly":9301,"gradually":9302,"Ġdamage":9303,"Ġindefinitely":9304,"Ġsubstitute":9305,"Ġdetriment":9306,"Ġfriend":9307,"Ġdeficient":9308,"Ġinspire":9309,"Ġescaped":9310,"Ġspeculations":9311,"Ġjuris":9312,"overnment":9313,"written":9314,"Ġvoluntary":9315,"ĠParalogism":9316,"Ġinsignificant":9317,"Ġepoch":9318,"ĠFROM":9319,"35":9320,"47":9321,"57":9322,"81":9323,"AIN":9324,"AIM":9325,"Further":9326,"ease":9327,"fam":9328,"hist":9329,"hold":9330,"lated":9331,"oke":9332,"opposed":9333,"ral":9334,"ried":9335,"raid":9336,"wart":9337,"warrant":9338,"Â½":9339,"Ã¼":9340,"Ġ$":9341,"Ġized":9342,"Ġts":9343,"Ġaux":9344,"onom":9345,"Ġome":9346,"refer":9347,"itatis":9348,"Ġwander":9349,"Ġck":9350,"Ġpal":9351,"Ġpict":9352,"alter":9353,"icus":9354,"Ġfif":9355,"Ġfant":9356,"Ġnom":9357,"lying":9358,"Ġished":9359,"Ġistic":9360,"Ġrect":9361,"Ġrecent":9362,"Ġdie":9363,"Ġconqu":9364,"Ġbeast":9365,"ari":9366,"otius":9367,"Ġhint":9368,"Ġascribing":9369,"theory":9370,"image":9371,"Ġong":9372,"Ġforget":9373,"demn":9374,"Ġsuspect":9375,"Äłcl":9376,"Äłover":9377,"Äłext":9378,"Äłconf":9379,"Äłappro":9380,"Ġordered":9381,"chimer":9382,"ushed":9383,"Ġintentions":9384,"endix":9385,"plan":9386,"illustr":9387,"Ġunjust":9388,"Ġrit":9389,"Ġrap":9390,"Ġnovel":9391,"Ġimpracticable":9392,"Ġification":9393,"ĠFOU":9394,"why":9395,"cade":9396,"Ġconscience":9397,"ĠPOSSI":9398,"redu":9399,"Ġlect":9400,"Ġwhoever":9401,"ensed":9402,"Ġsubordination":9403,"ĠGe":9404,"Ġgrown":9405,"ĠWest":9406,"ĠWITH":9407,"ĠInfinite":9408,"Ġency":9409,"Ġdescription":9410,"weight":9411,"prohib":9412,"ĠEBook":9413,"early":9414,"medi":9415,"Ġoutline":9416,"Ġenthusi":9417,"ĠMay":9418,"Ġoriginator":9419,"Ġimpenetrability":9420,"Ġcharges":9421,"Ġrefrain":9422,"Ġwherefore":9423,"Ġresides":9424,"ERN":9425,"ERCH":9426,"Ġsupplement":9427,"Ġsummon":9428,"representing":9429,"religion":9430,"ĠBeyond":9431,"Ġ23":9432,"Ġsolving":9433,"Ġcopied":9434,"Ġnegations":9435,"Ġinquires":9436,"Ġappreciation":9437,"extended":9438,"Ġ568":9439,"Ġ42":9440,"Ġdistinctly":9441,"ĠVer":9442,"Ġsurrender":9443,"Ġcontinuance":9444,"Ġcreate":9445,"considerable":9446,"Äłdel":9447,"Ġmetal":9448,"ĠSoci":9449,"Ġborne":9450,"expresses":9451,"Ġpracticability":9452,"Ġglory":9453,"Ġglass":9454,"Ġvers":9455,"Ġcapability":9456,"airbanks":9457,"Äłprop":9458,"Ġproportionate":9459,"Ġprofession":9460,"bodies":9461,"problem":9462,"approbation":9463,"Ġtaxes":9464,"Ġtreasure":9465,"equal":9466,"Ġlisten":9467,"signifies":9468,"PLEAS":9469,"Ġchapters":9470,"Ġhopeless":9471,"Experience":9472,"ĠHimself":9473,"Ġcolours":9474,"Ġtypes":9475,"prominently":9476,"variety":9477,"purposive":9478,"Ġgift":9479,"Ġoffering":9480,"ĠWARRANTIES":9481,"Ġchiefly":9482,"symbol":9483,"single":9484,"Ġconvenient":9485,"Ġaccompanying":9486,"SECOND":9487,"Ġbranch":9488,"Ġsilence":9489,"ĠDescartes":9490,"Ġachieve":9491,"estimation":9492,"probability":9493,"arrangement":9494,"sighted":9495,"Ġperplexity":9496,"urbed":9497,"thoroughly":9498,"Ġspoil":9499,"ĠSubstance":9500,"Ġexhausted":9501,"controvert":9502,"Ġconversation":9503,"Among":9504,"62215":9505,"Ġinhabitants":9506,"Ġlegitimacy":9507,".:":9508,"26":9509,"27":9510,"32":9511,"36":9512,"38":9513,"46":9514,"54":9515,"568":9516,"96":9517,"Ab":9518,"EBook":9519,"Language":9520,"Title":9521,"_:":9522,"cher":9523,"fast":9524,"hr":9525,"lab":9526,"nate":9527,"oh":9528,"sipp":9529,"umin":9530,"zip":9531,"ĠQU":9532,"Ġtical":9533,"Ġtree":9534,"Ġade":9535,"iny":9536,"instruct":9537,"Ġther":9538,"itudes":9539,"isions":9540,"Ġwider":9541,"Ġwont":9542,"Ġwarrant":9543,"Ġsit":9544,"Ġpred":9545,"Ġinaccurate":9546,"Ġmag":9547,"cean":9548,"ancendent":9549,"Ġising":9550,"Ġcond":9551,"omat":9552,"ascertain":9553,"Ġures":9554,"Äłver":9555,"Äłus":9556,"Äłcor":9557,"Ġdeeper":9558,"sibilities":9559,"ĠTRAN":9560,"confin":9561,"conven":9562,"ilia":9563,"embarrass":9564,"embered":9565,"olly":9566,"ĠĠĠĠĠĠĠĠĠĠĠĠ":9567,"Ġthereupon":9568,"Ġsprung":9569,"idealism":9570,"odes":9571,"Ġhearer":9572,"Ġknew":9573,"Ġstaff":9574,"Ġstream":9575,"Ġregions":9576,"presenting":9577,"cast":9578,"Ġdisgust":9579,"ĠSect":9580,"ĠSTR":9581,"etic":9582,"Ġmoralists":9583,"Ġsubmission":9584,"amount":9585,"ĠCopyright":9586,"ĠGre":9587,"ĠWar":9588,"sissipp":9589,"Ġwhenever":9590,"Ġenlightened":9591,"Ġpositing":9592,"Ġindemn":9593,"ÃĦÅĤb":9594,"Ġindustr":9595,"Ġattaches":9596,"sensual":9597,"reasoning":9598,"ultimate":9599,"ĠUnder":9600,"Ġcorruption":9601,"Ġacknowled":9602,"ĠLat":9603,"Ġconcur":9604,"Ġrested":9605,"Ġmighty":9606,"Ġconceives":9607,"Introdu":9608,"ENTI":9609,"TIVE":9610,"subtle":9611,"Ġaimed":9612,"Ġmodified":9613,"grant":9614,"Ġings":9615,"Ġsuperstition":9616,"Ġposterity":9617,"Ġprovisions":9618,"obvious":9619,"Ġpeculiarities":9620,"Äłsc":9621,"iae":9622,"sometimes":9623,"indefinite":9624,"Ġpretence":9625,"Ġabsor":9626,"Ġearnest":9627,"iumph":9628,"Ġmechanically":9629,"Ġrecognises":9630,"Ġdynamically":9631,"aska":9632,"Ġdonation":9633,"Ġagreeable":9634,"iberum":9635,"Ġintercourse":9636,"Ġinterpreted":9637,"placed":9638,"Ġseparately":9639,"Ġpropounded":9640,"Release":9641,"ĠREAD":9642,"Ġpositions":9643,"Ġ70":9644,"distinguishing":9645,"Ġgaining":9646,"Ġwholes":9647,"Ġauthentic":9648,"Ġwisely":9649,"denial":9650,"Ġreducing":9651,"explained":9652,"Ġheterogeneity":9653,"Ġstudent":9654,"Ġstudies":9655,"Ġdetect":9656,"continually":9657,"Ġhumble":9658,"Ġweighty":9659,"Ġmeasurement":9660,"legislating":9661,"providing":9662,"settle":9663,"LIED":9664,"Ġextract":9665,"TRIN":9666,"TRAC":9667,"opern":9668,"concerns":9669,"ĠNeg":9670,"ĠNecessity":9671,"approach":9672,"judgments":9673,"additional":9674,"IVE":9675,"Ġabandoned":9676,"Ġhoped":9677,"Ġprejudices":9678,"schol":9679,"SEQU":9680,"conclusion":9681,"ETUAL":9682,"Ġuniformity":9683,"bounds":9684,"enlarged":9685,"Ġsubstituted":9686,"Ġafraid":9687,"Ġconcealed":9688,"Ġerected":9689,"CLAIM":9690,"ĠEXPRE":9691,"mistake":9692,"Ġenumerate":9693,"Ġcompensation":9694,"Ġruin":9695,"Ġdeliberation":9696,"wanting":9697,"involves":9698,"inevitably":9699,"peculiarity":9700,"Ġellipse":9701,"geometry":9702,"ĠSecondly":9703,"hensions":9704,"Ġcomprises":9705,"Ġperceives":9706,"Ġundeveloped":9707,"anthropomorphism":9708,"Ġlowest":9709,"Ġjudicial":9710,"ĠElements":9711,"significance":9712,"Mathematics":9713,"Ġeconom":9714,"Ġincontestably":9715,"Ġinnocent":9716,"ĠTechnic":9717,"criterion":9718,"Ġrapid":9719,"ERCHANT":9720,"!)":9721,".),":9722,"23":9723,"31":9724,"45":9725,"62":9726,"69":9727,"Com":9728,"DENTAL":9729,"EF":9730,"Fourth":9731,"GENCE":9732,"IRECT":9733,"License":9734,"Literary":9735,"Most":9736,"Moreover":9737,"NESS":9738,"NITIVE":9739,"Right":9740,"Sto":9741,"URE":9742,"Vol":9743,"Wolf":9744,"aud":9745,"aft":9746,"bu":9747,"cert":9748,"dignity":9749,"eg":9750,"full":9751,"hort":9752,"join":9753,"kal":9754,"loc":9755,"md":9756,"penetr":9757,"ription":9758,"sure":9759,"txt":9760,"touch":9761,"uation":9762,"uously":9763,"vain":9764,"wishes":9765,"ĠÎ":9766,"Ġile":9767,"Ġtic":9768,"Ġtant":9769,"Ġae":9770,"Ġaver":9771,"instruction":9772,"Ġtheolog":9773,"rer":9774,"itiv":9775,"iteness":9776,"enumer":9777,"Ġcurs":9778,"Ġsis":9779,"Ġsag":9780,"Ġsending":9781,"Ġsword":9782,"Ġsorrow":9783,"iced":9784,"icule":9785,"Ġincompre":9786,"Ġbit":9787,"Ġbinary":9788,"estr":9789,"Ġfaint":9790,"editions":9791,"Ġere":9792,"Ġconced":9793,"enth":9794,"Ġwhit":9795,"asc":9796,"Ġhar":9797,"Ġash":9798,"ivocal":9799,"Ġld":9800,"Ġlament":9801,"urance":9802,"Ġsuited":9803,"irus":9804,"Äłto":9805,"Äłfl":9806,"ĠIMP":9807,"thy":9808,"threat":9809,"ifling":9810,"Ġdep":9811,"Ġdeist":9812,"verest":9813,"Ġprocure":9814,"constant":9815,"Ġobjected":9816,"ilty":9817,"idently":9818,"plays":9819,"Ġunl":9820,"Ġcomfort":9821,"trace":9822,"Ġlawful":9823,"ested":9824,"Ġvulgar":9825,"Ġvirus":9826,"Ġsear":9827,"ĠBetween":9828,"Ġtriumph":9829,"udo":9830,"allowed":9831,"Ġperpetually":9832,"Ġstay":9833,"Ġstory":9834,"Ġstumbling":9835,"Ġsharing":9836,"ĠFIT":9837,"Ġsyllogistic":9838,"whom":9839,"Ġyear":9840,"Ġdisk":9841,"ĠSpecial":9842,"opolit":9843,"ĠNEG":9844,"intuit":9845,"ĠCl":9846,"ĠCar":9847,"ĠGIVE":9848,"ĠWhence":9849,"ĠWHAT":9850,"reating":9851,"Ġcausa":9852,"riticism":9853,"served":9854,"Ġfounds":9855,"Ġconnections":9856,"ĠEIN":9857,"Ġsystemat":9858,"ÃĦÅĤP":9859,"ÃĦÅĤh":9860,"ÃĦÅĤcon":9861,"Ġhappily":9862,"Ġindulgence":9863,"Ġoutlines":9864,"Ġentium":9865,"ĠReplace":9866,"ĠRepresentation":9867,"ĠRefund":9868,"ribe":9869,"ĠMA":9870,"ĠMERCHANT":9871,"Ġimpot":9872,"Ġinvention":9873,"Thou":9874,"Thirdly":9875,"Ġcorrection":9876,"Ġassuring":9877,"Ġcompetition":9878,"Ġapper":9879,"Ġadvice":9880,"Ġrighteous":9881,"Information":9882,"Ġupwards":9883,"represents":9884,"TICE":9885,"Ġelimin":9886,"ĠOnt":9887,"Ġworthlessness":9888,"Ġresulted":9889,"Ġnewsletter":9890,"subjects":9891,"Ġanswering":9892,"Ġuted":9893,"Ġexcepted":9894,"Ġdemonstrates":9895,"Ġpostpone":9896,"synthetic":9897,"Ġexpects":9898,"ĠKIND":9899,"Ġcosmology":9900,"obedience":9901,"Ġaffecting":9902,"facil":9903,"Ġidentify":9904,"Ġobliges":9905,"Ġaids":9906,"Ġregulating":9907,"created":9908,"Ġunderstands":9909,"noisse":9910,"Ġtransfers":9911,"Ġdesignated":9912,"Ġanalogon":9913,"Ġvolume":9914,"legal":9915,"Ġlieu":9916,"Ġpretext":9917,"Ġoperate":9918,"Äłreal":9919,"limitations":9920,"Ġintuites":9921,"Ġsurveyed":9922,"Ġearlies":9923,"Ġfurnishing":9924,"Ġapproval":9925,"Ġdonors":9926,"Ġchemical":9927,"Ġinterfere":9928,"Ġfavoured":9929,"Ġdisputing":9930,"confusion":9931,"confirmed":9932,"originally":9933,"Ġreputation":9934,"Ġtranscending":9935,"Ġtranscription":9936,"Ġtranscribe":9937,"EDIES":9938,"Ġfailing":9939,"Ġturns":9940,"Ġventured":9941,"Äłaff":9942,"reflective":9943,"Ġprocessing":9944,"superior":9945,"Ġremoval":9946,"Ġhumility":9947,"cernib":9948,"EMNITY":9949,"Ġcontributing":9950,"Ġdevote":9951,"looked":9952,"oubtedly":9953,"posted":9954,"Ġstrongly":9955,"ĠĠĠĠĠĠĠĠĠĠĠĠĠĠĠĠĠĠĠĠĠĠĠĠĠĠĠĠĠĠĠĠĠĠĠ":9956,"START":9957,"Ġ1500":9958,"contingency":9959,"ĠPUNITIVE":9960,"Ġstarted":9961,"LIGENCE":9962,"ĠINCLUDING":9963,"Ġblindly":9964,"operations":9965,"Ġattacking":9966,"Ġcentre":9967,"ĠNOTICE":9968,"equality":9969,"finds":9970,"importance":9971,"Ġlocations":9972,"ĠCONTRAC":9973,"ĠCONSEQU":9974,"ĠREMEDIES":9975,"Ġclearest":9976,"conclusions":9977,"ĠPhysics":9978,"Idea":9979,"accompl":9980,"Ġconjectures":9981,"sources":9982,"communicated":9983,"Ġdamaged":9984,"ĠANYTHING":9985,"Ġdespise":9986,"Ġamounts":9987,"Ġincite":9988,"demands":9989,"endeavour":9990,"endeavoured":9991,"ĠParticular":9992,"Ġcomputers":9993,"Defects":9994,"furnish":9995,"furnishes":9996,"Ġtouching":9997,"ĠNorth":9998,"divisions":9999,"Ġlicensed":10000,"Ġpaperwork":10001,"involved":10002,"Ġdissimilarity":10003,"ĠDespite":10004,"ĠDISCLAIM":10005,"products":10006,"Ġ1787":10007,"Ġvessel":10008,"geometrical":10009,"Ġawakening":10010,"Ġindubitably":10011,"Ġrecommendation":10012,"increasing":10013,"removed":10014,"ĠINDIRECT":10015,"ĠMississipp":10016,"Ġdisguise":10017,"ĠSUCH":10018,"ĠOtherwise":10019,"ĠÃ¢Ä¢Ä¶":10020,"observations":10021,"enjoyment":10022,"requisite":10023,"Ġromance":10024,"Ġtheorem":10025,"Ġdespotism":10026,"Space":10027,"Ġrigorous":10028,"Ġmusic":10029,"Ġdisappoint":10030,"ithmetic":10031,"Ġdownloading":10032,"Ġinfringement":10033,"Ġbeside":10034,"Ġgratefully":10035,"VIDED":10036,"ĠModality":10037,"Ġremedy":10038,"Ġrepublican":10039,"Ġlofty":10040,"ĠPURPOSE":10041,"ĠService":10042,"Ġfingers":10043,"LIMITED":10044,"ĠSTRICT":10045,"Ġindemnify":10046,"ENTIAL":10047,"ĠEXPRESS":10048,"ĠIMPLIED":10049,"ĠFITNESS":10050,"ĠNEGLIGENCE":10051,"ĠReplacement":10052,"ĠMERCHANTABILITY":10053,"Ġearliest":10054,"ĠCONTRACT":10055,"ĠCONSEQUENTIAL":10056,"ĠDISCLAIMER":10057,"ĠMississippi":10058,"44":10059,"77":10060,"Cont":10061,"CTRIN":10062,"EACE":10063,"PETUAL":10064,"WARRAN":10065,"aired":10066,"custom":10067,"firm":10068,"mother":10069,"macy":10070,"ober":10071,"pared":10072,"polit":10073,"ros":10074,"sound":10075,"taking":10076,"vity":10077,"zer":10078,"Ãı":10079,"Ġily":10080,"Ġvel":10081,"Ġively":10082,"Ġtain":10083,"ining":10084,"infer":10085,"information":10086,"Ġove":10087,"atur":10088,"atae":10089,"Ġward":10090,"Ġcand":10091,"Ġpir":10092,"Ġpoverty":10093,"along":10094,"Ġbare":10095,"Ġthir":10096,"Ġthwart":10097,"Ġmillion":10098,"Ġfreed":10099,"Ġfund":10100,"Ġfier":10101,"ede":10102,"Ġning":10103,"Ġnaught":10104,"Ġered":10105,"leave":10106,"Ġree":10107,"Ġreign":10108,"Ġreform":10109,"Ġresemble":10110,"omni":10111,"otyp":10112,"utor":10113,"utious":10114,"Ġhid":10115,"imid":10116,"imilarly":10117,"decided":10118,"urning":10119,"Ġsuits":10120,"Äłur":10121,"Äłcogn":10122,"ÄłTh":10123,"Äłunder":10124,"Äłbr":10125,"Äłacc":10126,"Äłtrans":10127,"ĠIR":10128,"resistance":10129,"isturbed":10130,"andom":10131,"ula":10132,"Ġdear":10133,"Ġdeposit":10134,"choice":10135,"Ġnearest":10136,"idge":10137,"endi":10138,"Ġunquestion":10139,"Ġunconnected":10140,"Ġunimportant":10141,"Ġunsatisfactory":10142,"ighed":10143,"ĠĠĠĠĠĠĠĠĠĠ":10144,"ditions":10145,"track":10146,"Ġspent":10147,"Ġspher":10148,"ideality":10149,"Ġpossibilities":10150,"Ġvicious":10151,"Ġtrades":10152,"Ġtrifling":10153,"Ġwilled":10154,"Ġimposing":10155,"Ġusage":10156,"Ġstat":10157,"phil":10158,"phold":10159,"Ġshap":10160,"Ġshalt":10161,"unattainable":10162,"ĠPEACE":10163,"redistrib":10164,"Ġargue":10165,"ĠSouth":10166,"ĠThough":10167,"Ġsomewhere":10168,"Ġaccordant":10169,"intended":10170,"Ġsubre":10171,"solve":10172,"Ġthank":10173,"ĠCopern":10174,"Ġplays":10175,"Ġenjoined":10176,"Ġdescent":10177,"ĠHypothe":10178,"Ġowed":10179,"weapons":10180,"acent":10181,"Ġremember":10182,"ĠEv":10183,"Ġgrounding":10184,"ÃĦÅĤt":10185,"Ġterrible":10186,"ĠDom":10187,"ĠReality":10188,"Ġbasing":10189,"fulfil":10190,"Those":10191,"ĠUpon":10192,"Ġexplore":10193,"Ġpowerless":10194,"necessitate":10195,"Ġassurance":10196,"Ġcompany":10197,"Ġcompounded":10198,"Ġiii":10199,"Ġplea":10200,"discipline":10201,"Ġsincere":10202,"Instead":10203,"Ġconclusive":10204,"blind":10205,"naturally":10206,"natura":10207,"related":10208,"Ġeloqu":10209,"subsum":10210,"ĠBefore":10211,"Ġsuccessfully":10212,"Ġobserves":10213,"Ġguilty":10214,"arrive":10215,"Ġidealistic":10216,"Ġequals":10217,"Ġsuperadded":10218,"Ġpassions":10219,"Ġnonsense":10220,"Ġprovides":10221,"Ġassumes":10222,"Ġdenote":10223,"Ġartist":10224,"Ġbrief":10225,"Ġprogressing":10226,"Ġceaseless":10227,"Äłins":10228,"Ġwarns":10229,"connects":10230,"Ġ41":10231,"Ġcorrective":10232,"Ġexhibition":10233,"Ġorganism":10234,"ordinate":10235,"compare":10236,"Ġabstracting":10237,"Ġagreeableness":10238,"Ġarranging":10239,"value":10240,"Ġsimilarly":10241,"Ġcircumference":10242,"Ġcollect":10243,"considering":10244,"quantitas":10245,"worthiness":10246,"Ġaccepts":10247,"ORK":10248,"Ġsecures":10249,"ÄłPr":10250,"invent":10251,"greatness":10252,"demonstrate":10253,"Ġbackwards":10254,"Ġventures":10255,"uitous":10256,"Ġexcited":10257,"superfluous":10258,"Ġinduces":10259,"ĠDece":10260,"Ġoccurrence":10261,"postulate":10262,"Ġpunished":10263,"Ġpunishments":10264,"ĠPROBL":10265,"attempted":10266,"indicating":10267,"consequentia":10268,"junct":10269,"Ġextricate":10270,"intermediate":10271,"Ġcurved":10272,"Ġconfessed":10273,"ĠWhy":10274,"Ġelevates":10275,"moving":10276,"Ġpoor":10277,"modes":10278,"attributes":10279,"attributed":10280,"Ġcivilisation":10281,"directed":10282,"directly":10283,"Ġroots":10284,"colour":10285,"Ġrejecting":10286,"Ġhoping":10287,"Ġcultivate":10288,"assuming":10289,"school":10290,"Ġpresumpt":10291,"Ġisolate":10292,"Ġevidences":10293,"occupy":10294,"Idealism":10295,"SITION":10296,"116":10297,"ĠEuropean":10298,"resulting":10299,"Ġthreatening":10300,"Ġsubmits":10301,"anticipate":10302,"Art":10303,"loving":10304,"Ġconsequentia":10305,"endeavours":10306,"Ġinstructed":10307,"Ġregularity":10308,"Ġflattering":10309,"Ġmidst":10310,"Ġtouchstone":10311,"Ġstriking":10312,"Ġsteadily":10313,"excluding":10314,"dogmatism":10315,"exhibited":10316,"Ġparticipating":10317,"Ġfamiliar":10318,"Ġawakened":10319,"ibrium":10320,"introduced":10321,"previously":10322,"yllogisms":10323,"Ġperceiving":10324,"guarded":10325,"Ġastronom":10326,"reptitious":10327,"Ġdisguised":10328,"Ġanthropomorphic":10329,"ussia":10330,"Ġsimplest":10331,"Ġcensure":10332,"iliary":10333,"Ġreluctant":10334,"Ġhostile":10335,"Ġbeneficent":10336,"Ġtautology":10337,"Ġriches":10338,"Ġrevelation":10339,"ĠPHILOSOPHY":10340,"ĠArguments":10341,"Ġantiquity":10342,"members":10343,"ĠOpinion":10344,"Ġinviolable":10345,"Ġcoalition":10346,"Ġgerm":10347,"Ġundeniable":10348,"defence":10349,"Ġuninterrupted":10350,"Ġunanswerable":10351,"Ġinadequacy":10352,"ĠFacul":10353,"Ġauxiliary":10354,"Ġtantamount":10355,"ĠPROBLEM":10356,"\".":10357,"*]":10358,"52":10359,"53":10360,"56":10361,"64":10362,"67":10363,"72":10364,"CON":10365,"Dialectic":10366,"LA":10367,"LL":10368,"Or":10369,"Ple":10370,"Rational":10371,"Speculative":10372,"Ver":10373,"Very":10374,"astr":10375,"acies":10376,"bed":10377,"cending":10378,"filled":10379,"jo":10380,"mas":10381,"mill":10382,"moun":10383,"munity":10384,"mists":10385,"night":10386,"rances":10387,"sakes":10388,"tw":10389,"vous":10390,"wisdom":10391,"ze":10392,"Ġication":10393,"Ġays":10394,"inj":10395,"inference":10396,"ineness":10397,"Ġopposing":10398,"Ġopposites":10399,"rendered":10400,"reverse":10401,"recognized":10402,"reproductive":10403,"enius":10404,"aten":10405,"Ġcush":10406,"Ġses":10407,"Ġsink":10408,"Ġpresses":10409,"altern":10410,"icle":10411,"Ġinsecure":10412,"Ġincontrovert":10413,"Ġbattle":10414,"Ġtou":10415,"Ġtold":10416,"cease":10417,"Ġfutility":10418,"edifice":10419,"Ġnt":10420,"Ġnought":10421,"Ġecl":10422,"Ġelect":10423,"sec":10424,"Ġises":10425,"Ġitude":10426,"Ġret":10427,"Ġrecord":10428,"status":10429,"sthetical":10430,"utum":10431,"Ġhur":10432,"Ġhiatus":10433,"Ġaspir":10434,"thew":10435,"theologia":10436,"Ġances":10437,"Ġliqu":10438,"Ġfort":10439,"dem":10440,"decess":10441,"ibet":10442,"Ġsuppos":10443,"Ġgenealog":10444,"Äłter":10445,"Äłall":10446,"Äłev":10447,"Äłfe":10448,"Äłdisc":10449,"quid":10450,"ivered":10451,"Ġorator":10452,"ulty":10453,"Ġdeceptive":10454,"Ġdefeat":10455,"sibly":10456,"Ġreasoners":10457,"usio":10458,"Ġals":10459,"Ġalle":10460,"Ġalkal":10461,"abilis":10462,"measur":10463,"illusory":10464,"aware":10465,"Ġunanim":10466,"âĢĶ(":10467,"tricable":10468,"Ġring":10469,"Ġspheres":10470,"Ġsoar":10471,"Ġvit":10472,"Ġvocation":10473,"Ġement":10474,"Ġembell":10475,"Ġempiric":10476,"ĠBonum":10477,"ĠTheoretical":10478,"Ġtravel":10479,"supposes":10480,"sublime":10481,"Ġabut":10482,"Ġabsol":10483,"Ġabode":10484,"Ġwillingly":10485,"Ġimmaterial":10486,"Ġimmutable":10487,"Ġimmedi":10488,"phaenomenon":10489,"outside":10490,"ĠFe":10491,"ĠAxioms":10492,"ĠAutonomy":10493,"Ġcognizes":10494,"Ġevol":10495,"nowhere":10496,"Ġaccus":10497,"ĠPO":10498,"ĠPa":10499,"forward":10500,"Ġys":10501,"Ġadjust":10502,"ĠForm":10503,"Ġdispleasure":10504,"ieties":10505,"Ġarch":10506,"Ġarmy":10507,"ĠSoul":10508,"ĠSummum":10509,"ĠSatirae":10510,"Ġpartially":10511,"etext":10512,"Ġsomeone":10513,"opinions":10514,"ĠOTHER":10515,"Ġfaulty":10516,"Ġphantom":10517,"intensive":10518,"Ġsubspecies":10519,"aming":10520,"Ġgenerality":10521,"ĠCO":10522,"Ġgravity":10523,"monition":10524,"ĠInasmuch":10525,"ortun":10526,"Ġenig":10527,"Ġengr":10528,"Ġenounced":10529,"Ġenclose":10530,"ĠHad":10531,"ĠRoman":10532,"ovember":10533,"accept":10534,"projected":10535,"Ġrespective":10536,"Ġagents":10537,"Ġdiscret":10538,"Ġextinct":10539,"Ġindestr":10540,"angled":10541,"Ġeffecting":10542,"Ġtert":10543,"Ġenters":10544,"Ġentrust":10545,"Ġrealisation":10546,"ĠMotion":10547,"hematism":10548,"Ġfacta":10549,"Ġfacto":10550,"Ġ[*]":10551,"Ġimputation":10552,"Ġrefuses":10553,"Ġcommend":10554,"Ġintelligibility":10555,"Ġassures":10556,"experienced":10557,"Ġcharacterized":10558,"Ġcharacterizes":10559,"Ġius":10560,"Ġillumin":10561,"learned":10562,"ĠConcept":10563,"Ġobservers":10564,"Ġdefining":10565,"Ġmodus":10566,"Ġmodesty":10567,"Ġcopula":10568,"Ġsche":10569,"Ġanalyst":10570,"ĠJuly":10571,"Ġmethodology":10572,"Ġremarkably":10573,"speak":10574,"Ġdogmas":10575,"APPENDIX":10576,"Ġrelationship":10577,"Ġcoerc":10578,"Ġvariable":10579,"Ġmemory":10580,"ĠKey":10581,"Ġdenotes":10582,"faith":10583,"failed":10584,"ĠYes":10585,"descending":10586,"Ġlegislator":10587,"Ġharmonizes":10588,"differences":10589,"Ġundisturbed":10590,"simony":10591,"Ġyourselves":10592,"Ġaffirms":10593,"ĠArchitect":10594,"_.]":10595,"ĠAnalog":10596,"iverance":10597,"Ġdistinctive":10598,"Ġintrinsically":10599,"Ġleaden":10600,"ĠUniverse":10601,"justification":10602,"Ġsurreptitious":10603,"Ġorganisation":10604,"impression":10605,"Ġsupports":10606,"Ġsupporting":10607,"intelligibility":10608,"ĠExt":10609,"ĠImper":10610,"physiology":10611,"Ġraises":10612,"commend":10613,"Ġtested":10614,"Ġsignifications":10615,"Ġdisputation":10616,"satisfy":10617,"Ġacceptation":10618,"Ġoccasionally":10619,"Äłmod":10620,"ĠChange":10621,"originates":10622,"ĠANTITHESIS":10623,"conformability":10624,"Ġmarket":10625,"antecede":10626,"Ġ84":10627,"realitas":10628,"Ġprivativum":10629,"concealed":10630,"expressions":10631,"ÄłAn":10632,"Ġpracticable":10633,"Ġglorious":10634,"discovering":10635,"Ġreciprocity":10636,"Ġcrown":10637,"Ġsophistries":10638,"fallacies":10639,"Ġmistrust":10640,"Ġdestitute":10641,"accordant":10642,"Ġqualification":10643,"ĠDefect":10644,"ĠDependence":10645,"negation":10646,"Ġstrongest":10647,"Ġantecedentia":10648,"Ġstruck":10649,"kingdom":10650,"Äłequ":10651,"Ġintentionally":10652,"Ġdiscerning":10653,"humanity":10654,"Ġ2000":10655,"Ġ2004":10656,"Ġnecessitates":10657,"Ġprofesses":10658,"passages":10659,"Ġcontemplates":10660,"porated":10661,"Ġprototyp":10662,"Ġmonarchy":10663,"Ġguards":10664,"Ġguarding":10665,"Ġgenuineness":10666,"interpretation":10667,"steps":10668,"fortunate":10669,"concilable":10670,"Ġcuriosity":10671,"ĠÃ¦sthetical":10672,"Ġillustrating":10673,"Ġviolates":10674,"Ġinflex":10675,"Ġprimacy":10676,"versed":10677,"ĠMatthew":10678,"ÄłÄłÄłÄłÄłÄłÄłÄłÄłÄłÄłÄłÄłÄłÄłÄłÄłÄłÄłÄłÄłÄłÄłÄłÄłÄłÄłÄłÄłÄłÄłÄł":10679,"Ġanticipations":10680,"ĠPerhaps":10681,"deductible":10682,"transcendentally":10683,"ĠCONCEPTION":10684,"....":10685,"imperatives":10686,"Ġsubstantia":10687,"raise":10688,"raising":10689,"restricting":10690,"Ġhypocrisy":10691,"Ġliking":10692,"ĠPhysical":10693,"ĠPhenomenal":10694,"Ġcounterpo":10695,"Ġtells":10696,"arbitrarily":10697,"arbitrium":10698,"Ġannouncement":10699,"progression":10700,"Ġcommenced":10701,"SION":10702,"organised":10703,"Ġpremiss":10704,"ucidation":10705,"uctible":10706,"affirmative":10707,"ĠEBOOKS":10708,"agreeableness":10709,"searchable":10710,"Ġdimension":10711,"Ġentertained":10712,"boundaries":10713,"enlargement":10714,"Ġdetails":10715,"New":10716,"Ġrepeat":10717,"continuation":10718,"Ġerecting":10719,"Ġsensibilis":10720,"intuited":10721,"accidental":10722,"conducted":10723,"Ġwitnesses":10724,"dels":10725,"Ġappropriated":10726,"problematically":10727,"ĠIntuitions":10728,"Ġmundo":10729,"Ġhumiliating":10730,"qualities":10731,"deserving":10732,"practised":10733,"ĠSometimes":10734,"Ġphilosophize":10735,"Ġirreconcilable":10736,"Ġsteadfast":10737,"formulae":10738,"Ġtedious":10739,"Ġdetrimental":10740,"classification":10741,"Ġcoincides":10742,"Granted":10743,"deviate":10744,"Ġvacuum":10745,"Ġdescend":10746,"ĠANALOGY":10747,"Ġlurking":10748,"defective":10749,"ibrary":10750,"ĠRemarks":10751,"Ġcasts":10752,"acquire":10753,"Ġinextricable":10754,"annihilation":10755,"Ġstrengthens":10756,"cosmical":10757,"Ġembraced":10758,"Ġescaping":10759,"supported":10760,"Ġmerits":10761,"transcend":10762,"proportioned":10763,"PROJECT":10764,"eBooks":10765,"meritorious":10766,"reptio":10767,"Ġfacilitate":10768,"Ġcounsels":10769,"ĠCognition":10770,"Ġipso":10771,"confirms":10772,"IGHT":10773,"yielding":10774,"Ġincorporated":10775,"Ġpetty":10776,"ĠSensuous":10777,"Ġtroubling":10778,"Ġsanction":10779,"professing":10780,"accidentally":10781,"ipses":10782,"Ġamidst":10783,"principium":10784,"Synthetical":10785,"destination":10786,"dangerous":10787,"ĠPerson":10788,"Against":10789,"Ġtemperament":10790,"Ġstopped":10791,"ĠAntithetic":10792,"searches":10793,"ĠCHAPTER":10794,"smelling":10795,"substratum":10796,"ĠConsciousness":10797,"Ġfancied":10798,"ĠGospel":10799,"Ġindulge":10800,"ĠDOCTRIN":10801,"Ġassertorically":10802,"ĠMonadists":10803,"vellous":10804,"commercium":10805,"omaton":10806,"ĠTRANSITION":10807,"Fourthly":10808,"mdash":10809,"Ġcursory":10810,"Ġsearched":10811,"opolitan":10812,"intuitus":10813,"Ġsystematically":10814,"WARRANTIES":10815,"ĠDecember":10816,"Ġcushion":10817,"Ġgenealogical":10818,"Ġunanimously":10819,"Ġindestructible":10820,"Ġprototype":10821,"ĠCONCEPTIONS":10822,"Ġcounterpoise":10823,"ĠDOCTRINE":10824,"02":10825,"49":10826,"51":10827,"58":10828,"59":10829,"60":10830,"61":10831,"63":10832,"65":10833,"66":10834,"73":10835,"78":10836,"Ant":10837,"Arist":10838,"DING":10839,"My":10840,"Part":10841,"VII":10842,"aple":10843,"dam":10844,"fru":10845,"gest":10846,"hi":10847,"hind":10848,"hyp":10849,"ik":10850,"iage":10851,"lose":10852,"sought":10853,"sciences":10854,"uff":10855,"uck":10856,"voc":10857,"water":10858,"xious":10859,"Ã´":10860,"Î¿":10861,"ÏĦ":10862,"Ġility":10863,"heart":10864,"Ġase":10865,"onstr":10866,"Ġoy":10867,"itement":10868,"Ġwal":10869,"Ġcing":10870,"Ġcou":10871,"Ġcover":10872,"Ġpoly":10873,"Ġinit":10874,"Ġiness":10875,"Ġinstructive":10876,"Ġinnate":10877,"Ġbi":10878,"Ġber":10879,"orter":10880,"Ġmill":10881,"Ġmast":10882,"Ġeff":10883,"Ġishing":10884,"Ġreat":10885,"Ġrecall":10886,"start":10887,"omp":10888,"omas":10889,"oty":10890,"lled":10891,"Ġexceed":10892,"Ġlust":10893,"Ġlux":10894,"urp":10895,"Äłon":10896,"Äłph":10897,"Äłwh":10898,"Äłso":10899,"Äłag":10900,"Äłreg":10901,"Äłdist":10902,"ÄłRE":10903,"Äłatt":10904,"ÄłPro":10905,"Äłgu":10906,"istr":10907,"ift":10908,"Ġdeb":10909,"Ġreasonably":10910,"ilig":10911,"ilibrium":10912,"Ġintimate":10913,"abol":10914,"abiding":10915,"Ġrain":10916,"Ġrude":10917,"Ġriver":10918,"estic":10919,"Ġvig":10920,"Ġemotion":10921,"Ġtriang":10922,"useful":10923,"erect":10924,"Ġnobl":10925,"Ġabol":10926,"Ġimmortal":10927,"Ġpermissible":10928,"Ġshine":10929,"ĠAlex":10930,"care":10931,"Ġreliable":10932,"ĠPl":10933,"Ġador":10934,"sohn":10935,"bear":10936,"ĠSciences":10937,"ĠThomas":10938,"Ġcha":10939,"ĠOW":10940,"ensity":10941,"Ġsubt":10942,"amorph":10943,"prepar":10944,"pregn":10945,"premacy":10946,"Ġgenerates":10947,"ĠCOM":10948,"compl":10949,"Ġene":10950,"Ġdescribes":10951,"ĠHistory":10952,"Ġposed":10953,"acknowled":10954,"Ġenduring":10955,"Ġdiscord":10956,"ÃĦÅĤl":10957,"Ġindol":10958,"lessly":10959,"Ġstrain":10960,"Ġstriving":10961,"Ġnormal":10962,"Ġcompelling":10963,"Ġexpressing":10964,"Ġexpressly":10965,"strugg":10966,"contempor":10967,"Ġconfident":10968,".âĢĿ]":10969,"Ġpassion":10970,"Ġinfluenced":10971,"Ġ32":10972,"Ġ34":10973,"obst":10974,"Ġpromising":10975,"Ġregulated":10976,"Ġundes":10977,"Ġasking":10978,"Ġpainful":10979,"Ġforest":10980,"Ġcreative":10981,"compass":10982,"ĠStaple":10983,"icipations":10984,"Ġ69":10985,"Ġconverted":10986,"Ġdefects":10987,"cheson":10988,"STAN":10989,"apprehend":10990,"Ġstarting":10991,"Ġordin":10992,"ĠCauses":10993,"Ġviolate":10994,"Ġtender":10995,"Ġmeantime":10996,"Ġmovement":10997,"Ideas":10998,"poseless":10999,"Ġimplying":11000,"Ġsettlement":11001,"opportunity":11002,"ĠGrotius":11003,"Ġfamily":11004,"ĠIntroduction":11005,"circumstances":11006,"Ġfacility":11007,"precepts":11008,"ĠSensibility":11009,"ĠMendels":11010,"functions":11011,"ĠAbbott":11012,"Ġmisleading":11013,"Ġfalsity":11014,"Ġlanguages":11015,"ĠSchematism":11016,"augment":11017,"Ġpicture":11018,"settlement":11019,"edeutic":11020,"Ġtriangles":11021,"ĠStapleton":11022,"ĠMendelssohn":11023,"74":11024,"76":11025,"99":11026,";[":11027,"Even":11028,"Nature":11029,"Natural":11030,"Other":11031,"RAP":11032,"aver":11033,"besides":11034,"ding":11035,"eth":11036,"hitherto":11037,"iently":11038,"joys":11039,"lucidation":11040,"oca":11041,"pain":11042,"piece":11043,"rum":11044,"spirit":11045,"tre":11046,"ugg":11047,"vict":11048,"vidence":11049,"Â¢":11050,"Â¼":11051,"ĠZ":11052,"Ġnd":11053,"Ġener":11054,"ĠÄłÄł":11055,"Ġizing":11056,"Ġ*****":11057,"Ġtor":11058,"Ġties":11059,"Ġau":11060,"Ġathe":11061,"Ġawe":11062,"Ġake":11063,"Ġadequacy":11064,"instance":11065,"Ġoc":11066,"Ġopt":11067,"Ġocean":11068,"itated":11069,"Ġcun":11070,"Ġsqu":11071,"Ġswe":11072,"Ġption":11073,"icing":11074,"icros":11075,"Ġination":11076,"Ġinestim":11077,"Ġinconceivable":11078,"Ġblessed":11079,"orable":11080,"Ġmir":11081,"Ġff":11082,"Ġfain":11083,"Ġned":11084,"Ġishes":11085,"leology":11086,"Ġrecur":11087,"Ġresearches":11088,"Ġduc":11089,"Ġhide":11090,"Ġexchange":11091,"ceptible":11092,"iration":11093,"Äłul":11094,"Äłact":11095,"Äłend":11096,"Äłsol":11097,"Äłser":11098,"Äłass":11099,"Äłbl":11100,"Äładv":11101,"Äłexp":11102,"Äłsuper":11103,"Ġors":11104,"Ġorbits":11105,"ulog":11106,"cho":11107,"conversely":11108,"abilities":11109,"Ġ(=":11110,"umm":11111,"umat":11112,"Ġcommit":11113,"trod":11114,"Ġsold":11115,"Ġnative":11116,"Ġhed":11117,"Ġtries":11118,"Ġtrial":11119,"Ġtraces":11120,"suitable":11121,"succeed":11122,"Ġpertains":11123,"Ġjest":11124,"Ġusion":11125,"Ġified":11126,"phrase":11127,"ĠFairbanks":11128,"arten":11129,"ĠACT":11130,"Ġrelax":11131,"ĠPle":11132,"Ġappe":11133,"Ġying":11134,"Ġadorn":11135,"Ġdisappro":11136,"Ġdisadvantage":11137,"Ġarous":11138,"ĠSpirit":11139,"etched":11140,"Ġpreference":11141,"Ġpremise":11142,"ĠCartes":11143,"oyed":11144,"Ġgrou":11145,"igned":11146,"Ġences":11147,"Ġcontract":11148,"servation":11149,"ĠRIGHT":11150,"proves":11151,"ĠEL":11152,"Ġrationalism":11153,"ÃĦÅĤex":11154,"Ġexpend":11155,"Ġexpedient":11156,"mann":11157,"assistance":11158,"aven":11159,"conditio":11160,"Ġappearing":11161,"Ġacy":11162,"Ġapod":11163,"mediately":11164,"display":11165,"disinterested":11166,"Ġphysician":11167,"ĠConditions":11168,"Ġpurposively":11169,"ĠBeauty":11170,"Ġ29":11171,"Ġscale":11172,"ĠJudg":11173,".âĢĿ[":11174,"Ġequilibrium":11175,"Ġsuperficial":11176,"Ġdoubtless":11177,"Ġteleology":11178,"Ġmisfortune":11179,"faces":11180,"Ġartistic":11181,"righteous":11182,"Ġparabol":11183,"short":11184,"ARY":11185,"Äłcoun":11186,"Ġfrank":11187,"Äłprom":11188,"comput":11189,"ĠÃİ":11190,"Ġthirdly":11191,"Ġseparates":11192,"ĠREF":11193,"charge":11194,"Ġcountenance":11195,"Äłdev":11196,"Ġfavourite":11197,"specific":11198,"Ġclassed":11199,"Ġwriter":11200,"Ġ85":11201,"explicable":11202,"ĠSpinoz":11203,"Ġaccessible":11204,"Ġturned":11205,"Ġventuring":11206,"Professor":11207,"Ġexcuse":11208,"Ġpreserves":11209,"Ġmoves":11210,"Ġsucceeds":11211,"saying":11212,"Ġdecay":11213,"Ġsuggests":11214,"Ġhabitation":11215,"judici":11216,"cript":11217,"TRAD":11218,"Ġsuffices":11219,"Ġveh":11220,"Ġenlarging":11221,"generations":11222,"Ġscholar":11223,"secondly":11224,"Ġadaptation":11225,"Ġfortunate":11226,"Ġtendencies":11227,"Ġvanish":11228,"Ġtribes":11229,"untarily":11230,"Ġundertakes":11231,"Ideal":11232,"Ġpreferable":11233,"mechanical":11234,"agreeable":11235,"Ġpause":11236,"ocracy":11237,"ĠAmer":11238,"Ġbreaks":11239,"Ġincompatible":11240,"Ġruns":11241,"Ġtranslated":11242,"Philosophy":11243,"Philosophical":11244,"Ġtrustworthy":11245,"Ġsuffering":11246,"Ġpublish":11247,"balance":11248,"favourable":11249,"Ġsustain":11250,"agonism":11251,"ĠMethodology":11252,"Ġinspires":11253,"recognise":11254,"Ġfighting":11255,"forceability":11256,"Ġrefinement":11257,"cultivated":11258,"Ġundecided":11259,"Ġsurpasses":11260,"Ġtheorems":11261,"Ġmountain":11262,"Ġmountains":11263,"Ġdiame":11264,"Ġreports":11265,"fanaticism":11266,"Ã¢Ä¢Ä¿":11267,"ĠPERPETUAL":11268,"Ġincapacity":11269,"citiz":11270,"animals":11271,"Ġsuddenly":11272,"adapted":11273,"ĠSociety":11274,"build":11275,"Ġaverage":11276,"Ġaspirations":11277,"Ġcunning":11278,"Ġsquare":11279,"ĠACTUAL":11280,"ĠCartesian":11281,"Ġparabola":11282,"App":11283,"Che":11284,"Categor":11285,"DAMAG":11286,"End":11287,"His":11288,"Log":11289,"Law":11290,"Logic":11291,"Mod":11292,"MAL":11293,"NER":11294,"Possib":11295,"RI":11296,"Reven":11297,"US":11298,"ause":11299,"aedeutic":11300,"back":11301,"bnew":11302,"cence":11303,"cover":11304,"cible":11305,"dimin":11306,"flection":11307,"iers":11308,"iency":11309,"kl":11310,"leness":11311,"oples":11312,"ron":11313,"splend":11314,"welf":11315,"Ïģ":11316,"Ġ&":11317,"Ġq":11318,"Ġich":11319,"Ġject":11320,"Ġern":11321,"Ġicism":11322,"Ġides":11323,"Ġiving":11324,"Ġame":11325,"Ġaequ":11326,"inf":11327,"inent":11328,"received":11329,"itating":11330,"enment":11331,"athe":11332,"erv":11333,"erum":11334,"Ġwind":11335,"Ġwarr":11336,"Ġcert":11337,"Ġcodes":11338,"Ġpushed":11339,"esca":11340,"Ġms":11341,"Ġfood":11342,"anci":11343,"Ġnis":11344,"security":11345,"secret":11346,"Ġith":11347,"Ġdial":11348,"Ġdull":11349,"Ġdilig":11350,"omit":11351,"aris":11352,"utcheson":11353,"ascribed":11354,"Ġprize":11355,"Ġprogram":11356,"Ġually":11357,"ivoca":11358,"thening":11359,"immortality":11360,"Ġexempl":11361,"Ġloses":11362,"depre":11363,"depart":11364,"Ġsupremacy":11365,"Äłed":11366,"Äłut":11367,"Äłif":11368,"Äłve":11369,"Äłnot":11370,"Äłout":11371,"Äłte":11372,"Äłform":11373,"Äłha":11374,"Äłfa":11375,"Äłap":11376,"Äłvol":11377,"Äłgl":11378,"Äłgener":11379,"ÄłÃĥ":11380,"ogue":11381,"istration":11382,"andal":11383,"uls":11384,"romise":11385,"Ġallot":11386,"Ġallied":11387,"usy":11388,"met":11389,"pled":11390,"Ġuntr":11391,"selfish":11392,"tract":11393,"tradict":11394,"Ġran":11395,"Ġsport":11396,"Ġworse":11397,"Ġva":11398,"ĠBa":11399,"Ġtranqu":11400,"gel":11401,"foreign":11402,"supposing":11403,"pron":11404,"Ġjoy":11405,"Ġusurp":11406,"Ġstock":11407,"Ġstored":11408,"Ġshorter":11409,"ĠFurther":11410,"artic":11411,"ĠAre":11412,"exec":11413,"externally":11414,"unted":11415,"Ġdismis":11416,"Ġdispleases":11417,"Ġarouse":11418,"ĠOb":11419,"ĠNoumen":11420,"amm":11421,"prejud":11422,"Ġpredecess":11423,"ĠCAN":11424,"ĠGenius":11425,"ĠIntelligence":11426,"forming":11427,"Ġowe":11428,"web":11429,"weak":11430,"weck":11431,"Ġfounding":11432,"gory":11433,"Ġremembered":11434,"manently":11435,"ĠMore":11436,"Ġherein":11437,"cognise":11438,"Ġpointed":11439,"Ġcorpor":11440,"ĠLI":11441,"ĠLL":11442,"Ġcompulsion":11443,"Ġcompromise":11444,"empty":11445,"Ġium":11446,"contrib":11447,"Introd":11448,"ĠCont":11449,"Ġsuccessively":11450,"Ġconfusing":11451,"Ġ28":11452,"Ġsolemn":11453,"Ġcommanding":11454,"Ġmischief":11455,"Ġcoat":11456,"mense":11457,"Ġ33":11458,"Ġprompt":11459,"Ġobligatory":11460,"Ġawa":11461,"Ġconsciously":11462,"corporeal":11463,"noble":11464,"philosoph":11465,"Ġinvoluntarily":11466,"Ġthreefold":11467,"Ġanalyses":11468,"Ġcorrecting":11469,"ailing":11470,"Äłche":11471,"Ġoffence":11472,"apse":11473,"Ġvainly":11474,"remaining":11475,"Ġdeline":11476,"Ġexclusive":11477,"ĠKantian":11478,"Ġarbitration":11479,"Ġintersect":11480,"Ġseparating":11481,"charm":11482,"ursively":11483,"Ġacceptance":11484,"Ġoccasioned":11485,"accustomed":11486,"ĠChurch":11487,"ruin":11488,"originated":11489,".)[":11490,"Ġreflected":11491,"Ġproductions":11492,"Ġafforded":11493,"Ġcanons":11494,"Ġexcus":11495,"Ġversion":11496,"Ġverbal":11497,"Ġhumour":11498,"adequately":11499,"Ġqualified":11500,"check":11501,"ĠPUBL":11502,"Ġdisappearance":11503,"potence":11504,"ÄłDe":11505,"ĠCausality":11506,"Ġguarded":11507,"ÄłEx":11508,"infinitely":11509,"Ġveiled":11510,"Ġaccomplishes":11511,"difficult":11512,"Ġlarger":11513,"mock":11514,"additions":11515,"ĠCommon":11516,"ĠMaterial":11517,"attributing":11518,"maintains":11519,"ĠGreeks":11520,"Ġlinked":11521,"analysed":11522,"Ġhyperbol":11523,"Ġstops":11524,"country":11525,"Ġthreatened":11526,"Ġcommunicability":11527,"Ġslip":11528,"retched":11529,"Ġprospects":11530,"figur":11531,"Ġentertainment":11532,"Ġsubstituting":11533,"Ġinstructs":11534,"Ġmachines":11535,"apodeictical":11536,"Deity":11537,"ĠAbout":11538,"blesome":11539,"Ġwait":11540,"Ġascertaining":11541,"Ġbinds":11542,"imagin":11543,"imagined":11544,"Ġdesignedly":11545,"comprehended":11546,"Ġhealthy":11547,"treatment":11548,"excited":11549,"probable":11550,"Ġrevealed":11551,"disputes":11552,"Ġanxious":11553,"ipped":11554,"Ġcomprised":11555,"admiration":11556,"Ġdeficiency":11557,"CEPT":11558,"ĠAGREEMENT":11559,"Ġvalued":11560,"Ġeducational":11561,"ĠSUB":11562,"skill":11563,"Ġvisionary":11564,"Ġresponsible":11565,"obscure":11566,"Ġreported":11567,"chievous":11568,"Ġshallowness":11569,"Ġference":11570,"exactly":11571,"serviceable":11572,"Ġenvy":11573,"Ġwandering":11574,"Ġfantastic":11575,"ĠFOUND":11576,"Ġenthusiasm":11577,"ĠLatin":11578,"Ġauthenticated":11579,"facility":11580,"noisseurs":11581,"Ġscheme":11582,"Aristotle":11583,"Ġwalks":11584,"Ġluxury":11585,"Ġnoblest":11586,"ĠAlexander":11587,"Ġchaos":11588,"Ġindolence":11589,"RAPH":11590,"ĠPleasant":11591,"Ġappeals":11592,"TRADEM":11593,"Ġdiameter":11594,"ĠNoumena":11595,"\"),":11596,"($":11597,")?":11598,".).":11599,"Between":11600,"Critical":11601,"Creating":11602,"Criticism":11603,"EI":11604,"Europe":11605,"FORE":11606,"GHT":11607,"GENERAL":11608,"NOW":11609,"RTH":11610,"STHE":11611,"Thing":11612,"Updated":11613,"USION":11614,"bor":11615,"bur":11616,"bungl":11617,"cob":11618,"drop":11619,"ein":11620,"etry":11621,"fict":11622,"fare":11623,"gone":11624,"garten":11625,"hop":11626,"lix":11627,"mil":11628,"mast":11629,"null":11630,"oops":11631,"rhapsod":11632,"sid":11633,"sies":11634,"table":11635,"temper":11636,"Â©":11637,"Ġived":11638,"Ġutes":11639,"ĠÄłÄłÄłÄł":11640,"Ġ00":11641,"Ġibility":11642,"Ġxi":11643,"Ġtil":11644,"Ġtears":11645,"Ġaly":11646,"Ġath":11647,"Ġaking":11648,"incomp":11649,"internally":11650,"inery":11651,"influences":11652,"reve":11653,"resem":11654,"itus":11655,"itatively":11656,"isol":11657,"enry":11658,"encour":11659,"enforceability":11660,"atical":11661,"attr":11662,"attel":11663,"Ġwond":11664,"Ġwax":11665,"Ġwretched":11666,"Ġcub":11667,"Ġsi":11668,"Ġson":11669,"Ġsand":11670,"Ġpose":11671,"Ġpomp":11672,"Ġinform":11673,"Ġinsen":11674,"Ġinexplicable":11675,"Ġbal":11676,"Ġmover":11677,"celebrated":11678,"Ġfut":11679,"Ġfect":11680,"Ġfame":11681,"Ġfrees":11682,"ancial":11683,"ederation":11684,"Ġeulog":11685,"Ġitas":11686,"Ġrely":11687,"Ġreward":11688,"Ġdu":11689,"Ġdrew":11690,"Ġcone":11691,"Ġconcess":11692,"Ġconducive":11693,"stain":11694,"stud":11695,"Ġbeque":11696,"Ġbefits":11697,"arond":11698,"Ġhat":11699,"Ġhing":11700,"Ġhole":11701,"ectyp":11702,"Ġprae":11703,"Ġproud":11704,"Ġude":11705,"Ġured":11706,"ivae":11707,"imm":11708,"osoph":11709,"Ġane":11710,"Ġanom":11711,"Ġliable":11712,"Ġlibrary":11713,"Ġnotes":11714,"Ġnotifies":11715,"develop":11716,"ibl":11717,"Ġgone":11718,"Ġgbnew":11719,"Äłpar":11720,"Äłpart":11721,"Äłdif":11722,"ÄłUn":11723,"ĠIM":11724,"Ġorg":11725,"Ġcanst":11726,"andi":11727,"ando":11728,"anded":11729,"peror":11730,"Ġdeter":11731,"Ġdelet":11732,"vered":11733,"Ġprolix":11734,"conqu":11735,"consol":11736,"ateful":11737,"Ġared":11738,"ilation":11739,"ilanthrop":11740,"Ġinte":11741,"empiric":11742,"emonstr":11743,"idity":11744,"Ġatio":11745,"Ġ(\"":11746,"planation":11747,"places":11748,"pliance":11749,"placing":11750,"olens":11751,"Ġunre":11752,"Ġunsol":11753,"Ġunqual":11754,"Ġunusual":11755,"ditional":11756,"Ġcaution":11757,"ansion":11758,"iestle":11759,"tranqu":11760,"Ġry":11761,"Ġrot":11762,"Ġrose":11763,"Ġrival":11764,"Ġnatura":11765,"Ġvon":11766,"Ġvast":11767,"Ġsecre":11768,"Ġexistent":11769,"Ġtra":11770,"suff":11771,"supposed":11772,"Ġformative":11773,"Ġimpregn":11774,"Ġperish":11775,"Ġkat":11776,"Ġstood":11777,"Ġshame":11778,"Ġshared":11779,"ĠFull":11780,"ĠAK":11781,"ĠAP":11782,"ĠAff":11783,"exto":11784,"exert":11785,"Ġquoted":11786,"Ġevade":11787,"ource":11788,"uns":11789,"ĠPAR":11790,"Ġyp":11791,"Ġdiscontent":11792,"Ġdiscontinue":11793,"Ġdisplays":11794,"sequent":11795,"Ġknowable":11796,"positions":11797,"ĠScept":11798,"ĠSEND":11799,"ĠSalt":11800,"etus":11801,"Ġeverybody":11802,"ysms":11803,"ague":11804,"Ġphilanthrop":11805,"ĠNearly":11806,"Ġsubdivided":11807,"amps":11808,"preponder":11809,"nesses":11810,"ĠCity":11811,"ĠGover":11812,"ĠWILL":11813,"ĠWORK":11814,"imitable":11815,"orting":11816,"Theology":11817,"Ġenc":11818,"ĠHarmon":11819,"serv":11820,"Ġobsole":11821,"Ġdistrust":11822,"ishable":11823,"deriv":11824,"Ġfollowers":11825,"proposed":11826,"ĠES":11827,"ĠEmail":11828,"ĠElucidation":11829,"ÃĦÅĤr":11830,"ÃĦÅĤv":11831,"ÃĦÅĤdis":11832,"Ġextol":11833,"Ġextingu":11834,"earth":11835,"Ġindiv":11836,"session":11837,"Ġoutdated":11838,"Ġexporting":11839,"Ġamply":11840,"woven":11841,"Ġentities":11842,"Ġentrance":11843,"ĠDirect":11844,"ĠDON":11845,"mankind":11846,"assent":11847,"ĠProvidence":11848,"Ġimpure":11849,"determinable":11850,"arks":11851,"Ġcharitable":11852,"ĠUS":11853,"Ġrefute":11854,"Ġrefused":11855,"Ġrefusing":11856,"Ġinteresting":11857,"Ġstray":11858,"apparent":11859,"appeared":11860,"Ġpeoples":11861,"Ġcompilation":11862,"identical":11863,"Ġcloud":11864,"ginia":11865,"contrast":11866,"Inasmuch":11867,"Ġdeductible":11868,"Ġpredicating":11869,"Ġpredicables":11870,"Ġpredicaments":11871,"Ġfinancial":11872,"Ġderiving":11873,"subscribe":11874,"ĠContrib":11875,"fering":11876,"ĠBecause":11877,"Ġdefiniteness":11878,"contact":11879,"Ġboundless":11880,"ĠTHOS":11881,"Ġconfidently":11882,"Ġimagined":11883,"array":11884,"Ġscandal":11885,"Ġanalyz":11886,"Ġdogma":11887,"ĠPriestle":11888,"Ġuting":11889,"Ġnonpropr":11890,"Ġmissed":11891,"Ġmisinterpretation":11892,"Ġdemonstrable":11893,"Ġopens":11894,"Ġexpecting":11895,"ĠKings":11896,"dequateness":11897,"Ġprominent":11898,"Ġidentification":11899,"desired":11900,"Ġaddresses":11901,"extends":11902,"request":11903,"Ġclaiming":11904,"fees":11905,"simplicity":11906,"ontal":11907,"Ġ53":11908,"Ġ596":11909,"bruary":11910,"legality":11911,"happily":11912,"ocate":11913,"ĠVattel":11914,"goals":11915,"Ġdistributive":11916,"Äłcrit":11917,"Ġblow":11918,"rench":11919,"ĠExec":11920,"Äłpost":11921,"Ġapproved":11922,"ometry":11923,"Ġexcluding":11924,"compressed":11925,"Ġcheer":11926,"Ġchemist":11927,"inclined":11928,"Ġrock":11929,"Ġinterwoven":11930,"thoughts":11931,"Ġensuring":11932,"Ġpropension":11933,"ĠREPL":11934,"volunteers":11935,"charities":11936,"Ġflight":11937,"Ġoccasioning":11938,"conceptus":11939,"Äłden":11940,"ĠChief":11941,"confounded":11942,"Ġsceptic":11943,"iminished":11944,"ĠPhilosophical":11945,"explanations":11946,"Ġurges":11947,"Ġaccessed":11948,"predicaments":11949,"Ġpractised":11950,"Ġopenly":11951,"observe":11952,"Ġgoverned":11953,"Ġsentimental":11954,"Ġbestowed":11955,"Beyond":11956,"Ġmistaking":11957,"Ġmovable":11958,"Ġverify":11959,"Ġbehold":11960,"Ġdeviations":11961,"Ġstrengthening":11962,"Ġoccurring":11963,"maximum":11964,"Ġincreases":11965,"neglect":11966,"STEM":11967,"JECTIVE":11968,"settled":11969,"Ġrenamed":11970,"Ġrenounced":11971,"Ġcontemplate":11972,"LIABILITY":11973,"LIABLE":11974,"Quod":11975,"Ġprotection":11976,"Ġexecutive":11977,"Ġmonstr":11978,"Ġsearching":11979,"Ġattacked":11980,"unteer":11981,"ACEMENT":11982,"judges":11983,"Ġvex":11984,"ĠWhole":11985,"equally":11986,"Ġscholars":11987,"Ġpermits":11988,"Ġprepares":11989,"Ġinfancy":11990,"modi":11991,"ĠCompliance":11992,"Ġhinders":11993,"Ġcivilised":11994,"analytically":11995,"collect":11996,"until":11997,"correctly":11998,"Ġdeprived":11999,"ĠPerception":12000,"Ġlegitimately":12001,"ĠAlaska":12002,"raised":12003,"Ġdictated":12004,"persons":12005,"Ġdealing":12006,"Ġomnipresence":12007,"AGRAPH":12008,"Ġcleared":12009,"distribution":12010,"Ġreplaced":12011,"Ġannounces":12012,"Ġannounced":12013,"Ġdecidedly":12014,"ĠQuality":12015,"affecting":12016,"capit":12017,"Ġslow":12018,"designed":12019,"Ġdespair":12020,"schemat":12021,"individuals":12022,"Ġerroneously":12023,"Ġhundreds":12024,"Ġstruggling":12025,"801":12026,"Ġincumb":12027,"constructed":12028,"INCIDENTAL":12029,"remarks":12030,"ĠEXCEPT":12031,"ĠNewby":12032,"ĠDIRECT":12033,"Ġalternate":12034,"1887":12035,"getable":12036,"Ġmystical":12037,"Ġhesitation":12038,"singular":12039,"Ġinstincts":12040,"Ġdeceit":12041,"classes":12042,"throwing":12043,"Ġcompassion":12044,"501":12045,"exhibit":12046,"Ġsolicitation":12047,"bringing":12048,"excite":12049,"increase":12050,"Causality":12051,"Ġrestrained":12052,"ĠBEFORE":12053,"Ġvaluable":12054,"Ġemployee":12055,"momenta":12056,"Ġeducation":12057,"heterogeneous":12058,"Ġectyp":12059,"ĠINDEMNITY":12060,"ĠMission":12061,"Ġpressure":12062,"PROVIDED":12063,"liability":12064,"Ġmasses":12065,"major":12066,"detect":12067,"Ġdenominated":12068,"Ġswamp":12069,"Ġtransgressing":12070,"creatures":12071,"Ġredistribute":12072,"Ġparents":12073,"Ġweariness":12074,"Ġparadoxical":12075,"hetoric":12076,"performing":12077,"Ġtroublesome":12078,"obscurity":12079,"Ġinsisted":12080,"Ġsanct":12081,"Ġelucidate":12082,"Ġbeneficence":12083,"fanci":12084,"Ġseduced":12085,"Ġprolonged":12086,"incerity":12087,"privilege":12088,"Ġsmooth":12089,"Ġmingles":12090,"Ġdrops":12091,"ĠPGLA":12092,"ĠPostulates":12093,"Ġarticle":12094,"ĠRedistribution":12095,"ĠRedistributing":12096,"impulses":12097,"ĠDISTRIBUTE":12098,"ĠDISTRIBUTOR":12099,"humili":12100,"Ġnetwork":12101,"Ġunconsciously":12102,"Ġadversary":12103,"Ġappetite":12104,"Ġdissip":12105,"Ġsurrounded":12106,"Ġzealous":12107,"Ġchalleng":12108,"ĠEDITION":12109,"Ġ997":12110,"easily":12111,"ĠAdditional":12112,"familiar":12113,"warranties":12114,"Ġnovelty":12115,"ĠPOSSIBILITY":12116,"PLEASE":12117,"6221541":12118,"ĠGregory":12119,"Volunteers":12120,"Ġtheologians":12121,"Ġincomprehensibility":12122,"Ġunlink":12123,"ĠIRS":12124,"Pleasure":12125,"twofold":12126,"ĠFebruary":12127,"ortunities":12128,"Ġcoercion":12129,"ĠAnalogies":12130,"Ġ84116":12131,"fruitful":12132,"hindrances":12133,"ĠOWNER":12134,"Ġinestimable":12135,"Ġgroup":12136,"ĠREFUND":12137,"judicium":12138,"DAMAGE":12139,"Revenue":12140,"welfare":12141,"Ġcorporation":12142,"ĠContact":12143,"Ġexcusable":12144,"ĠPUBLIC":12145,"ĠFOUNDATION":12146,"TRADEMARK":12147,"Ġinsensibly":12148,"Ġfutile":12149,"Ġgbnewby":12150,"Ġdeletions":12151,"Ġunsolicited":12152,"Ġunqualified":12153,"ĠPARAGRAPH":12154,"ĠGovernor":12155,"ĠHarmony":12156,"Ġobsolete":12157,"ĠDirector":12158,"ĠContributions":12159,"ĠTHOSE":12160,"ĠPriestley":12161,"Ġnonproprietary":12162,"ĠExecutive":12163,"ĠREPLACEMENT":12164,"Ġincumbent":12165,"ĠPGLAF":12166,"04":12167,"84":12168,"BC":12169,"Certain":12170,"Human":12171,"Have":12172,"Ju":12173,"Love":12174,"Locke":12175,"Ob":12176,"Plato":12177,"Upon":12178,"Unt":12179,"UTION":12180,"XI":12181,"][":12182,"]]":12183,"acid":12184,"dent":12185,"doll":12186,"efficient":12187,"fix":12188,"fancy":12189,"homogeneity":12190,"iary":12191,"lcome":12192,"mund":12193,"nicious":12194,"pob":12195,"putable":12196,"rd":12197,"rus":12198,"ront":12199,"sin":12200,"sake":12201,"sided":12202,"useless":12203,"upright":12204,"uphold":12205,"wished":12206,"Â¦":12207,"Ã¡":12208,"Î±":12209,"Ġime":12210,"Ġension":12211,"Ġtib":12212,"Ġtrem":12213,"Ġtutor":12214,"head":12215,"Ġave":12216,"Ġaversion":12217,"inen":12218,"inward":12219,"inning":12220,"inability":12221,"instrum":12222,"Ġoub":12223,"reject":12224,"reach":12225,"repe":12226,"recommend":12227,"enc":12228,"eries":12229,"Ġwrest":12230,"Ġcrowd":12231,"Ġsion":12232,"Ġsed":12233,"Ġsend":12234,"Ġsadly":12235,"Ġpill":12236,"Ġpush":12237,"alleg":12238,"icero":12239,"Ġinan":12240,"Ġined":12241,"Ġincur":12242,"Ġincompar":12243,"esy":12244,"orably":12245,"origination":12246,"Ġtow":12247,"animity":12248,"seq":12249,"Ġites":12250,"Ġitable":12251,"Ġreap":12252,"Ġrenew":12253,"Ġreproduction":12254,"Ġreserved":12255,"Ġrerum":12256,"Ġdress":12257,"Ġdiction":12258,"Ġcondem":12259,"starr":12260,"Ġbeaut":12261,"omnit":12262,"Ġhour":12263,"Ġascribes":12264,"Ġub":12265,"ivial":12266,"theore":12267,"theism":12268,"theile":12269,"thened":12270,"Ġangu":12271,"Ġexcess":12272,"Ġexhort":12273,"Ġlif":12274,"Ġlucid":12275,"pth":12276,"Ġforfe":12277,"Ġforbear":12278,"Ġweighed":12279,"Ġwelcome":12280,"detr":12281,"ibibl":12282,"Ġsunt":12283,"ciate":12284,"ldarond":12285,"Äłce":12286,"Äłog":12287,"Äłmon":12288,"ÄłThe":12289,"Äłmed":12290,"Äłav":12291,"Äłcont":12292,"Äłarr":12293,"Äłno":12294,"Äłcomm":12295,"Äłprov":12296,"Äłsupp":12297,"Äłcommun":12298,"ograph":12299,"Ġorn":12300,"iffe":12301,"permit":12302,"persist":12303,"perpetual":12304,"perplex":12305,"pertains":12306,"perpetually":12307,"persuasion":12308,"sels":12309,"âĢĺ":12310,"veil":12311,"ĠTION":12312,"condemn":12313,"conjunct":12314,"Ġalarm":12315,"Ġintact":12316,"abile":12317,"Ġung":12318,"Ġuner":12319,"Ġunchanged":12320,"Ġunalter":12321,"Ġcautious":12322,"minor":12323,"ansas":12324,"umgarten":12325,"tried":12326,"offer":12327,"Ġrandom":12328,"Ġspot":12329,"Ġven":12330,"Ġvii":12331,"Ġtroops":12332,"Ġtrivial":12333,"suppos":12334,"prag":12335,"print":12336,"posits":12337,"Ġimproved":12338,"Ġpermanently":12339,"Ġpernicious":12340,"antas":12341,"indifference":12342,"Ġjugg":12343,"Ġify":12344,"Ġstim":12345,"Ġregret":12346,"outset":12347,"Ġshar":12348,"Ġshake":12349,"ĠFAC":12350,"ĠFrench":12351,"excell":12352,"exhaust":12353,"unite":12354,"uncertain":12355,"unnecessary":12356,"uniting":12357,"uncertainty":12358,"unceasing":12359,"uniform":12360,"Ġmanhood":12361,"Ġaccum":12362,"Ġaccused":12363,"ĠPublic":12364,"Ġappend":12365,"),[":12366,"Ġars":12367,"Ġarmed":12368,"beho":12369,"ĠSing":12370,"ĠSimilarly":12371,"ĠSMAL":12372,"enerally":12373,"strong":12374,"Ġchamp":12375,"etting":12376,"open":12377,"ensome":12378,"ĠName":12379,"Ġsubdivisions":12380,"Ġsubsid":12381,"prefer":12382,"dued":12383,"Ġprefers":12384,"Ġpreponder":12385,"oying":12386,"ĠGenerally":12387,"Ġserv":12388,"Ġdiff":12389,"ĠWell":12390,"Ġcompleting":12391,"commen":12392,"Ġcontending":12393,"Theoretical":12394,"Ġeness":12395,"Ġenunciation":12396,"Ġdesist":12397,"ĠHas":12398,"overer":12399,"âĢĿ.":12400,"Ġfeat":12401,"Ġfeas":12402,"Ġfeature":12403,"ÃĦÅĤC":12404,"ÃĦÅĤD":12405,"ÃĦÅĤpr":12406,"paradox":12407,"Ġexpansion":12408,"anged":12409,"angle":12410,"oked":12411,"ĠMr":12412,"ĠMatter":12413,"Ġfacti":12414,"Ġimpelling":12415,"Ġcharms":12416,"Ġkindness":12417,"Ġcommencing":12418,"flown":12419,"Ġstranger":12420,"canon":12421,"Ġhandle":12422,"Ġcompatible":12423,"identity":12424,"Ġdivides":12425,"Ġpleased":12426,"dissimilar":12427,"Ġpresume":12428,"Ġsums":12429,"Ġert":12430,"knowing":12431,"reluct":12432,"Ġrulers":12433,"subordinate":12434,"athom":12435,"Ġediting":12436,"Ġneeding":12437,"Ġarrog":12438,"contend":12439,"Ġbounded":12440,"arrived":12441,"arrogant":12442,"Ġexerted":12443,"Ġwanted":12444,"Ġlesson":12445,"Ġmethodical":12446,"bitious":12447,"amination":12448,"Ġnonentity":12449,"Ġmisuse":12450,"Ġcoar":12451,"Ġcool":12452,"Ġhero":12453,"Ġheroes":12454,"Ġ39":12455,"Ġconducting":12456,"Ġcosmopolitan":12457,"Äłsl":12458,"Äłsim":12459,"Ġarticulation":12460,"Ġbridge":12461,"describe":12462,"Ġception":12463,"Ġceased":12464,"Äłinf":12465,"Ġwarm":12466,"requiring":12467,"simultaneous":12468,"Ġcombining":12469,"correction":12470,"somewhat":12471,"noxious":12472,"Ġtransport":12473,"Ġendeavor":12474,"Ġanalogical":12475,"Ġ43":12476,"Ġpretty":12477,"Ġpretends":12478,"Ġoperates":12479,"Ġmeditation":12480,"INT":12481,"Äłcol":12482,"justifies":12483,"Ġendeavouring":12484,"Ġfrail":12485,"Ġfrustr":12486,"sensuously":12487,"attached":12488,"Ġforever":12489,"causal":12490,"ĠExist":12491,"ĠExamination":12492,"Äłpo":12493,"ĠImmortality":12494,"ipid":12495,"remove":12496,"Ġapprobation":12497,"ROLL":12498,"Ġletters":12499,"Ġarranges":12500,"respects":12501,"respecting":12502,"respective":12503,"iterated":12504,"Ġpeaceful":12505,"CEDU":12506,"Ġinterference":12507,"Ġinterfering":12508,"Ġensure":12509,"Ġensures":12510,"Ġpropag":12511,"Ġpropaedeutic":12512,"Ġacquires":12513,"Ġ68":12514,"insipid":12515,"thinker":12516,"Ġirrespective":12517,"possessions":12518,"Äłdiv":12519,"Ġindisputable":12520,"guarante":12521,"Ġmetals":12522,"Ġclassification":12523,"comprehension":12524,"Ġsecured":12525,"ÄłPh":12526,"ÄłPer":12527,"lightenment":12528,"firstly":12529,"Ġexperiments":12530,"ÄłCh":12531,"matters":12532,"Ġsketched":12533,"attaining":12534,"Prot":12535,"Ġately":12536,"continual":12537,"Ġdestiny":12538,"ugn":12539,"Ġcapital":12540,"Ġcommunis":12541,"Ġgovernor":12542,"negations":12543,"Äłvar":12544,"Ġenjoying":12545,"Ġfewer":12546,"pretext":12547,"Ġsuggestions":12548,"Ġprofessions":12549,"supplied":12550,"Ġtwist":12551,"Ġguardian":12552,"Ġimitate":12553,"Ġimitating":12554,"ĠEveryone":12555,"Ġinjuring":12556,"Ġenlarges":12557,"equivalent":12558,"Ġsympat":12559,"obligatory":12560,"Ġtransgresses":12561,"Ġviolation":12562,"Ġpoet":12563,"Ġ120":12564,"directs":12565,"directing":12566,"Ġrooted":12567,"collected":12568,"Ġobeys":12569,"correctness":12570,"Ġdeprives":12571,"ĠPerfect":12572,"advantageous":12573,"Existence":12574,"Examples":12575,"Ġridicule":12576,"ĠChristians":12577,"personal":12578,"materialiter":12579,"abstracted":12580,"ĠCategorical":12581,"needing":12582,"Ġimparted":12583,"Ġspectacle":12584,"ĠMeanwhile":12585,"authors":12586,"constructions":12587,"Ġobscurely":12588,"ULAR":12589,"ULTY":12590,"results":12591,"Ġously":12592,"Ġinherence":12593,"Ġcommunicate":12594,"Ġinstitution":12595,"Ġpropensities":12596,"ĠProblematical":12597,"Ġmodels":12598,"smaller":12599,"oppon":12600,"enlarging":12601,"Ġthyself":12602,"Ġreconcile":12603,"Ġconcealment":12604,"donation":12605,"Ġmachinery":12606,"Ġroads":12607,"pathologically":12608,"Persuasion":12609,"delusion":12610,"ĠÃĨSTHE":12611,"Ġalternation":12612,"Ġalternatively":12613,"Ġexemption":12614,"Ġmysticism":12615,"Ġneighbouring":12616,"Ġexcellence":12617,"definitely":12618,"Ġelaborate":12619,"contemplation":12620,"imagine":12621,"Ġheights":12622,"Ġannexes":12623,"inseparable":12624,"Ġsilver":12625,"dogmatically":12626,"devised":12627,"Ġfellow":12628,"convincing":12629,"declar":12630,"genius":12631,"honesty":12632,"ĠReligion":12633,"repute":12634,"introduction":12635,"Ġinexorably":12636,"Ġsurprise":12637,"Ġaccidentally":12638,"Ġvalues":12639,"Ġinvented":12640,"Ġastonishing":12641,"Ġinstruments":12642,"Ġbonus":12643,"transcends":12644,"Ġencourage":12645,"majesty":12646,"confirmation":12647,"preventing":12648,"Ġvoluntarily":12649,"tellect":12650,"Objects":12651,"Ġratiocinant":12652,"break":12653,"Ġpotential":12654,"Ġdisappeared":12655,"Ġtautological":12656,"beneficial":12657,"sentiments":12658,"Ġtolerate":12659,"Ġsalts":12660,"Ġquickly":12661,"Ġarmour":12662,"reconciled":12663,"abandoned":12664,"plainly":12665,"Ġadministration":12666,"azard":12667,"Ġsections":12668,"Ġlatent":12669,"Ġlimbs":12670,"elevated":12671,"Ġwiser":12672,"Ġdecrease":12673,"architectonic":12674,"wrong":12675,"Ġbroke":12676,"primary":12677,"Ġtreasures":12678,"laborious":12679,"convenience":12680,"embarrassment":12681,"Introduction":12682,"ĠNegation":12683,"scholastic":12684,"EFIN":12685,"Ġconceded":12686,"Ġimpotence":12687,"Ġappertaining":12688,"Ġspherical":12689,"Ġtradesman":12690,"Ġeloquent":12691,"Ġpresumptuous":12692,"ĠArchitectonic":12693,"Ġsanctions":12694,"Particular":12695,"Ġvigour":12696,"ĠPlurality":12697,"obstacles":12698,"victory":12699,"Ġtorment":12700,"Ġoptical":12701,"ĠAmerica":12702,"Categories":12703,"Possibility":12704,"coverably":12705,"Ġaequivoca":12706,"Ġdiligence":12707,"ĠBaumgarten":12708,"Things":12709,"cobweb":12710,"fictitious":12711,"hopes":12712,"mastery":12713,"encouragement":12714,"Ġanomaly":12715,"Ġintegr":12716,"Ġsecrets":12717,"Ġtibi":12718,"Ġinanimate":12719,"Ġunalterable":12720,"ĠFACULTY":12721,"ĠSMALL":12722,"ĠÃĨSTHETIC":12723,")-":12724,")[":12725,"*(":12726,".=":12727,"83":12728,"Apperception":12729,"Cosmological":12730,"Des":12731,"DIC":12732,"Different":12733,"LE":12734,"Last":12735,"LEG":12736,"Michael":12737,"Non":12738,"Sh":12739,"TO":12740,"Two":12741,"Yes":12742,"YSTEM":12743,"];":12744,"_);":12745,"ball":12746,"busy":12747,"cs":12748,"covery":12749,"cundity":12750,"crowd":12751,"casus":12752,"data":12753,"fear":12754,"gained":12755,"hart":12756,"holiness":12757,"iking":12758,"jacent":12759,"ked":12760,"laid":12761,"master":12762,"moments":12763,"niz":12764,"obe":12765,"pus":12766,"past":12767,"rash":12768,"scribed":12769,"slight":12770,"task":12771,"vestig":12772,"viol":12773,"vocation":12774,"wants":12775,"yr":12776,"yers":12777,"Ġ)":12778,"Ġhen":12779,"Ġiz":12780,"Ġensive":12781,"Ġicians":12782,"Ġician":12783,"Ġtends":12784,"Ġturning":12785,"Ġale":12786,"Ġaken":12787,"instances":12788,"inhab":12789,"inheres":12790,"inconceivable":12791,"Ġomission":12792,"Ġthee":12793,"Ġtheist":12794,"rehension":12795,"recisely":12796,"recognize":12797,"ititious":12798,"itchie":12799,"Ġoft":12800,"aturn":12801,"eron":12802,"erately":12803,"Ġwent":12804,"Ġwound":12805,"Ġwood":12806,"Ġcure":12807,"Ġcath":12808,"Ġcru":12809,"Ġcasus":12810,"Ġsad":12811,"Ġsap":12812,"Ġsites":12813,"Ġpect":12814,"Ġpledge":12815,"Ġpious":12816,"aling":12817,"alaris":12818,"icine":12819,"Ġinane":12820,"Ġinequality":12821,"esult":12822,"Ġthine":12823,"Ġthresh":12824,"Ġfought":12825,"Ġfatum":12826,"ctober":12827,"analytic":12828,"Ġnes":12829,"severest":12830,"Ġision":12831,"left":12832,"Ġither":12833,"Ġrever":12834,"Ġrecollection":12835,"Ġretrace":12836,"Ġrecapit":12837,"Ġdates":12838,"Ġdumb":12839,"Ġcongr":12840,"Ġconvey":12841,"Ġconveyed":12842,"stability":12843,"stones":12844,"Ġbead":12845,"omination":12846,"entities":12847,"arius":12848,"utmost":12849,"ascribe":12850,"Ġhover":12851,"Ġases":12852,"Ġassem":12853,"Ġug":12854,"impose":12855,"imposes":12856,"immaterial":12857,"improvement":12858,"ossession":12859,"Ġanterior":12860,"Ġling":12861,"Ġlib":12862,"Ġlend":12863,"Ġloth":12864,"Ġliberum":12865,"jective":12866,"Ġforge":12867,"Ġforcing":12868,"Ġforsakes":12869,"deceived":12870,"deistic":12871,"ureans":12872,"teronomy":12873,"Ġgout":12874,"Ġgaps":12875,"cill":12876,"irginia":12877,"Ġwithstand":12878,"Äłes":12879,"Äław":12880,"Äłpos":12881,"Äłart":12882,"Äłsy":12883,"Äłman":12884,"Äłdetermin":12885,"Äłwor":12886,"ÄłAN":12887,"Äłconce":12888,"resides":12889,"ulzer":12890,"perceived":12891,"permission":12892,"Ġdecom":12893,"Ġdearest":12894,"Ġdepth":12895,"ĠTwo":12896,"Ġallure":12897,"chasm":12898,"conveyed":12899,"converted":12900,"conducive":12901,"usiveness":12902,"Ġintimid":12903,"acted":12904,"activity":12905,"idger":12906,"idnight":12907,"Ġhaph":12908,"Ġator":12909,"Ġatively":12910,"abyss":12911,"Ġ(*":12912,"meet":12913,"plies":12914,"plausible":12915,"illain":12916,"olat":12917,"olina":12918,"Ġunsh":12919,"Ġunlike":12920,"Ġunreal":12921,"Ġunnecessarily":12922,"Ġunfit":12923,"Ġunbelief":12924,"Ġunexception":12925,"Ġunsatisfied":12926,"Ġuninfluenced":12927,"Ġunrestricted":12928,"Ġunguarded":12929,"Ġunfortunate":12930,"Ġunyielding":12931,"Ġunconqu":12932,"Ġunsettled":12933,"Ġcael":12934,"Ġcomets":12935,"Ġrust":12936,"Ġraw":12937,"Ġspur":12938,"Ġspread":12939,"idel":12940,"herit":12941,"herself":12942,"Ġsel":12943,"Ġseyn":12944,"standard":12945,"Ġheredit":12946,"Ġexistential":12947,"usement":12948,"aked":12949,"foreseen":12950,"posal":12951,"positio":12952,"Ġformarum":12953,"advert":12954,"Ġimprov":12955,"orially":12956,"Ġks":12957,"indulgence":12958,"Ġstit":12959,"Ġstem":12960,"Ġstars":12961,"Ġshaken":12962,"Ġshield":12963,"ĠFunction":12964,"ĠAldarond":12965,"exterior":12966,"Ġcogniz":12967,"Ġcognitio":12968,"Ġque":12969,"Ġquib":12970,"whilst":12971,"wholly":12972,"Ġideally":12973,"units":12974,"unlimited":12975,"untrue":12976,"unchangeable":12977,"unciated":12978,"unsearchable":12979,"Ġaccru":12980,"Ġaccredit":12981,"ĠPol":12982,"ĠPolit":12983,"ĠPlease":12984,"ĠPolem":12985,"ĠPrecisely":12986,"Ġappoint":12987,"Ġyaw":12988,"Ġyoke":12989,"Ġadjacent":12990,"Ġadjective":12991,"Ġunderstandings":12992,"Ġdisposing":12993,"Ġdiscontinu":12994,"Ġdisrepute":12995,"sequence":12996,"Ġark":12997,"ĠSenses":12998,"ĠSaturn":12999,"ĠThirdly":13000,"strings":13001,"striking":13002,"Ġeveryday":13003,"spaces":13004,"ĠOU":13005,"ĠOctober":13006,"Ġsyntheses":13007,"ĠNations":13008,"ĠNihil":13009,"ĠNovember":13010,"Ġsubsequently":13011,"Ġsubreptio":13012,"Ġsubdued":13013,"elen":13014,"predetermined":13015,"prehensible":13016,"prepared":13017,"astical":13018,"astically":13019,"Ġgeneratio":13020,"Ġpurified":13021,"Ġprecl":13022,"Ġpreposited":13023,"Ġprecaution":13024,"Ġpremonition":13025,"ĠCicero":13026,"ĠGreat":13027,"ĠGENERAL":13028,"Ġplants":13029,"Ġgrief":13030,"possibilities":13031,"monads":13032,"ĠWis":13033,"ĠWould":13034,"ĠWere":13035,"ĠWidger":13036,"ĠIncl":13037,"ĠIntellect":13038,"Ġcertainties":13039,"Ġcaused":13040,"conditional":13041,"Theological":13042,"ĠHitherto":13043,"ĠHenry":13044,"Ġcontrari":13045,"road":13046,"Ġobnoxious":13047,"ĠRome":13048,"Ġwashed":13049,"Ġdisturb":13050,"weaken":13051,"wealth":13052,"oldest":13053,"âĢĿ),":13054,"ployment":13055,"Ġactor":13056,"Ġactuating":13057,"inking":13058,"procure":13059,"withdrawn":13060,"Ġagency":13061,"ĠEr":13062,"ĠEs":13063,"ĠEqu":13064,"ĠEBC":13065,"Ġrationalist":13066,"Ġvaluel":13067,"ÃĦÅĤS":13068,"ÃĦÅĤw":13069,"overlook":13070,"overstep":13071,"overthrow":13072,"parison":13073,"paralogism":13074,"medium":13075,"mediable":13076,"nearer":13077,"Ġoutwe":13078,"Ġpresiding":13079,"Ġterror":13080,"Ġamp":13081,"Ġpurposely":13082,"ĠDest":13083,"ĠDialect":13084,"ĠDOM":13085,"Ġattends":13086,"ĠReciproc":13087,"assable":13088,"Ġreale":13089,"Ġrealitates":13090,"Ġbases":13091,"Ġconstituent":13092,"Ġperfections":13093,"Ġcritics":13094,"existed":13095,"existences":13096,"ĠMont":13097,"iousness":13098,"ultaneity":13099,"Ġimpair":13100,"Ġimpenetrable":13101,"Ġimpaired":13102,"Ġimpassable":13103,"cognizing":13104,"ava":13105,"Thought":13106,"ogito":13107,"ĠUpdated":13108,"Ġexplication":13109,"Ġcommences":13110,"ĠLest":13111,"Ġhandles":13112,"Ġcompound":13113,"Ġrestless":13114,"undoubtedly":13115,"events":13116,"Ġclock":13117,"Ġiable":13118,"Ġcontradicting":13119,"Ġresiding":13120,"Ġadvised":13121,"otheology":13122,"regulate":13123,"regulated":13124,"disk":13125,"disjunctive":13126,"disappears":13127,"Ġtruthfulness":13128,"Ġsuppressed":13129,"Ġsumm":13130,"blances":13131,"blunder":13132,"Ġphysica":13133,"Ġfinishing":13134,"substitution":13135,"ĠConjunction":13136,"ĠContent":13137,"Ġclearing":13138,"Ġedifices":13139,"Ġworthless":13140,"misconception":13141,"misapprehension":13142,"aimed":13143,"Ġmoderately":13144,"Ġpersonified":13145,"Ġconfusions":13146,"Ġ26":13147,"grace":13148,"Ġimperilled":13149,"Ġregression":13150,"Ġregressively":13151,"Ġcontingencies":13152,"Ġscope":13153,"Ġlesser":13154,"Ġlessened":13155,"Ġovercoming":13156,"parte":13157,"parted":13158,"ĠSupposing":13159,"Ġmainly":13160,"Ġmeanest":13161,"Ġassertorial":13162,"Ġassertorially":13163,"Ġidealizing":13164,"Ġequipped":13165,"Ġremarking":13166,"bitably":13167,"contradicts":13168,"contradictorily":13169,"ĠBeings":13170,"ĠPrimal":13171,"Ġmisology":13172,"Ġmisrepresentation":13173,"Ġmisapplied":13174,"Ġmisleads":13175,"Ġmiserably":13176,"Ġcoin":13177,"Ġcoins":13178,"Ġprovidence":13179,"transcendentalism":13180,"ĠKNOW":13181,"Ġobliterated":13182,"Ġpromised":13183,"Ġdenying":13184,"Ġdenomination":13185,"Ġpeculiarly":13186,"undertaking":13187,"Äłsch":13188,"Ġappreciated":13189,"Ġapprehensions":13190,"Ġartifice":13191,"Ġbrother":13192,"Ġbrutes":13193,"Ġbrutum":13194,"Ġawakes":13195,"REM":13196,"descent":13197,"Ġargumentative":13198,"aveolens":13199,"extreme":13200,"creation":13201,"differ":13202,"Äłinde":13203,"Ġwarfare":13204,"Ġmaintainer":13205,"Ġundone":13206,"Ġundisc":13207,"brain":13208,"Ġdesignates":13209,"Ġdesignating":13210,"Ġaffirming":13211,"connecting":13212,"Ġcircuit":13213,"Ġparsimony":13214,"Ġ4000":13215,"leges":13216,"Ġintellectualized":13217,"Ġdistinctness":13218,"prescribed":13219,"Ġconvict":13220,"Ġconvictions":13221,"happened":13222,"ĠVery":13223,"Ġintrude":13224,"Ġoperative":13225,"Ġcorrected":13226,"ynics":13227,"Ġignore":13228,"Ġmedicine":13229,"Ġstatesman":13230,"Ġdeclined":13231,"ĠUnphilosophical":13232,"Ġpains":13233,"Äłrem":13234,"categorically":13235,"IST":13236,"Ġframes":13237,"Ġreferable":13238,"Ġears":13239,"impenetrable":13240,"ftp":13241,"caused":13242,"ificate":13243,"ĠExternal":13244,"ĠExtent":13245,"ĠExamples":13246,"Ġ*(":13247,"Ġprofundity":13248,"Ġmeanings":13249,"Ġmeaningless":13250,"Ġdynamics":13251,"physician":13252,"physiological":13253,"remote":13254,"remained":13255,"Ġdelivers":13256,"Ġdelusions":13257,"Ġdelicate":13258,"Ġdelivered":13259,"compound":13260,"asked":13261,"Ġagreeably":13262,"Ġchemists":13263,"constituted":13264,"constituent":13265,"Ġarbitrium":13266,"includes":13267,"Ġcarelessness":13268,"applies":13269,"Ġ93":13270,"Ġ96":13271,"Ġelemental":13272,"Ġinterior":13273,"Ġinterrog":13274,"orizontal":13275,"metaphysicians":13276,"venal":13277,"consisting":13278,"Ġsignificancy":13279,"Ġflower":13280,"Ġ78":13281,"Ġolder":13282,"quanta":13283,"worthless":13284,"mathematician":13285,"Ġoccasional":13286,"iana":13287,"thinkers":13288,"Ġgeometricians":13289,"Ġgeometrician":13290,"Ġautomaton":13291,"Ġindiscernib":13292,"confutation":13293,"guides":13294,"Ġhighway":13295,"Ġdogmata":13296,"Ġdogmatists":13297,"originator":13298,"originarium":13299,"Ġconverting":13300,"sensatio":13301,"changeably":13302,"cogitable":13303,"cogitating":13304,"ĠPhalaris":13305,"advances":13306,"Ġrepul":13307,"Ġrepress":13308,"realized":13309,"realissimum":13310,"divisible":13311,"Ġspirituality":13312,"ĠSphere":13313,"predicated":13314,"glorious":13315,"Ġexperimental":13316,"demonstrations":13317,"demonstratively":13318,"Ġaesthetically":13319,"Ġglim":13320,"Ġprudential":13321,"discovers":13322,"investigating":13323,"ĠHerein":13324,"Ġdetection":13325,"reflex":13326,"Ġexciting":13327,"Ġsophistry":13328,"Ġestimates":13329,"ĠSeat":13330,"Ġdiversities":13331,"Ġconfining":13332,"Ġbenef":13333,"Ġbenefits":13334,"Ġascends":13335,"Ġdecried":13336,"Ġdeviate":13337,"Conceptions":13338,"Ġreckons":13339,"Ġfirmness":13340,"ĠPROCEDU":13341,"attempting":13342,"affinity":13343,"Ġlowering":13344,"examine":13345,"examining":13346,"examined":13347,"drawing":13348,"Ġwrought":13349,"ĠEmpiricism":13350,"ĠEmployment":13351,"Ġ2003":13352,"psychologia":13353,"ĠLogicians":13354,"Ġprosyllogisms":13355,"Ġrenounces":13356,"Äłextr":13357,"Ġteachings":13358,"ĠINTERNAL":13359,"Ġderivable":13360,"Ġauthorizes":13361,"Ġauthorizing":13362,"Ġmonogram":13363,"Ġmonads":13364,"Ġblindness":13365,"operate":13366,"operative":13367,"operating":13368,"Ġcalculation":13369,"Ġillegitimate":13370,"regressive":13371,"regressus":13372,"Ġheader":13373,"Ġsuffers":13374,"Ġsuffice":13375,"ĠWhile":13376,"Ġinjured":13377,"Ġlargest":13378,"Ġsympath":13379,"Ġhardness":13380,"Ġillustrations":13381,"Ġscholastically":13382,"moon":13383,"movable":13384,"define":13385,"Ġattractions":13386,"Ġadducing":13387,"ĠLeibnitzian":13388,"inquire":13389,"depending":13390,"Ġpoem":13391,"shows":13392,"showing":13393,"Ġinfers":13394,"Ġinfused":13395,"Ġfortunately":13396,"Ġvanishes":13397,"versa":13398,"ĠComposition":13399,"ĠEpicureans":13400,"requirement":13401,"Ġdeepest":13402,"Ġconfusedly":13403,"oxysms":13404,"Ġrejects":13405,"Ġrejection":13406,"begins":13407,"degrees":13408,"ĠPermitted":13409,"Ġlocale":13410,"ĠTranscendent":13411,"ĠTrancendent":13412,"Ġsubstantive":13413,"ĠDiscovery":13414,"Ġdictation":13415,"personality":13416,"Ġaltering":13417,"ĠPRINT":13418,"Ġpresumed":13419,"Ġcolouring":13420,"Ġomnipresent":13421,"Ġtypic":13422,
[...]
